<unk>	0
<s>	0
</s>	0
<pad>	0
en	-0
er	-1
in	-2
▁a	-3
▁t	-4
▁d	-5
ch	-6
es	-7
on	-8
▁th	-9
un	-10
it	-11
is	-12
▁s	-13
▁w	-14
at	-15
ie	-16
or	-17
an	-18
▁the	-19
re	-20
▁b	-21
▁o	-22
al	-23
ar	-24
▁in	-25
▁f	-26
ich	-27
▁m	-28
te	-29
ion	-30
▁e	-31
▁an	-32
ur	-33
as	-34
le	-35
▁p	-36
▁c	-37
▁un	-38
▁h	-39
us	-40
▁S	-41
ent	-42
ge	-43
▁of	-44
ro	-45
▁n	-46
▁v	-47
ing	-48
ung	-49
▁and	-50
▁to	-51
▁A	-52
ll	-53
ed	-54
▁die	-55
om	-56
▁der	-57
▁und	-58
▁E	-59
▁I	-60
ig	-61
st	-62
ic	-63
▁be	-64
▁M	-65
▁is	-66
▁D	-67
▁T	-68
▁ein	-69
▁B	-70
▁P	-71
ir	-72
▁z	-73
im	-74
▁g	-75
el	-76
ra	-77
ut	-78
ter	-79
em	-80
il	-81
▁W	-82
ten	-83
ol	-84
ation	-85
eit	-86
der	-87
et	-88
▁F	-89
▁l	-90
am	-91
den	-92
▁re	-93
▁G	-94
hr	-95
ies	-96
um	-97
op	-98
▁K	-99
ct	-100
▁H	-101
sch	-102
▁R	-103
ul	-104
▁k	-105
uf	-106
▁C	-107
ber	-108
iv	-109
lich	-110
de	-111
▁V	-112
▁for	-113
ab	-114
ot	-115
ür	-116
isch	-117
ier	-118
icht	-119
gen	-120
▁Th	-121
▁das	-122
▁on	-123
▁zu	-124
▁L	-125
ere	-126
▁den	-127
ly	-128
est	-129
ess	-130
▁that	-131
os	-132
and	-133
id	-134
▁U	-135
ce	-136
omm	-137
ein	-138
ers	-139
▁pro	-140
▁al	-141
ow	-142
▁wh	-143
ach	-144
▁von	-145
▁r	-146
▁ge	-147
ort	-148
uch	-149
▁im	-150
▁st	-151
▁y	-152
ith	-153
▁In	-154
▁wir	-155
kt	-156
▁N	-157
if	-158
▁con	-159
▁ist	-160
▁ver	-161
▁er	-162
ver	-163
▁with	-164
▁auf	-165
▁we	-166
▁für	-167
urop	-168
ay	-169
ill	-170
▁des	-171
▁it	-172
ve	-173
▁mit	-174
ad	-175
▁are	-176
ts	-177
▁Z	-178
▁1	-179
ind	-180
▁as	-181
ck	-182
▁so	-183
▁de	-184
▁The	-185
▁ne	-186
▁(	-187
iss	-188
▁yo	-189
▁dies	-190
▁St	-191
end	-192
af	-193
▁Europ	-194
pp	-195
ate	-196
ment	-197
ik	-198
th	-199
▁se	-200
qu	-201
▁2	-202
ist	-203
ungen	-204
la	-205
▁Un	-206
00	-207
ischen	-208
nen	-209
men	-210
ib	-211
▁Ver	-212
▁als	-213
ust	-214
▁eine	-215
ak	-216
▁ex	-217
ant	-218
▁dem	-219
ne	-220
for	-221
▁this	-222
ah	-223
ity	-224
▁O	-225
▁ha	-226
ive	-227
ien	-228
ial	-229
▁An	-230
▁j	-231
▁Sie	-232
▁or	-233
art	-234
▁J	-235
▁nicht	-236
pe	-237
▁wer	-238
ug	-239
und	-240
▁co	-241
▁not	-242
ann	-243
ste	-244
über	-245
▁-	-246
▁sich	-247
▁all	-248
▁le	-249
än	-250
ub	-251
ff	-252
▁werden	-253
tel	-254
▁Re	-255
▁by	-256
we	-257
▁have	-258
▁dass	-259
rom	-260
ag	-261
igen	-262
▁at	-263
igh	-264
▁es	-265
ass	-266
ens	-267
▁aus	-268
ain	-269
all	-270
uld	-271
▁Die	-272
▁you	-273
▁sh	-274
▁will	-275
up	-276
sp	-277
od	-278
▁ab	-279
▁com	-280
▁uns	-281
iel	-282
ern	-283
aus	-284
▁über	-285
▁i	-286
ure	-287
▁me	-288
ze	-289
ions	-290
age	-291
▁which	-292
ommiss	-293
▁Pr	-294
ted	-295
ran	-296
▁was	-297
▁auch	-298
ben	-299
▁Sch	-300
lie	-301
▁from	-302
ahr	-303
▁Europe	-304
..	-305
hal	-306
ungs	-307
hen	-308
och	-309
du	-310
ard	-311
▁um	-312
▁Be	-313
ould	-314
▁sch	-315
▁We	-316
▁sind	-317
▁us	-318
▁Pro	-319
tr	-320
tern	-321
▁ch	-322
ommission	-323
ident	-324
og	-325
▁pr	-326
▁ent	-327
▁wird	-328
fer	-329
▁vor	-330
esch	-331
uss	-332
▁has	-333
▁En	-334
ue	-335
▁hab	-336
ip	-337
schaf	-338
iz	-339
ft	-340
mer	-341
port	-342
ön	-343
▁wor	-344
gr	-345
ine	-346
▁en	-347
ud	-348
ss	-349
▁res	-350
llen	-351
oc	-352
ang	-353
ous	-354
ische	-355
ick	-356
▁Er	-357
ok	-358
▁da	-359
▁wie	-360
▁Par	-361
ast	-362
enn	-363
ät	-364
our	-365
▁he	-366
▁can	-367
▁man	-368
me	-369
urch	-370
ise	-371
able	-372
etz	-373
▁am	-374
form	-375
ige	-376
ire	-377
err	-378
keit	-379
▁hat	-380
▁ich	-381
▁sein	-382
▁Ar	-383
ap	-384
ost	-385
▁oder	-386
pr	-387
▁our	-388
ert	-389
ore	-390
ament	-391
ia	-392
cc	-393
erv	-394
be	-395
otel	-396
▁zur	-397
▁comp	-398
ult	-399
beit	-400
▁also	-401
▁European	-402
ations	-403
▁haben	-404
▁"	-405
▁sie	-406
ction	-407
▁Mit	-408
ational	-409
ru	-410
heit	-411
ical	-412
▁ad	-413
ition	-414
lichen	-415
▁Aus	-416
ese	-417
ish	-418
lo	-419
ice	-420
ated	-421
he	-422
out	-423
are	-424
dern	-425
▁bei	-426
▁Ein	-427
▁do	-428
▁kön	-429
▁einer	-430
olit	-431
ome	-432
rit	-433
se	-434
aten	-435
tz	-436
hl	-437
ther	-438
▁Wir	-439
ord	-440
▁Ge	-441
▁200	-442
ark	-443
fü	-444
ieren	-445
pt	-446
ect	-447
▁unter	-448
her	-449
ün	-450
▁qu	-451
▁einen	-452
▁nach	-453
▁Parl	-454
ac	-455
schaft	-456
ht	-457
ms	-458
▁part	-459
är	-460
tet	-461
iert	-462
ign	-463
▁your	-464
elt	-465
▁its	-466
▁Union	-467
ight	-468
ates	-469
vel	-470
oun	-471
ake	-472
tra	-473
▁te	-474
▁Das	-475
ear	-476
▁reg	-477
ite	-478
▁durch	-479
▁gro	-480
▁Fra	-481
ank	-482
ian	-483
au	-484
▁Ber	-485
ger	-486
fen	-487
▁su	-488
yste	-489
▁sp	-490
▁wur	-491
▁It	-492
▁but	-493
▁können	-494
ember	-495
▁go	-496
ide	-497
▁Vor	-498
▁ro	-499
ary	-500
cial	-501
▁ag	-502
▁Ich	-503
▁Ab	-504
▁there	-505
oll	-506
liche	-507
per	-508
▁Mr	-509
gt	-510
äs	-511
▁app	-512
con	-513
▁3	-514
ose	-515
ör	-516
▁dar	-517
anz	-518
▁Commission	-519
hre	-520
▁ste	-521
cht	-522
▁EU	-523
▁war	-524
ual	-525
▁tra	-526
▁Herr	-527
chen	-528
rie	-529
▁19	-530
cl	-531
ime	-532
▁would	-533
▁spe	-534
eren	-535
▁more	-536
▁mö	-537
▁–	-538
tw	-539
ance	-540
ile	-541
ail	-542
▁their	-543
ov	-544
▁zum	-545
▁been	-546
▁einem	-547
mp	-548
ommen	-549
▁gen	-550
▁bes	-551
▁cont	-552
reat	-553
ute	-554
uß	-555
glich	-556
▁Al	-557
imm	-558
ase	-559
ame	-560
chn	-561
act	-562
ong	-563
chte	-564
▁Europä	-565
▁ar	-566
gra	-567
▁Te	-568
utz	-569
▁fin	-570
▁This	-571
▁kann	-572
ild	-573
ück	-574
ble	-575
▁diese	-576
oss	-577
▁De	-578
▁one	-579
ack	-580
▁acc	-581
▁Le	-582
che	-583
ont	-584
üss	-585
▁nur	-586
▁dis	-587
ugh	-588
one	-589
▁Ch	-590
▁coun	-591
ents	-592
▁Sp	-593
▁Unter	-594
▁per	-595
▁comm	-596
sten	-597
ges	-598
hn	-599
gan	-600
▁Auf	-601
▁should	-602
▁alle	-603
▁bet	-604
ahl	-605
▁.	-606
▁work	-607
▁pl	-608
▁Hotel	-609
ution	-610
wer	-611
...	-612
▁Gr	-613
lic	-614
ike	-615
▁new	-616
▁Der	-617
ierung	-618
eine	-619
geb	-620
▁,	-621
▁up	-622
▁cl	-623
auf	-624
▁Se	-625
ob	-626
land	-627
ely	-628
zu	-629
hmen	-630
ree	-631
▁Jahr	-632
▁For	-633
ktion	-634
äsident	-635
av	-636
hren	-637
▁dieser	-638
▁out	-639
▁ob	-640
igkeit	-641
▁Pres	-642
to	-643
ld	-644
ner	-645
▁jed	-646
olle	-647
ons	-648
reich	-649
pl	-650
▁countr	-651
▁pre	-652
▁Dies	-653
▁very	-654
▁ind	-655
ings	-656
▁must	-657
▁inter	-658
▁zw	-659
▁Es	-660
bar	-661
▁daß	-662
▁Kommission	-663
▁noch	-664
▁other	-665
▁who	-666
ke	-667
▁produ	-668
ähr	-669
▁ev	-670
formation	-671
ities	-672
▁ma	-673
▁they	-674
▁weit	-675
▁pe	-676
gram	-677
mit	-678
▁need	-679
ink	-680
ces	-681
pro	-682
wo	-683
▁wurde	-684
ors	-685
ater	-686
▁ber	-687
tell	-688
▁no	-689
ments	-690
▁mehr	-691
schen	-692
▁only	-693
▁year	-694
▁soll	-695
▁supp	-696
▁intern	-697
▁cons	-698
rat	-699
▁fe	-700
▁President	-701
▁bec	-702
▁like	-703
gel	-704
olog	-705
▁aber	-706
ple	-707
▁str	-708
oin	-709
ystem	-710
▁wenn	-711
glie	-712
▁time	-713
▁5	-714
▁about	-715
▁Präsident	-716
üssen	-717
▁polit	-718
teil	-719
fe	-720
pos	-721
▁4	-722
▁any	-723
entr	-724
ible	-725
erm	-726
ious	-727
leich	-728
uen	-729
▁sehr	-730
ced	-731
▁prov	-732
assen	-733
).	-734
▁Y	-735
ange	-736
▁ges	-737
velop	-738
▁Reg	-739
▁müssen	-740
xt	-741
lin	-742
ally	-743
ry	-744
ität	-745
ject	-746
▁unser	-747
nah	-748
▁tran	-749
▁eff	-750
enz	-751
▁wo	-752
cess	-753
alt	-754
▁sow	-755
hnen	-756
▁ra	-757
arbeit	-758
iament	-759
ient	-760
ütz	-761
▁Arbeit	-762
onder	-763
ammen	-764
▁these	-765
▁Parlament	-766
▁sol	-767
▁rec	-768
▁serv	-769
▁dire	-770
▁off	-771
io	-772
▁Mitglie	-773
fore	-774
ans	-775
atz	-776
ular	-777
▁vie	-778
own	-779
▁Member	-780
fahr	-781
led	-782
▁hin	-783
usammen	-784
ility	-785
ied	-786
ibt	-787
▁import	-788
stit	-789
▁diesem	-790
äl	-791
ph	-792
ring	-793
▁Men	-794
▁So	-795
als	-796
irst	-797
ures	-798
ider	-799
erson	-800
ause	-801
aaten	-802
ople	-803
igt	-804
▁if	-805
ßen	-806
▁gegen	-807
▁develop	-808
ism	-809
wend	-810
▁such	-811
cy	-812
halten	-813
▁Um	-814
▁la	-815
fol	-816
fl	-817
änd	-818
▁report	-819
▁act	-820
▁ihre	-821
ays	-822
ook	-823
unden	-824
wn	-825
sche	-826
▁Europäischen	-827
▁pol	-828
iger	-829
iven	-830
▁gr	-831
▁Ma	-832
▁sub	-833
ative	-834
etzt	-835
▁bis	-836
ateg	-837
dition	-838
▁rel	-839
ks	-840
▁Zeit	-841
▁over	-842
ific	-843
▁my	-844
▁20	-845
▁ins	-846
▁Parliament	-847
wor	-848
nehmen	-849
itu	-850
ale	-851
▁into	-852
▁Ne	-853
▁were	-854
kte	-855
▁ihr	-856
▁people	-857
führ	-858
str	-859
▁well	-860
ices	-861
cre	-862
▁gem	-863
iden	-864
▁Ü	-865
▁As	-866
▁best	-867
ken	-868
erg	-869
▁viel	-870
▁some	-871
▁international	-872
),	-873
bs	-874
▁möchte	-875
ement	-876
▁what	-877
lung	-878
▁use	-879
▁inv	-880
enden	-881
cil	-882
conom	-883
acht	-884
ene	-885
isten	-886
▁Mitglied	-887
▁Mar	-888
▁States	-889
▁dif	-890
▁high	-891
▁hier	-892
arge	-893
fr	-894
icher	-895
▁mark	-896
▁Or	-897
▁eines	-898
▁her	-899
▁sa	-900
▁Coun	-901
uropä	-902
amen	-903
▁Im	-904
▁Über	-905
rei	-906
ory	-907
very	-908
▁hotel	-909
▁countries	-910
▁kn	-911
▁bed	-912
ou	-913
▁first	-914
▁loc	-915
zeit	-916
ull	-917
▁gew	-918
▁incl	-919
olitik	-920
ention	-921
▁than	-922
▁vom	-923
▁hel	-924
▁most	-925
▁tr	-926
▁wicht	-927
▁Me	-928
▁dec	-929
▁his	-930
▁under	-931
▁partic	-932
▁lie	-933
▁when	-934
pect	-935
itte	-936
iet	-937
▁them	-938
ace	-939
esent	-940
ating	-941
ages	-942
inn	-943
ards	-944
▁vers	-945
▁Q	-946
▁Kon	-947
▁just	-948
les	-949
▁Council	-950
▁dam	-951
▁Menschen	-952
▁polic	-953
▁Entw	-954
sicht	-955
▁sowie	-956
itz	-957
ett	-958
▁now	-959
▁wel	-960
▁He	-961
▁ele	-962
ond	-963
▁again	-964
▁support	-965
abe	-966
▁Bericht	-967
▁europä	-968
▁gu	-969
tre	-970
äch	-971
ights	-972
änder	-973
▁dieses	-974
▁aut	-975
att	-976
▁make	-977
ats	-978
▁important	-979
▁bas	-980
lä	-981
ween	-982
▁many	-983
els	-984
▁Land	-985
halt	-986
▁pla	-987
▁gibt	-988
ues	-989
▁econom	-990
essen	-991
kl	-992
stütz	-993
▁room	-994
▁between	-995
kommen	-996
▁how	-997
hand	-998
oth	-999
fin	-1000
je	-1001
▁6	-1002
▁Comm	-1003
ho	-1004
▁requ	-1005
▁propos	-1006
▁Nach	-1007
▁ass	-1008
halb	-1009
▁mo	-1010
wir	-1011
▁techn	-1012
issen	-1013
ives	-1014
fter	-1015
igung	-1016
any	-1017
▁fr	-1018
ließ	-1019
ös	-1020
ural	-1021
▁zwischen	-1022
▁poss	-1023
▁because	-1024
staaten	-1025
▁'	-1026
ence	-1027
ware	-1028
▁bereit	-1029
bst	-1030
▁take	-1031
öglich	-1032
ters	-1033
▁fre	-1034
▁Verb	-1035
▁Bed	-1036
▁leg	-1037
▁Pl	-1038
▁Fl	-1039
ublic	-1040
legen	-1041
▁world	-1042
▁Entwick	-1043
▁kon	-1044
▁cre	-1045
zie	-1046
uer	-1047
tschaft	-1048
▁market	-1049
▁pos	-1050
ote	-1051
dr	-1052
ful	-1053
arm	-1054
▁muss	-1055
mal	-1056
cted	-1057
oint	-1058
▁Ent	-1059
rough	-1060
ever	-1061
blem	-1062
▁find	-1063
▁sel	-1064
zial	-1065
min	-1066
off	-1067
▁fo	-1068
ath	-1069
▁Intern	-1070
weit	-1071
ict	-1072
lear	-1073
hör	-1074
amp	-1075
dit	-1076
▁son	-1077
▁par	-1078
▁op	-1079
▁keine	-1080
▁where	-1081
▁national	-1082
▁unsere	-1083
ount	-1084
▁All	-1085
▁good	-1086
dem	-1087
ality	-1088
omp	-1089
▁„	-1090
▁Ges	-1091
▁min	-1092
▁great	-1093
▁US	-1094
▁Ihre	-1095
▁bie	-1096
▁av	-1097
▁two	-1098
eschä	-1099
▁hand	-1100
▁emp	-1101
▁nat	-1102
▁Art	-1103
▁Ihnen	-1104
vern	-1105
nis	-1106
▁Min	-1107
rauch	-1108
▁Produ	-1109
▁information	-1110
uring	-1111
rä	-1112
rag	-1113
urn	-1114
achen	-1115
öff	-1116
▁rem	-1117
▁verb	-1118
▁every	-1119
▁had	-1120
▁years	-1121
sel	-1122
▁made	-1123
rol	-1124
▁even	-1125
▁conc	-1126
ße	-1127
▁anderen	-1128
ium	-1129
▁einz	-1130
hm	-1131
▁Grund	-1132
stand	-1133
▁mein	-1134
amil	-1135
aut	-1136
▁end	-1137
laub	-1138
unkt	-1139
▁iss	-1140
▁through	-1141
cept	-1142
schie	-1143
▁199	-1144
chten	-1145
▁ange	-1146
▁If	-1147
▁way	-1148
air	-1149
▁Europa	-1150
ession	-1151
fort	-1152
▁system	-1153
▁those	-1154
▁Zusammen	-1155
▁Ä	-1156
▁get	-1157
ischer	-1158
▁product	-1159
lish	-1160
▁see	-1161
▁Mitgliedstaaten	-1162
forder	-1163
ision	-1164
▁Fin	-1165
gend	-1166
ereich	-1167
▁Rat	-1168
ält	-1169
stell	-1170
▁sc	-1171
geben	-1172
ren	-1173
▁weiter	-1174
ws	-1175
ower	-1176
▁Am	-1177
gung	-1178
ina	-1179
immer	-1180
ister	-1181
▁immer	-1182
weise	-1183
day	-1184
▁7	-1185
▁may	-1186
▁order	-1187
ganis	-1188
▁direct	-1189
erein	-1190
▁tak	-1191
lag	-1192
▁policy	-1193
▁Seit	-1194
ys	-1195
▁[	-1196
ußer	-1197
▁disc	-1198
▁Wenn	-1199
ument	-1200
ows	-1201
▁Ex	-1202
lick	-1203
uman	-1204
ster	-1205
▁dann	-1206
▁right	-1207
hne	-1208
▁10	-1209
▁Vorsch	-1210
▁ac	-1211
unity	-1212
ituation	-1213
rif	-1214
ivers	-1215
▁“	-1216
▁being	-1217
▁beste	-1218
ited	-1219
spr	-1220
▁8	-1221
▁Bes	-1222
▁beg	-1223
▁fact	-1224
alls	-1225
▁ke	-1226
ital	-1227
▁There	-1228
▁appro	-1229
chts	-1230
▁rest	-1231
isen	-1232
▁num	-1233
eration	-1234
▁particular	-1235
▁Haus	-1236
nahmen	-1237
000	-1238
▁wieder	-1239
▁Wh	-1240
▁cour	-1241
▁diesen	-1242
▁belie	-1243
▁damit	-1244
▁car	-1245
▁ger	-1246
▁differ	-1247
gest	-1248
ionen	-1249
▁cent	-1250
▁wurden	-1251
ior	-1252
nung	-1253
▁includ	-1254
istr	-1255
vor	-1256
▁zwe	-1257
▁ganz	-1258
com	-1259
bal	-1260
▁Gro	-1261
▁Bereich	-1262
▁Welt	-1263
▁gesch	-1264
icherheit	-1265
▁trans	-1266
aur	-1267
▁own	-1268
ough	-1269
part	-1270
eins	-1271
▁fü	-1272
eln	-1273
isse	-1274
▁On	-1275
▁process	-1276
iness	-1277
elle	-1278
get	-1279
▁Frau	-1280
itt	-1281
▁resp	-1282
adt	-1283
▁Des	-1284
ade	-1285
read	-1286
atter	-1287
innen	-1288
▁mon	-1289
trag	-1290
zeich	-1291
▁know	-1292
▁Ihr	-1293
▁Diese	-1294
stitution	-1295
ouse	-1296
gramm	-1297
▁cur	-1298
old	-1299
10	-1300
▁bus	-1301
▁main	-1302
ändern	-1303
▁exp	-1304
▁At	-1305
▁quest	-1306
ler	-1307
▁area	-1308
▁kein	-1309
az	-1310
▁unserer	-1311
▁del	-1312
oy	-1313
▁bu	-1314
▁ph	-1315
▁Hand	-1316
itä	-1317
alk	-1318
▁Con	-1319
schieden	-1320
hin	-1321
zen	-1322
rechen	-1323
▁Geb	-1324
▁real	-1325
▁agre	-1326
ool	-1327
▁help	-1328
round	-1329
ix	-1330
▁Zu	-1331
▁sm	-1332
schafts	-1333
▁sondern	-1334
▁here	-1335
▁...	-1336
▁habe	-1337
▁comple	-1338
▁You	-1339
▁Gem	-1340
▁seine	-1341
▁deb	-1342
▁jedoch	-1343
▁form	-1344
▁after	-1345
▁stand	-1346
eth	-1347
tegr	-1348
▁Her	-1349
▁Inter	-1350
piel	-1351
ests	-1352
▁9	-1353
leg	-1354
▁political	-1355
▁public	-1356
ruck	-1357
gesch	-1358
▁Information	-1359
urs	-1360
ince	-1361
▁ide	-1362
▁gut	-1363
▁Europäische	-1364
▁place	-1365
▁same	-1366
▁incre	-1367
eld	-1368
mittel	-1369
▁concern	-1370
▁prote	-1371
▁possible	-1372
ved	-1373
ax	-1374
ende	-1375
ently	-1376
▁Bür	-1377
▁Bar	-1378
▁ser	-1379
▁etw	-1380
iron	-1381
▁sim	-1382
▁clear	-1383
▁wür	-1384
öglichkeit	-1385
▁neue	-1386
▁ausge	-1387
schließ	-1388
bens	-1389
ktiv	-1390
▁human	-1391
▁could	-1392
fach	-1393
▁want	-1394
▁dr	-1395
ierte	-1396
▁Ind	-1397
▁Br	-1398
eral	-1399
ines	-1400
tens	-1401
▁heute	-1402
ata	-1403
▁Man	-1404
▁Fre	-1405
▁say	-1406
ics	-1407
▁bef	-1408
▁contin	-1409
▁does	-1410
▁offer	-1411
▁gleich	-1412
▁Ste	-1413
▁number	-1414
lagen	-1415
ven	-1416
nder	-1417
▁Teil	-1418
▁opp	-1419
▁development	-1420
▁est	-1421
use	-1422
▁person	-1423
▁effect	-1424
isk	-1425
ertain	-1426
line	-1427
ustr	-1428
▁then	-1429
ßnahmen	-1430
▁Unternehmen	-1431
▁within	-1432
▁rights	-1433
iti	-1434
ants	-1435
uro	-1436
▁Kolle	-1437
raft	-1438
▁bereits	-1439
osten	-1440
▁wen	-1441
tellt	-1442
▁avail	-1443
▁Schl	-1444
▁Fran	-1445
▁selbst	-1446
▁Fr	-1447
▁Änder	-1448
alen	-1449
▁exam	-1450
▁Str	-1451
▁fest	-1452
▁economic	-1453
▁used	-1454
hip	-1455
▁much	-1456
▁both	-1457
yp	-1458
▁Pre	-1459
ähl	-1460
▁transp	-1461
▁ohne	-1462
▁15	-1463
▁mich	-1464
▁sur	-1465
▁Entwicklung	-1466
▁fund	-1467
aup	-1468
▁against	-1469
▁val	-1470
ma	-1471
▁therefore	-1472
▁prof	-1473
ock	-1474
bes	-1475
▁How	-1476
lage	-1477
▁vis	-1478
ander	-1479
▁Bet	-1480
▁lang	-1481
lobal	-1482
entlich	-1483
stru	-1484
▁Germ	-1485
loy	-1486
▁wichtig	-1487
utions	-1488
icult	-1489
erk	-1490
▁ihrer	-1491
▁hist	-1492
▁neuen	-1493
setz	-1494
▁sollte	-1495
▁level	-1496
▁equ	-1497
ierten	-1498
▁sign	-1499
viron	-1500
▁var	-1501
▁Is	-1502
que	-1503
▁med	-1504
ftware	-1505
ife	-1506
fern	-1507
ständ	-1508
▁Hin	-1509
▁Wie	-1510
ds	-1511
▁europäischen	-1512
erung	-1513
▁Jahren	-1514
▁pra	-1515
▁fun	-1516
ep	-1517
▁full	-1518
ustom	-1519
aff	-1520
▁bring	-1521
satz	-1522
ivid	-1523
▁andere	-1524
▁region	-1525
ulation	-1526
▁play	-1527
ux	-1528
▁Vers	-1529
▁provid	-1530
▁Richt	-1531
äre	-1532
▁cr	-1533
urg	-1534
reichen	-1535
fahren	-1536
br	-1537
▁bo	-1538
▁social	-1539
▁country	-1540
▁denn	-1541
▁zwei	-1542
ittee	-1543
agement	-1544
kun	-1545
ically	-1546
▁view	-1547
net	-1548
eng	-1549
cur	-1550
▁think	-1551
▁bre	-1552
way	-1553
öß	-1554
▁finan	-1555
▁eigen	-1556
▁last	-1557
vironment	-1558
wick	-1559
▁letz	-1560
▁group	-1561
▁still	-1562
work	-1563
licher	-1564
▁without	-1565
its	-1566
äng	-1567
▁12	-1568
ets	-1569
▁meas	-1570
▁exper	-1571
▁point	-1572
wert	-1573
▁denen	-1574
mb	-1575
▁Kl	-1576
▁conf	-1577
par	-1578
ichte	-1579
eut	-1580
▁ens	-1581
▁oper	-1582
kehr	-1583
under	-1584
▁Sicherheit	-1585
over	-1586
▁consider	-1587
immt	-1588
▁adv	-1589
▁Mon	-1590
▁services	-1591
nahme	-1592
▁mod	-1593
▁finden	-1594
▁18	-1595
▁Frage	-1596
▁access	-1597
▁Fe	-1598
esse	-1599
gar	-1600
entral	-1601
▁gemeins	-1602
▁different	-1603
▁opt	-1604
▁sollten	-1605
▁Gen	-1606
fra	-1607
▁long	-1608
▁priv	-1609
▁möglich	-1610
iver	-1611
ffen	-1612
esen	-1613
▁ers	-1614
ährend	-1615
ists	-1616
▁spec	-1617
ize	-1618
hor	-1619
▁Part	-1620
ohl	-1621
▁Person	-1622
▁prin	-1623
▁verschieden	-1624
▁free	-1625
▁down	-1626
▁att	-1627
ollow	-1628
ondere	-1629
▁available	-1630
wort	-1631
res	-1632
ope	-1633
ness	-1634
zeug	-1635
▁require	-1636
man	-1637
ritt	-1638
▁gel	-1639
▁unterstütz	-1640
war	-1641
richt	-1642
ationen	-1643
orte	-1644
▁cap	-1645
▁able	-1646
▁govern	-1647
▁Daten	-1648
▁Bürger	-1649
▁bietet	-1650
hol	-1651
aking	-1652
▁back	-1653
atur	-1654
▁kle	-1655
uture	-1656
ude	-1657
ibility	-1658
▁Kont	-1659
ised	-1660
▁Tra	-1661
zahl	-1662
pf	-1663
akt	-1664
ready	-1665
▁business	-1666
iß	-1667
ability	-1668
yn	-1669
alth	-1670
ER	-1671
▁curr	-1672
▁dazu	-1673
▁special	-1674
urther	-1675
▁before	-1676
▁viele	-1677
vers	-1678
▁look	-1679
ystems	-1680
▁small	-1681
ting	-1682
▁Dem	-1683
ience	-1684
afür	-1685
ator	-1686
▁Kommiss	-1687
▁ben	-1688
▁pers	-1689
ispiel	-1690
▁aller	-1691
▁weil	-1692
ppen	-1693
▁machen	-1694
▁allen	-1695
▁liegt	-1696
▁gest	-1697
gem	-1698
▁already	-1699
▁Aut	-1700
ahmen	-1701
▁bek	-1702
▁ze	-1703
aben	-1704
une	-1705
▁Mittel	-1706
▁custom	-1707
ders	-1708
loss	-1709
ward	-1710
ienst	-1711
▁future	-1712
▁believe	-1713
▁som	-1714
▁cor	-1715
▁air	-1716
ahre	-1717
ins	-1718
ilt	-1719
tem	-1720
zug	-1721
ktur	-1722
ased	-1723
gramme	-1724
▁könn	-1725
ctions	-1726
press	-1727
▁seiner	-1728
▁hal	-1729
▁today	-1730
▁darauf	-1731
cond	-1732
▁course	-1733
ves	-1734
ctor	-1735
ismus	-1736
welt	-1737
▁Stand	-1738
▁jetzt	-1739
▁open	-1740
▁set	-1741
▁cann	-1742
]]	-1743
▁project	-1744
▁design	-1745
▁Möglichkeit	-1746
jor	-1747
ante	-1748
annt	-1749
▁But	-1750
ving	-1751
▁That	-1752
kten	-1753
esell	-1754
▁inst	-1755
▁et	-1756
▁too	-1757
agen	-1758
aher	-1759
▁Ziel	-1760
▁Them	-1761
äß	-1762
▁environment	-1763
▁service	-1764
ron	-1765
▁fl	-1766
▁Ro	-1767
äh	-1768
▁products	-1769
imin	-1770
▁größ	-1771
▁eing	-1772
▁cannot	-1773
omen	-1774
▁Finanz	-1775
▁To	-1776
hält	-1777
▁Rahmen	-1778
itiz	-1779
cr	-1780
ica	-1781
curity	-1782
▁respons	-1783
▁mir	-1784
▁einfach	-1785
▁fac	-1786
▁geht	-1787
▁certain	-1788
nisse	-1789
▁0	-1790
▁geb	-1791
▁Maßnahmen	-1792
▁bro	-1793
▁data	-1794
other	-1795
zus	-1796
▁Lage	-1797
▁prev	-1798
▁schon	-1799
▁seit	-1800
▁Med	-1801
▁follow	-1802
▁Informationen	-1803
▁case	-1804
mar	-1805
come	-1806
lease	-1807
olution	-1808
▁int	-1809
okrat	-1810
tend	-1811
▁neg	-1812
aterial	-1813
öl	-1814
▁And	-1815
▁Mein	-1816
▁fra	-1817
olid	-1818
▁bin	-1819
operation	-1820
▁redu	-1821
▁Verein	-1822
▁einige	-1823
chie	-1824
iving	-1825
ately	-1826
▁offers	-1827
▁kl	-1828
los	-1829
▁individ	-1830
▁dafür	-1831
▁regard	-1832
▁Energ	-1833
ätz	-1834
raph	-1835
▁eas	-1836
co	-1837
▁voll	-1838
klär	-1839
▁Rechts	-1840
abei	-1841
tain	-1842
▁Gemein	-1843
▁Commissioner	-1844
▁question	-1845
▁put	-1846
iber	-1847
affen	-1848
ccess	-1849
▁impro	-1850
▁integr	-1851
▁&	-1852
ars	-1853
eich	-1854
ually	-1855
▁[[	-1856
orn	-1857
▁je	-1858
▁art	-1859
ential	-1860
red	-1861
ungsant	-1862
▁ter	-1863
▁imple	-1864
▁Tran	-1865
▁Herrn	-1866
▁Internet	-1867
folg	-1868
▁Pol	-1869
ified	-1870
▁financial	-1871
isierung	-1872
ervice	-1873
▁city	-1874
imes	-1875
▁Russ	-1876
▁reas	-1877
▁Stadt	-1878
▁öff	-1879
▁Amer	-1880
▁change	-1881
▁repr	-1882
▁during	-1883
▁posit	-1884
▁Aussch	-1885
ichten	-1886
▁zurück	-1887
allen	-1888
ove	-1889
grund	-1890
anden	-1891
▁citiz	-1892
▁Zimmer	-1893
▁invest	-1894
▁prom	-1895
llt	-1896
▁far	-1897
utes	-1898
▁day	-1899
▁ihren	-1900
üh	-1901
ichter	-1902
ilit	-1903
ünd	-1904
▁problem	-1905
▁Uns	-1906
▁fol	-1907
▁activ	-1908
▁deut	-1909
▁%	-1910
ahn	-1911
▁rev	-1912
▁allem	-1913
▁Jahre	-1914
▁nun	-1915
▁global	-1916
▁imp	-1917
ucht	-1918
▁stat	-1919
EN	-1920
▁issue	-1921
ather	-1922
lex	-1923
cing	-1924
▁means	-1925
▁saf	-1926
▁Wor	-1927
amm	-1928
▁large	-1929
iele	-1930
▁achie	-1931
▁el	-1932
uchen	-1933
kunft	-1934
▁said	-1935
▁proposal	-1936
▁energ	-1937
▁example	-1938
inen	-1939
▁Ö	-1940
▁zusammen	-1941
▁Bei	-1942
▁ask	-1943
▁meine	-1944
▁2009	-1945
20	-1946
▁Sh	-1947
reib	-1948
▁gef	-1949
äm	-1950
bsite	-1951
aum	-1952
ways	-1953
halts	-1954
scheid	-1955
ily	-1956
▁member	-1957
lossen	-1958
200	-1959
▁entsp	-1960
▁Für	-1961
▁applic	-1962
▁quality	-1963
▁cost	-1964
▁major	-1965
so	-1966
illion	-1967
besondere	-1968
▁besch	-1969
isl	-1970
gress	-1971
udget	-1972
▁famil	-1973
▁Go	-1974
▁present	-1975
ether	-1976
▁modern	-1977
▁sicher	-1978
lichkeit	-1979
▁besonder	-1980
nov	-1981
▁since	-1982
▁situation	-1983
▁rooms	-1984
▁technolog	-1985
ized	-1986
▁necess	-1987
heiten	-1988
▁debate	-1989
punkt	-1990
▁meet	-1991
▁strateg	-1992
▁However	-1993
iend	-1994
ites	-1995
aupt	-1996
▁verfü	-1997
unter	-1998
ird	-1999
▁wollen	-2000
▁unseren	-2001
▁Eine	-2002
▁Pal	-2003
▁Kin	-2004
▁Ad	-2005
amer	-2006
▁Kommissar	-2007
aat	-2008
▁Bo	-2009
oren	-2010
▁Gew	-2011
leist	-2012
▁einge	-2013
▁Our	-2014
▁common	-2015
fts	-2016
eschäft	-2017
▁contr	-2018
blems	-2019
führt	-2020
▁adop	-2021
▁würde	-2022
▁Best	-2023
antwort	-2024
haf	-2025
▁Gesch	-2026
▁eng	-2027
ilities	-2028
ktionen	-2029
ache	-2030
▁With	-2031
▁each	-2032
angen	-2033
ule	-2034
▁amend	-2035
▁including	-2036
▁Spe	-2037
▁che	-2038
▁pass	-2039
fass	-2040
▁gar	-2041
▁child	-2042
pre	-2043
ash	-2044
org	-2045
▁Ger	-2046
▁Ph	-2047
etzen	-2048
▁Wer	-2049
▁power	-2050
▁ref	-2051
▁Committee	-2052
▁colle	-2053
cip	-2054
▁Eng	-2055
▁Arbeits	-2056
▁30	-2057
omat	-2058
immung	-2059
▁citizens	-2060
ell	-2061
tellen	-2062
▁Politik	-2063
▁während	-2064
reit	-2065
vention	-2066
▁Parlaments	-2067
▁etwas	-2068
▁compet	-2069
▁Ur	-2070
▁author	-2071
bed	-2072
tt	-2073
▁stehen	-2074
genommen	-2075
▁allow	-2076
aurant	-2077
▁Form	-2078
▁three	-2079
gew	-2080
▁found	-2081
ining	-2082
ablish	-2083
▁areas	-2084
▁Res	-2085
▁Und	-2086
▁object	-2087
▁Euro	-2088
opp	-2089
gangen	-2090
▁next	-2091
▁sagen	-2092
▁Vorschlag	-2093
▁measures	-2094
▁cult	-2095
▁give	-2096
▁stud	-2097
▁respect	-2098
▁stay	-2099
ipp	-2100
▁sozial	-2101
orth	-2102
oten	-2103
▁doch	-2104
ugen	-2105
▁/	-2106
zw	-2107
uge	-2108
▁organis	-2109
ode	-2110
ains	-2111
ands	-2112
▁democ	-2113
▁rece	-2114
▁discuss	-2115
▁erm	-2116
zept	-2117
ordnung	-2118
▁komm	-2119
▁ensure	-2120
▁provide	-2121
▁few	-2122
▁result	-2123
1.	-2124
ught	-2125
ürlich	-2126
rache	-2127
▁br	-2128
▁Bild	-2129
▁histor	-2130
linie	-2131
▁Mill	-2132
iff	-2133
asch	-2134
▁Deut	-2135
▁Länder	-2136
▁thank	-2137
▁tun	-2138
▁wissen	-2139
ination	-2140
▁pres	-2141
▁fil	-2142
▁energy	-2143
▁erhalten	-2144
stellung	-2145
▁taken	-2146
▁control	-2147
schaften	-2148
▁Durch	-2149
▁insbesondere	-2150
gleich	-2151
In	-2152
▁dra	-2153
▁success	-2154
▁addition	-2155
▁build	-2156
falls	-2157
▁cal	-2158
anken	-2159
▁further	-2160
▁agreement	-2161
unde	-2162
▁Unterstütz	-2163
▁kom	-2164
▁Lös	-2165
▁erst	-2166
▁mus	-2167
▁China	-2168
▁employ	-2169
iate	-2170
gre	-2171
▁einmal	-2172
ziel	-2173
▁grow	-2174
▁waren	-2175
itor	-2176
chnolog	-2177
▁Fall	-2178
schl	-2179
▁Qu	-2180
ek	-2181
▁Bl	-2182
▁pay	-2183
▁Verfü	-2184
trä	-2185
▁det	-2186
▁Qual	-2187
▁Ital	-2188
▁read	-2189
ases	-2190
ditions	-2191
lungs	-2192
▁außer	-2193
gang	-2194
igten	-2195
▁establish	-2196
agt	-2197
▁Rest	-2198
▁Group	-2199
▁Problem	-2200
▁kommen	-2201
▁Kunden	-2202
itäten	-2203
por	-2204
indet	-2205
▁Zug	-2206
ilfe	-2207
▁abs	-2208
▁position	-2209
▁ersten	-2210
▁beim	-2211
ules	-2212
uff	-2213
ling	-2214
▁law	-2215
ohn	-2216
▁ho	-2217
arn	-2218
igin	-2219
pend	-2220
jekt	-2221
▁opport	-2222
▁vo	-2223
▁come	-2224
legt	-2225
▁inde	-2226
▁du	-2227
cken	-2228
▁25	-2229
▁link	-2230
aren	-2231
▁14	-2232
arte	-2233
▁Zusammenarbeit	-2234
ums	-2235
▁schw	-2236
▁pop	-2237
▁problems	-2238
▁Markt	-2239
▁Spiel	-2240
politik	-2241
ruct	-2242
bo	-2243
▁sk	-2244
ross	-2245
utzen	-2246
▁Mus	-2247
igkeiten	-2248
▁princip	-2249
▁necessary	-2250
▁verw	-2251
ements	-2252
▁Unterstützung	-2253
rop	-2254
▁key	-2255
▁Schw	-2256
▁X	-2257
fung	-2258
▁budget	-2259
▁shall	-2260
▁groß	-2261
▁ä	-2262
▁Cl	-2263
umen	-2264
fre	-2265
▁company	-2266
▁terr	-2267
bau	-2268
▁wirk	-2269
uten	-2270
esser	-2271
▁em	-2272
▁did	-2273
asse	-2274
lemen	-2275
arten	-2276
▁Namen	-2277
iter	-2278
ises	-2279
▁security	-2280
elf	-2281
ott	-2282
▁hope	-2283
▁drei	-2284
unic	-2285
▁health	-2286
▁Mad	-2287
▁|	-2288
▁begr	-2289
▁given	-2290
nell	-2291
▁Umwelt	-2292
joy	-2293
▁verl	-2294
▁lassen	-2295
▁pract	-2296
glichen	-2297
▁invol	-2298
▁lead	-2299
tschafts	-2300
örder	-2301
iety	-2302
ively	-2303
med	-2304
▁legisl	-2305
ichts	-2306
▁Proble	-2307
▁geben	-2308
orgen	-2309
▁entwick	-2310
esellschaft	-2311
ising	-2312
▁bl	-2313
▁ret	-2314
▁why	-2315
▁Änderungsant	-2316
▁La	-2317
isation	-2318
fang	-2319
▁char	-2320
▁Stra	-2321
gether	-2322
▁cooperation	-2323
lungen	-2324
▁however	-2325
urz	-2326
▁second	-2327
▁besteht	-2328
▁Recht	-2329
▁Tr	-2330
▁while	-2331
fte	-2332
burg	-2333
AT	-2334
lect	-2335
ared	-2336
ave	-2337
▁16	-2338
AN	-2339
▁wirtschaft	-2340
▁located	-2341
▁ander	-2342
▁Sw	-2343
führung	-2344
▁ir	-2345
spro	-2346
▁implement	-2347
▁wish	-2348
ches	-2349
bewer	-2350
orm	-2351
wards	-2352
▁Tag	-2353
▁Deb	-2354
▁protection	-2355
▁gra	-2356
von	-2357
altung	-2358
schied	-2359
▁start	-2360
▁refer	-2361
wendung	-2362
▁life	-2363
ried	-2364
▁Ländern	-2365
▁always	-2366
ald	-2367
▁Dienst	-2368
▁Fragen	-2369
▁System	-2370
▁complete	-2371
text	-2372
▁Geschä	-2373
▁tradition	-2374
▁needs	-2375
▁inform	-2376
ury	-2377
▁vote	-2378
▁sehen	-2379
▁Ko	-2380
▁writ	-2381
▁United	-2382
▁Da	-2383
kon	-2384
▁Besch	-2385
▁führen	-2386
▁steht	-2387
▁comb	-2388
▁Ob	-2389
zieh	-2390
licht	-2391
▁seinen	-2392
▁statt	-2393
▁Port	-2394
häng	-2395
ique	-2396
ES	-2397
▁sens	-2398
▁Vol	-2399
öt	-2400
ogen	-2401
ichterst	-2402
▁Red	-2403
▁action	-2404
▁beh	-2405
kre	-2406
ätze	-2407
ppe	-2408
zess	-2409
dress	-2410
IN	-2411
ty	-2412
earch	-2413
▁They	-2414
alle	-2415
ivil	-2416
▁Beit	-2417
▁17	-2418
gaben	-2419
schein	-2420
cell	-2421
▁diff	-2422
▁dabei	-2423
▁wäre	-2424
arch	-2425
▁akt	-2426
▁better	-2427
▁Bel	-2428
▁mult	-2429
▁House	-2430
ialog	-2431
stellen	-2432
▁2010	-2433
▁Dar	-2434
ämp	-2435
▁account	-2436
tion	-2437
ustrie	-2438
bereich	-2439
▁Kollegen	-2440
äd	-2441
▁glaub	-2442
ctive	-2443
▁tre	-2444
▁hö	-2445
▁letzten	-2446
iste	-2447
▁net	-2448
by	-2449
rechte	-2450
▁Lebens	-2451
▁interest	-2452
▁gehör	-2453
sequ	-2454
▁worden	-2455
ca	-2456
▁Not	-2457
▁men	-2458
ettbewer	-2459
blick	-2460
▁cho	-2461
iation	-2462
▁using	-2463
▁fav	-2464
▁legal	-2465
▁consum	-2466
▁Kom	-2467
St	-2468
rodu	-2469
▁Energie	-2470
cher	-2471
▁muß	-2472
enten	-2473
▁fiel	-2474
▁Sk	-2475
▁defin	-2476
zü	-2477
less	-2478
▁Kr	-2479
ikan	-2480
▁Ser	-2481
uft	-2482
▁Community	-2483
gehen	-2484
clus	-2485
obil	-2486
▁mov	-2487
iod	-2488
ierungs	-2489
▁Regierung	-2490
▁Was	-2491
▁2008	-2492
▁Bedeut	-2493
▁13	-2494
▁around	-2495
▁reach	-2496
ustry	-2497
undheit	-2498
ingungen	-2499
▁sing	-2500
▁deren	-2501
▁Rom	-2502
▁ble	-2503
eite	-2504
rän	-2505
▁based	-2506
▁What	-2507
▁50	-2508
▁conne	-2509
▁großen	-2510
gestellt	-2511
▁current	-2512
gabe	-2513
ervor	-2514
▁Verfügung	-2515
▁Gu	-2516
genden	-2517
▁USA	-2518
▁add	-2519
iges	-2520
ged	-2521
ify	-2522
▁production	-2523
▁rep	-2524
▁transport	-2525
asser	-2526
ölk	-2527
▁working	-2528
▁große	-2529
▁welche	-2530
▁inner	-2531
▁Ergeb	-2532
abil	-2533
▁Mrs	-2534
markt	-2535
▁rapp	-2536
▁whether	-2537
▁short	-2538
▁Hier	-2539
pecial	-2540
▁Entscheid	-2541
▁Bedeutung	-2542
lev	-2543
▁Seite	-2544
eder	-2545
uments	-2546
▁terms	-2547
▁centre	-2548
▁Region	-2549
▁met	-2550
racht	-2551
▁bel	-2552
▁particularly	-2553
load	-2554
▁crit	-2555
▁Famil	-2556
▁together	-2557
offe	-2558
▁become	-2559
▁When	-2560
▁Aber	-2561
▁less	-2562
kauf	-2563
▁non	-2564
▁def	-2565
▁sl	-2566
▁These	-2567
▁lim	-2568
▁1.	-2569
▁difficult	-2570
▁individual	-2571
▁International	-2572
▁Fol	-2573
osition	-2574
isher	-2575
▁another	-2576
▁100	-2577
of	-2578
▁extre	-2579
▁24	-2580
▁Bus	-2581
▁beach	-2582
▁visit	-2583
anies	-2584
▁near	-2585
uter	-2586
▁dist	-2587
bild	-2588
▁Vertrag	-2589
▁Schutz	-2590
▁Auch	-2591
▁rapporte	-2592
▁state	-2593
ünst	-2594
immen	-2595
▁water	-2596
▁notwend	-2597
hof	-2598
▁bene	-2599
▁trade	-2600
▁Kinder	-2601
▁Berichterst	-2602
druck	-2603
ferenz	-2604
▁Beispiel	-2605
▁clos	-2606
▁Als	-2607
▁him	-2608
bene	-2609
▁hervor	-2610
▁Ben	-2611
▁care	-2612
▁Mal	-2613
tellung	-2614
▁contrib	-2615
▁ear	-2616
▁issues	-2617
▁bieten	-2618
▁zahl	-2619
▁whole	-2620
▁Regel	-2621
▁research	-2622
▁Zahl	-2623
▁exist	-2624
▁tour	-2625
ultur	-2626
▁davon	-2627
▁Air	-2628
ners	-2629
▁jeder	-2630
▁local	-2631
▁UN	-2632
arante	-2633
▁öffent	-2634
pecially	-2635
▁Tur	-2636
▁conditions	-2637
▁enjoy	-2638
iar	-2639
room	-2640
▁children	-2641
akes	-2642
bt	-2643
ames	-2644
▁Thema	-2645
ots	-2646
entrum	-2647
leit	-2648
▁2007	-2649
▁specific	-2650
▁schnell	-2651
orts	-2652
▁reason	-2653
atte	-2654
üt	-2655
xim	-2656
ody	-2657
astr	-2658
ckt	-2659
vest	-2660
▁entfern	-2661
▁systems	-2662
kungen	-2663
▁richt	-2664
rieden	-2665
▁address	-2666
▁call	-2667
hö	-2668
▁subject	-2669
▁Service	-2670
▁darüber	-2671
▁gegenüber	-2672
▁Frauen	-2673
▁friend	-2674
▁stellen	-2675
ording	-2676
ategor	-2677
▁Wirtschafts	-2678
ika	-2679
▁daher	-2680
iew	-2681
▁show	-2682
▁Weise	-2683
▁Stud	-2684
▁eben	-2685
▁(1	-2686
▁old	-2687
▁book	-2688
ours	-2689
veral	-2690
▁Haushalts	-2691
adies	-2692
▁Probleme	-2693
▁erforder	-2694
▁No	-2695
ufen	-2696
ton	-2697
▁El	-2698
ails	-2699
▁ann	-2700
▁km	-2701
▁Fahr	-2702
▁alles	-2703
▁companies	-2704
ikel	-2705
▁Gä	-2706
▁San	-2707
▁bew	-2708
▁run	-2709
▁various	-2710
▁women	-2711
▁eigenen	-2712
▁organ	-2713
▁Lin	-2714
▁German	-2715
▁guarante	-2716
▁aff	-2717
▁aim	-2718
▁ur	-2719
▁brauch	-2720
▁Lie	-2721
▁sowohl	-2722
▁Mark	-2723
▁politischen	-2724
▁experience	-2725
▁step	-2726
isches	-2727
▁page	-2728
wirtschaft	-2729
sen	-2730
▁Weg	-2731
▁industry	-2732
▁tax	-2733
▁role	-2734
▁benef	-2735
▁Viel	-2736
▁weitere	-2737
▁EUR	-2738
▁näch	-2739
▁pat	-2740
▁basis	-2741
▁erreichen	-2742
▁gesam	-2743
▁Ende	-2744
schutz	-2745
▁profession	-2746
▁Fort	-2747
fäh	-2748
oney	-2749
▁beaut	-2750
row	-2751
ength	-2752
ennt	-2753
▁New	-2754
isions	-2755
roll	-2756
▁really	-2757
▁könnte	-2758
▁hatte	-2759
▁pack	-2760
ON	-2761
gemein	-2762
▁nie	-2763
▁wirklich	-2764
▁Fun	-2765
▁Ihrer	-2766
itiative	-2767
aster	-2768
hang	-2769
▁occ	-2770
chan	-2771
▁Wahl	-2772
neten	-2773
gende	-2774
▁dort	-2775
reaty	-2776
▁sector	-2777
▁natürlich	-2778
imate	-2779
▁Comp	-2780
▁prior	-2781
geord	-2782
thing	-2783
50	-2784
▁befindet	-2785
▁Staaten	-2786
▁matter	-2787
sk	-2788
▁third	-2789
▁commit	-2790
rift	-2791
esehen	-2792
▁meiner	-2793
▁deal	-2794
▁doc	-2795
▁Geschäfts	-2796
▁comfort	-2797
▁bar	-2798
lock	-2799
▁besonders	-2800
▁unterstützen	-2801
▁origin	-2802
▁members	-2803
riften	-2804
▁tot	-2805
▁Haupt	-2806
▁typ	-2807
▁ihnen	-2808
▁Zukunft	-2809
irm	-2810
ritte	-2811
▁especially	-2812
ino	-2813
▁distr	-2814
▁staff	-2815
▁close	-2816
ifiz	-2817
▁di	-2818
ived	-2819
ances	-2820
▁Gegen	-2821
til	-2822
▁month	-2823
▁proced	-2824
▁break	-2825
▁arbeit	-2826
▁verschiedenen	-2827
▁:	-2828
ably	-2829
▁col	-2830
▁feat	-2831
▁negot	-2832
▁Ausschuss	-2833
▁period	-2834
▁gent	-2835
▁Alle	-2836
▁done	-2837
▁innov	-2838
▁11	-2839
ety	-2840
▁Seiten	-2841
ething	-2842
ization	-2843
AR	-2844
ival	-2845
werk	-2846
▁vielen	-2847
▁Mehr	-2848
zuf	-2849
app	-2850
reg	-2851
▁approach	-2852
ünft	-2853
▁innerhalb	-2854
ograph	-2855
▁government	-2856
▁hoch	-2857
▁Deutsch	-2858
dings	-2859
▁create	-2860
▁top	-2861
▁Forsch	-2862
▁entfernt	-2863
cellent	-2864
▁personal	-2865
finden	-2866
treten	-2867
ima	-2868
spl	-2869
▁location	-2870
ican	-2871
asing	-2872
▁turn	-2873
▁food	-2874
▁Jan	-2875
▁Produkt	-2876
▁mot	-2877
▁Programm	-2878
icient	-2879
▁Situation	-2880
amt	-2881
▁Zwe	-2882
▁private	-2883
kung	-2884
neh	-2885
▁soc	-2886
raum	-2887
▁job	-2888
▁teil	-2889
ides	-2890
▁Park	-2891
▁represent	-2892
inter	-2893
▁instit	-2894
30	-2895
▁ple	-2896
scheiden	-2897
ober	-2898
▁prop	-2899
▁site	-2900
▁press	-2901
▁reform	-2902
▁perform	-2903
▁zwar	-2904
▁sum	-2905
▁betr	-2906
▁million	-2907
▁möchten	-2908
▁gener	-2909
ai	-2910
".	-2911
▁nor	-2912
▁among	-2913
▁Rolle	-2914
▁several	-2915
olf	-2916
▁Afr	-2917
indung	-2918
▁welt	-2919
▁event	-2920
▁something	-2921
▁Gru	-2922
weisen	-2923
▁poin	-2924
ension	-2925
ichtet	-2926
oment	-2927
▁Fest	-2928
▁enter	-2929
ordin	-2930
▁single	-2931
zip	-2932
▁internationalen	-2933
ences	-2934
uc	-2935
iol	-2936
▁langu	-2937
▁bestimm	-2938
ults	-2939
▁Wettbewer	-2940
▁list	-2941
duc	-2942
▁rapporteur	-2943
▁Hotels	-2944
▁struct	-2945
▁Tour	-2946
▁general	-2947
ift	-2948
▁itself	-2949
▁star	-2950
▁decision	-2951
▁Dire	-2952
▁doub	-2953
fast	-2954
lands	-2955
▁Germany	-2956
▁Ihren	-2957
▁programme	-2958
▁favour	-2959
üd	-2960
▁Terr	-2961
▁install	-2962
onds	-2963
▁Woch	-2964
▁Op	-2965
▁Verbrauch	-2966
ktor	-2967
atch	-2968
ec	-2969
▁Software	-2970
eign	-2971
▁material	-2972
isis	-2973
▁lo	-2974
▁Disk	-2975
▁town	-2976
ühr	-2977
",	-2978
ians	-2979
eg	-2980
ittle	-2981
▁aufge	-2982
▁resour	-2983
IT	-2984
ände	-2985
▁resolution	-2986
▁Richtlinie	-2987
▁Kü	-2988
▁Chr	-2989
eiten	-2990
wär	-2991
uth	-2992
tember	-2993
▁dür	-2994
▁direkt	-2995
▁continue	-2996
uellen	-2997
▁Abst	-2998
mework	-2999
▁least	-3000
mos	-3001
▁serious	-3002
▁accept	-3003
▁Strateg	-3004
oor	-3005
▁enc	-3006
▁peace	-3007
iations	-3008
wh	-3009
▁following	-3010
▁making	-3011
▁she	-3012
▁gl	-3013
▁kind	-3014
▁progress	-3015
▁gentlemen	-3016
▁hinaus	-3017
▁automat	-3018
▁introdu	-3019
sprache	-3020
▁Su	-3021
rael	-3022
ification	-3023
▁Nutz	-3024
atives	-3025
wä	-3026
▁relations	-3027
ativen	-3028
▁Can	-3029
▁name	-3030
▁away	-3031
▁opin	-3032
erien	-3033
▁going	-3034
▁erste	-3035
nehmer	-3036
▁often	-3037
▁Rück	-3038
miss	-3039
▁excellent	-3040
IS	-3041
aps	-3042
cel	-3043
▁understand	-3044
▁sup	-3045
ifen	-3046
▁ans	-3047
hens	-3048
▁rules	-3049
▁offen	-3050
▁mar	-3051
▁contact	-3052
iere	-3053
fect	-3054
▁management	-3055
▁particip	-3056
let	-3057
▁let	-3058
met	-3059
▁family	-3060
▁Kre	-3061
▁home	-3062
▁Uhr	-3063
▁europäische	-3064
▁directive	-3065
iken	-3066
▁tro	-3067
though	-3068
auer	-3069
▁Wind	-3070
▁crisis	-3071
▁text	-3072
strument	-3073
▁konn	-3074
▁money	-3075
gricult	-3076
räge	-3077
▁Natur	-3078
fehl	-3079
▁World	-3080
▁Berlin	-3081
▁once	-3082
▁Transp	-3083
▁2000	-3084
▁Meinung	-3085
▁anal	-3086
ype	-3087
▁plan	-3088
bei	-3089
▁My	-3090
▁line	-3091
▁feel	-3092
ierungen	-3093
thers	-3094
▁Komm	-3095
go	-3096
▁apart	-3097
▁regul	-3098
▁Emp	-3099
▁software	-3100
▁Gleich	-3101
produ	-3102
▁klar	-3103
▁stark	-3104
icial	-3105
▁etc	-3106
▁Invest	-3107
icle	-3108
▁fast	-3109
▁sett	-3110
▁Frank	-3111
ksam	-3112
▁mach	-3113
▁forward	-3114
zogen	-3115
oto	-3116
▁price	-3117
▁Gesundheit	-3118
prü	-3119
weg	-3120
▁einzel	-3121
leistungen	-3122
▁zus	-3123
pekt	-3124
▁bal	-3125
▁inc	-3126
▁Gra	-3127
yl	-3128
CH	-3129
▁hät	-3130
▁Rep	-3131
▁express	-3132
achst	-3133
etzung	-3134
▁Univers	-3135
▁Abgeord	-3136
▁towards	-3137
▁range	-3138
▁Met	-3139
voll	-3140
▁198	-3141
▁welcome	-3142
wand	-3143
weis	-3144
▁recog	-3145
▁institutions	-3146
istic	-3147
▁Nov	-3148
unds	-3149
stück	-3150
▁little	-3151
▁extrem	-3152
▁online	-3153
▁Madam	-3154
▁absol	-3155
ony	-3156
▁unserem	-3157
airs	-3158
▁ident	-3159
▁walk	-3160
-0	-3161
▁ant	-3162
▁mention	-3163
ean	-3164
▁things	-3165
itäts	-3166
▁stre	-3167
▁finanz	-3168
▁until	-3169
ference	-3170
gän	-3171
▁communic	-3172
▁dest	-3173
bet	-3174
▁optim	-3175
haus	-3176
▁post	-3177
▁Personen	-3178
eu	-3179
▁Span	-3180
esten	-3181
ifft	-3182
ußen	-3183
ully	-3184
▁Zusammenhang	-3185
▁Technolog	-3186
asst	-3187
▁kommt	-3188
outh	-3189
anges	-3190
▁Treaty	-3191
▁beiden	-3192
▁2006	-3193
▁Pe	-3194
ured	-3195
▁entsprechen	-3196
lik	-3197
tract	-3198
▁Partner	-3199
ume	-3200
▁Entschließ	-3201
▁Fil	-3202
ww	-3203
teilung	-3204
▁Gäste	-3205
▁days	-3206
▁Mo	-3207
vent	-3208
mat	-3209
▁Jul	-3210
▁Car	-3211
▁National	-3212
ächst	-3213
läge	-3214
lean	-3215
▁situ	-3216
▁bestehen	-3217
▁Hilfe	-3218
enzen	-3219
▁aid	-3220
▁Bank	-3221
▁Fisch	-3222
▁Artikel	-3223
zimmer	-3224
▁Schluss	-3225
ieten	-3226
▁App	-3227
fassung	-3228
DE	-3229
▁customers	-3230
▁Do	-3231
▁opportunity	-3232
ison	-3233
rech	-3234
ocus	-3235
▁ess	-3236
2.	-3237
▁increase	-3238
▁strong	-3239
▁weltweit	-3240
▁agree	-3241
iesen	-3242
atten	-3243
▁Ums	-3244
stra	-3245
leicht	-3246
Pro	-3247
▁Lösung	-3248
ommend	-3249
▁keep	-3250
▁Members	-3251
▁2.	-3252
▁growth	-3253
▁milit	-3254
▁mind	-3255
▁Kultur	-3256
ennen	-3257
▁quite	-3258
▁function	-3259
mäß	-3260
idence	-3261
aden	-3262
OR	-3263
crip	-3264
▁Präsidentin	-3265
▁ve	-3266
yr	-3267
▁Dieses	-3268
▁rather	-3269
half	-3270
▁Sep	-3271
ply	-3272
han	-3273
ales	-3274
baren	-3275
▁Verantwort	-3276
▁activities	-3277
▁ren	-3278
ließen	-3279
AS	-3280
side	-3281
weil	-3282
▁provided	-3283
idency	-3284
äuf	-3285
▁stellt	-3286
vorsch	-3287
ären	-3288
▁seem	-3289
▁Demokrat	-3290
▁hard	-3291
▁qual	-3292
▁War	-3293
edom	-3294
▁bzw	-3295
▁Organis	-3296
▁bringen	-3297
▁Sc	-3298
▁gilt	-3299
eits	-3300
▁stär	-3301
▁ja	-3302
▁führ	-3303
▁mean	-3304
▁positive	-3305
▁il	-3306
forderungen	-3307
rolle	-3308
▁Minister	-3309
abhäng	-3310
▁elect	-3311
▁check	-3312
▁Deshalb	-3313
▁Weit	-3314
▁Leben	-3315
hnt	-3316
letz	-3317
erecht	-3318
▁big	-3319
ideo	-3320
▁indem	-3321
▁land	-3322
▁daran	-3323
iful	-3324
▁weniger	-3325
ined	-3326
bon	-3327
annten	-3328
▁etwa	-3329
▁begrü	-3330
▁behalf	-3331
▁sw	-3332
▁treat	-3333
ha	-3334
▁Cent	-3335
▁tas	-3336
▁resources	-3337
▁try	-3338
▁might	-3339
▁partners	-3340
reiche	-3341
▁jeden	-3342
▁Char	-3343
▁fully	-3344
▁sug	-3345
mosph	-3346
▁gute	-3347
ager	-3348
uell	-3349
▁port	-3350
the	-3351
ählen	-3352
▁Bas	-3353
▁four	-3354
zeitig	-3355
▁yet	-3356
▁dev	-3357
frage	-3358
ücksicht	-3359
▁Kosten	-3360
▁gewähr	-3361
ämlich	-3362
na	-3363
▁After	-3364
alität	-3365
▁class	-3366
wendet	-3367
-1	-3368
▁technology	-3369
▁park	-3370
▁umf	-3371
▁spiel	-3372
amental	-3373
komm	-3374
▁entscheiden	-3375
▁sogar	-3376
einander	-3377
▁Produkte	-3378
itions	-3379
▁State	-3380
▁persön	-3381
ception	-3382
legenheit	-3383
setzung	-3384
telle	-3385
▁value	-3386
fert	-3387
▁Preis	-3388
prochen	-3389
▁nämlich	-3390
▁Nor	-3391
▁Rates	-3392
▁genau	-3393
ona	-3394
stadt	-3395
plan	-3396
▁include	-3397
▁lab	-3398
▁ideal	-3399
▁bitte	-3400
▁gesagt	-3401
wohl	-3402
ratic	-3403
apan	-3404
ächlich	-3405
▁signific	-3406
▁Sozial	-3407
▁having	-3408
▁gerade	-3409
▁Millionen	-3410
uh	-3411
▁September	-3412
▁proposals	-3413
▁Europas	-3414
onger	-3415
ühren	-3416
▁times	-3417
▁Erfahr	-3418
▁solution	-3419
▁mag	-3420
▁admin	-3421
ij	-3422
self	-3423
▁bekannt	-3424
iten	-3425
▁Austr	-3426
▁ladies	-3427
▁Ass	-3428
▁Geld	-3429
▁pur	-3430
▁Ort	-3431
hunder	-3432
liches	-3433
▁u	-3434
▁field	-3435
▁nehmen	-3436
▁amendments	-3437
▁erwar	-3438
▁Per	-3439
▁safety	-3440
▁kurz	-3441
▁along	-3442
armon	-3443
▁remain	-3444
▁tem	-3445
tragen	-3446
▁erfolg	-3447
▁left	-3448
▁Tod	-3449
ativ	-3450
iberal	-3451
▁Projekt	-3452
racy	-3453
▁framework	-3454
▁others	-3455
▁)	-3456
▁bor	-3457
▁above	-3458
▁adopted	-3459
▁minutes	-3460
lei	-3461
▁Grün	-3462
recht	-3463
▁Text	-3464
ingen	-3465
▁easy	-3466
▁Tats	-3467
▁kosten	-3468
▁educ	-3469
▁economy	-3470
verb	-3471
▁Gar	-3472
roffen	-3473
ops	-3474
illa	-3475
▁arch	-3476
völk	-3477
▁log	-3478
▁Priv	-3479
OM	-3480
▁pa	-3481
▁recommend	-3482
▁speak	-3483
▁costs	-3484
▁Web	-3485
▁ihn	-3486
▁Zugang	-3487
▁Punkt	-3488
▁Jahres	-3489
▁taking	-3490
ethod	-3491
▁recht	-3492
▁ihm	-3493
handlungen	-3494
alten	-3495
lement	-3496
stant	-3497
▁Dank	-3498
▁makes	-3499
▁Ange	-3500
▁viol	-3501
oph	-3502
▁opinion	-3503
most	-3504
▁Fraktion	-3505
▁week	-3506
ledge	-3507
▁Unsere	-3508
wahl	-3509
fully	-3510
▁unterschied	-3511
▁light	-3512
▁called	-3513
▁gemacht	-3514
▁Wirtschaft	-3515
▁strength	-3516
ana	-3517
▁essential	-3518
anst	-3519
▁verbunden	-3520
▁darf	-3521
▁creat	-3522
▁focus	-3523
▁entire	-3524
▁never	-3525
▁ebenfalls	-3526
▁Dieser	-3527
▁seinem	-3528
▁verst	-3529
▁charac	-3530
▁Tür	-3531
inge	-3532
▁Janu	-3533
▁content	-3534
▁besser	-3535
unst	-3536
▁led	-3537
▁meisten	-3538
reicht	-3539
▁politische	-3540
▁Bezug	-3541
▁ü	-3542
reen	-3543
▁dessen	-3544
▁Pat	-3545
▁Israel	-3546
▁Institution	-3547
▁flo	-3548
▁Deutschland	-3549
▁40	-3550
▁One	-3551
▁gehen	-3552
▁constru	-3553
▁agricult	-3554
ested	-3555
nete	-3556
ruktur	-3557
▁anges	-3558
▁Sta	-3559
ostel	-3560
▁Komp	-3561
ports	-3562
▁tool	-3563
erst	-3564
▁bath	-3565
iers	-3566
▁application	-3567
▁unterstützt	-3568
▁projects	-3569
▁bank	-3570
iled	-3571
igr	-3572
▁results	-3573
za	-3574
aged	-3575
▁flex	-3576
ysteme	-3577
igital	-3578
▁Kap	-3579
iben	-3580
sh	-3581
bare	-3582
▁ak	-3583
▁Zust	-3584
word	-3585
▁Antw	-3586
▁wahr	-3587
▁website	-3588
▁darin	-3589
ser	-3590
▁beautiful	-3591
▁return	-3592
▁nah	-3593
aussch	-3594
achten	-3595
▁building	-3596
amb	-3597
vernment	-3598
aurants	-3599
▁programm	-3600
▁term	-3601
▁provides	-3602
▁attention	-3603
▁points	-3604
uz	-3605
▁sure	-3606
▁policies	-3607
▁derzeit	-3608
▁2005	-3609
▁beginn	-3610
ric	-3611
tag	-3612
atis	-3613
▁concerned	-3614
▁freedom	-3615
▁Rechte	-3616
gebung	-3617
▁simply	-3618
▁past	-3619
▁wesent	-3620
▁risk	-3621
▁mass	-3622
▁Den	-3623
sweise	-3624
▁Buch	-3625
▁due	-3626
▁pot	-3627
benso	-3628
ül	-3629
ünf	-3630
▁glaube	-3631
▁perfect	-3632
▁legislation	-3633
▁fair	-3634
▁appropr	-3635
▁rela	-3636
▁deliver	-3637
▁heart	-3638
▁Qualität	-3639
▁einigen	-3640
ators	-3641
oting	-3642
▁dürfen	-3643
▁standard	-3644
arian	-3645
ients	-3646
▁Sa	-3647
▁Verkehr	-3648
▁öffentlichen	-3649
▁cover	-3650
▁Beschäft	-3651
zentr	-3652
▁questions	-3653
▁Gl	-3654
▁Ide	-3655
▁responsibility	-3656
▁Sub	-3657
▁Wasser	-3658
reiben	-3659
▁Entwicklungs	-3660
irc	-3661
▁schaffen	-3662
ane	-3663
▁Frei	-3664
ufact	-3665
▁young	-3666
▁Nicht	-3667
rimin	-3668
hing	-3669
▁Website	-3670
▁Mär	-3671
▁ihrem	-3672
AL	-3673
▁sollen	-3674
▁Flug	-3675
▁importance	-3676
▁bit	-3677
▁Nä	-3678
▁society	-3679
EL	-3680
▁holid	-3681
▁Just	-3682
iner	-3683
now	-3684
▁Sel	-3685
▁groups	-3686
▁abge	-3687
▁Sol	-3688
istan	-3689
▁dom	-3690
ustain	-3691
ringen	-3692
▁keinen	-3693
▁Meer	-3694
The	-3695
▁Co	-3696
ished	-3697
▁nichts	-3698
▁Gemeinschaft	-3699
wür	-3700
▁Fir	-3701
ada	-3702
ding	-3703
afen	-3704
▁Hö	-3705
zustellen	-3706
ceed	-3707
mitted	-3708
▁context	-3709
▁effective	-3710
▁team	-3711
berg	-3712
▁Verbraucher	-3713
▁Tre	-3714
▁greater	-3715
▁Rei	-3716
schließlich	-3717
▁nationalen	-3718
▁Restaurant	-3719
▁industr	-3720
▁moder	-3721
wärt	-3722
bour	-3723
▁brauchen	-3724
▁Jahrhunder	-3725
▁method	-3726
▁zusätz	-3727
spolitik	-3728
▁environmental	-3729
ampf	-3730
▁Früh	-3731
arbeiten	-3732
▁total	-3733
▁Pra	-3734
▁Angeb	-3735
rieg	-3736
▁known	-3737
cen	-3738
▁Prof	-3739
▁road	-3740
emp	-3741
▁head	-3742
▁Aussprache	-3743
onnen	-3744
▁Kolleg	-3745
▁2004	-3746
▁version	-3747
▁arr	-3748
▁handelt	-3749
uelle	-3750
eutet	-3751
äter	-3752
verkehr	-3753
▁natural	-3754
▁continu	-3755
pflicht	-3756
▁Verw	-3757
gesehen	-3758
▁Sal	-3759
unächst	-3760
unkte	-3761
▁Groß	-3762
leben	-3763
▁strategy	-3764
▁standards	-3765
▁principle	-3766
▁attra	-3767
▁TV	-3768
utzt	-3769
▁miss	-3770
▁sea	-3771
▁table	-3772
▁Cont	-3773
▁weiterhin	-3774
iqu	-3775
▁II	-3776
▁increasing	-3777
unehmen	-3778
▁words	-3779
▁institution	-3780
▁talk	-3781
▁verbess	-3782
fs	-3783
▁send	-3784
▁central	-3785
▁Fortsch	-3786
itive	-3787
▁Ebene	-3788
▁verste	-3789
▁challen	-3790
▁betrifft	-3791
ulture	-3792
▁bedeutet	-3793
bereit	-3794
▁Far	-3795
äus	-3796
haltung	-3797
▁lea	-3798
▁required	-3799
zeichnet	-3800
isiert	-3801
EC	-3802
▁23	-3803
▁benöt	-3804
▁clearly	-3805
ims	-3806
▁Christ	-3807
▁heraus	-3808
unities	-3809
▁Dr	-3810
ller	-3811
OS	-3812
ban	-3813
▁Sitz	-3814
ning	-3815
ette	-3816
ziehen	-3817
acy	-3818
cal	-3819
▁Leist	-3820
astru	-3821
rach	-3822
onen	-3823
▁rad	-3824
▁erklär	-3825
▁Bem	-3826
▁quick	-3827
▁Cas	-3828
hib	-3829
▁authorities	-3830
▁deutlich	-3831
staat	-3832
▁views	-3833
stoff	-3834
▁reserv	-3835
▁manufact	-3836
▁macht	-3837
▁Abstimmung	-3838
▁besten	-3839
▁house	-3840
▁moment	-3841
▁learn	-3842
ex	-3843
▁wenig	-3844
▁training	-3845
▁relax	-3846
frastru	-3847
▁network	-3848
▁Design	-3849
An	-3850
▁solche	-3851
▁cla	-3852
useum	-3853
▁significant	-3854
▁wichtige	-3855
▁infl	-3856
wach	-3857
iting	-3858
▁komple	-3859
▁sei	-3860
term	-3861
läss	-3862
99	-3863
anze	-3864
▁sour	-3865
ided	-3866
atal	-3867
▁user	-3868
▁Dok	-3869
▁Zus	-3870
▁unver	-3871
ziehungen	-3872
▁pub	-3873
''	-3874
▁achieve	-3875
▁meeting	-3876
▁music	-3877
▁Klima	-3878
▁demand	-3879
▁November	-3880
▁Will	-3881
▁recent	-3882
▁don	-3883
äsent	-3884
▁würden	-3885
ritten	-3886
▁versch	-3887
▁deshalb	-3888
bung	-3889
▁clean	-3890
aging	-3891
▁Besuch	-3892
▁aspect	-3893
▁breakfast	-3894
igent	-3895
▁lar	-3896
▁capital	-3897
▁interess	-3898
▁according	-3899
▁extra	-3900
▁Menschenrechte	-3901
spruch	-3902
hörden	-3903
fall	-3904
▁aufgrund	-3905
änger	-3906
▁Gesellschaft	-3907
▁Gesetz	-3908
▁Mitarbeit	-3909
schluss	-3910
vo	-3911
▁directly	-3912
▁fa	-3913
▁pages	-3914
yle	-3915
aler	-3916
▁mat	-3917
mals	-3918
▁parl	-3919
▁Wohn	-3920
▁appear	-3921
ri	-3922
▁May	-3923
ones	-3924
▁share	-3925
▁internal	-3926
▁nächsten	-3927
▁Umsetzung	-3928
▁technical	-3929
icro	-3930
cent	-3931
erous	-3932
▁enough	-3933
ffe	-3934
▁employment	-3935
▁distrib	-3936
▁history	-3937
▁fundamental	-3938
▁Ag	-3939
▁Apr	-3940
▁side	-3941
▁oft	-3942
platz	-3943
wohn	-3944
▁obl	-3945
▁findet	-3946
▁Kunst	-3947
jen	-3948
elves	-3949
▁via	-3950
kämp	-3951
genda	-3952
▁Bro	-3953
▁prec	-3954
unch	-3955
örderung	-3956
▁Demokratie	-3957
▁beispiel	-3958
▁solutions	-3959
▁imm	-3960
▁nutzen	-3961
ari	-3962
▁Betrie	-3963
▁test	-3964
▁night	-3965
▁Schul	-3966
gesetzt	-3967
▁months	-3968
AD	-3969
▁regions	-3970
züglich	-3971
gency	-3972
60	-3973
▁Von	-3974
▁fish	-3975
▁Brit	-3976
▁First	-3977
change	-3978
▁guests	-3979
▁subs	-3980
▁vier	-3981
▁Herren	-3982
▁verein	-3983
▁longer	-3984
▁responsible	-3985
▁ern	-3986
▁though	-3987
▁proposed	-3988
▁requirements	-3989
▁Bü	-3990
gelegt	-3991
ief	-3992
▁facilities	-3993
▁Ansicht	-3994
▁bil	-3995
rank	-3996
▁prevent	-3997
ables	-3998
▁erne	-3999
▁Nähe	-4000
▁interests	-4001
▁Kar	-4002
▁Auss	-4003
▁cultural	-4004
.0	-4005
▁maintain	-4006
ender	-4007
▁Japan	-4008
▁civil	-4009
▁nature	-4010
ither	-4011
AP	-4012
ption	-4013
▁Windows	-4014
▁character	-4015
▁vol	-4016
irt	-4017
verständ	-4018
ließlich	-4019
ube	-4020
▁Ha	-4021
▁Insel	-4022
▁Stat	-4023
▁thems	-4024
umente	-4025
▁web	-4026
ellen	-4027
▁Bevölk	-4028
▁Ju	-4029
▁vorgesch	-4030
▁themselves	-4031
▁lange	-4032
orted	-4033
▁Richtung	-4034
▁gewährle	-4035
▁Ira	-4036
▁allerdings	-4037
▁parties	-4038
ker	-4039
istischen	-4040
▁Such	-4041
▁000	-4042
wirkungen	-4043
▁betre	-4044
/200	-4045
▁Fehl	-4046
frist	-4047
▁hoffe	-4048
teile	-4049
▁events	-4050
▁Industrie	-4051
▁sy	-4052
▁involved	-4053
▁sustain	-4054
▁Struktur	-4055
hem	-4056
llig	-4057
richtung	-4058
▁Kons	-4059
▁assist	-4060
▁mount	-4061
▁201	-4062
▁gegeben	-4063
▁Prot	-4064
▁Soc	-4065
▁recogn	-4066
▁happen	-4067
gru	-4068
IC	-4069
ynam	-4070
▁illeg	-4071
drück	-4072
▁guarantee	-4073
▁efforts	-4074
▁bedeut	-4075
▁currently	-4076
▁sele	-4077
▁terror	-4078
▁Ziele	-4079
esented	-4080
2,	-4081
▁anim	-4082
▁Wachst	-4083
▁Raum	-4084
val	-4085
▁Anwendung	-4086
▁force	-4087
▁needed	-4088
▁Jun	-4089
▁Please	-4090
heim	-4091
bank	-4092
▁apply	-4093
▁live	-4094
▁gemeinsamen	-4095
mbH	-4096
▁zie	-4097
stehen	-4098
▁jeweil	-4099
▁Wert	-4100
▁democracy	-4101
▁Verantwortung	-4102
▁notwendig	-4103
▁Entscheidung	-4104
▁foreign	-4105
▁April	-4106
lef	-4107
▁fight	-4108
▁competition	-4109
▁language	-4110
▁upon	-4111
▁Pf	-4112
▁verwendet	-4113
▁Bedingungen	-4114
▁197	-4115
▁Druck	-4116
▁request	-4117
haft	-4118
▁Gebiet	-4119
▁Ir	-4120
ta	-4121
▁Vorschläge	-4122
▁2003	-4123
▁voted	-4124
cies	-4125
▁implementation	-4126
▁Bau	-4127
▁From	-4128
▁Fern	-4129
obile	-4130
lauf	-4131
folgt	-4132
aper	-4133
▁Benutz	-4134
US	-4135
▁century	-4136
▁enthalten	-4137
▁charge	-4138
▁Selbst	-4139
dam	-4140
lied	-4141
▁ermöglich	-4142
▁beispielsweise	-4143
has	-4144
ürz	-4145
vert	-4146
ired	-4147
handlung	-4148
▁Interesse	-4149
amous	-4150
▁dank	-4151
▁Tages	-4152
▁Aug	-4153
▁Einz	-4154
▁wohl	-4155
▁station	-4156
peten	-4157
▁gehört	-4158
ommod	-4159
▁Wieder	-4160
istration	-4161
ienen	-4162
▁AG	-4163
▁extremely	-4164
▁GmbH	-4165
▁disk	-4166
▁kont	-4167
▁camp	-4168
▁expect	-4169
▁vielleicht	-4170
üssel	-4171
▁prep	-4172
▁Erfolg	-4173
▁Dam	-4174
▁erziel	-4175
linien	-4176
▁circ	-4177
cke	-4178
atory	-4179
▁Geschichte	-4180
▁kleinen	-4181
▁demokrat	-4182
▁changes	-4183
▁item	-4184
▁Nord	-4185
▁caus	-4186
▁Parte	-4187
▁Tro	-4188
▁Ihrem	-4189
uk	-4190
bel	-4191
▁bevor	-4192
igungs	-4193
▁Grundlage	-4194
-,	-4195
▁contain	-4196
▁Trans	-4197
inzip	-4198
▁separ	-4199
▁Bil	-4200
▁sprechen	-4201
▁negotiations	-4202
rench	-4203
ublik	-4204
▁See	-4205
▁Daher	-4206
▁Wel	-4207
jekte	-4208
▁ago	-4209
würd	-4210
▁erreicht	-4211
ragen	-4212
▁Off	-4213
▁developed	-4214
▁low	-4215
▁lot	-4216
▁please	-4217
andid	-4218
▁corre	-4219
▁soon	-4220
▁farm	-4221
▁ö	-4222
▁Krit	-4223
▁Paris	-4224
▁Wort	-4225
urf	-4226
▁Musik	-4227
▁cases	-4228
▁sozialen	-4229
schn	-4230
gliche	-4231
▁Außen	-4232
▁By	-4233
▁Stre	-4234
▁pool	-4235
▁zust	-4236
▁protect	-4237
▁60	-4238
deut	-4239
▁regulation	-4240
ips	-4241
chs	-4242
▁Verfahren	-4243
immungen	-4244
▁either	-4245
▁Möglichkeiten	-4246
▁Netz	-4247
key	-4248
best	-4249
TM	-4250
grif	-4251
▁Einsatz	-4252
▁Reihe	-4253
onstr	-4254
▁Cour	-4255
orr	-4256
▁erfü	-4257
▁targe	-4258
▁Eur	-4259
▁Russia	-4260
orge	-4261
arf	-4262
igur	-4263
▁wind	-4264
▁Frieden	-4265
sichtlich	-4266
▁Heraus	-4267
▁Außer	-4268
▁nam	-4269
arbeitung	-4270
▁comfortable	-4271
▁France	-4272
bl	-4273
ense	-4274
▁Mot	-4275
crib	-4276
ano	-4277
▁markets	-4278
▁Date	-4279
▁übern	-4280
▁neu	-4281
teilen	-4282
▁werde	-4283
▁berücksicht	-4284
▁Kön	-4285
▁maxim	-4286
bildung	-4287
ump	-4288
lling	-4289
TO	-4290
ama	-4291
▁mess	-4292
▁Arbeitspl	-4293
prise	-4294
▁surround	-4295
tended	-4296
▁previous	-4297
nehm	-4298
ipped	-4299
▁Damen	-4300
▁Debatte	-4301
hend	-4302
teilt	-4303
ätzen	-4304
▁situated	-4305
erseits	-4306
itionen	-4307
▁restaurant	-4308
▁final	-4309
▁einges	-4310
dle	-4311
merksam	-4312
▁höch	-4313
▁Blick	-4314
▁More	-4315
stall	-4316
▁South	-4317
▁halten	-4318
▁ausgest	-4319
auen	-4320
▁comes	-4321
▁Bre	-4322
inner	-4323
▁developing	-4324
hes	-4325
geln	-4326
▁created	-4327
play	-4328
▁regional	-4329
▁könnten	-4330
▁Hinblick	-4331
▁minim	-4332
▁amb	-4333
▁unique	-4334
▁everything	-4335
estern	-4336
mut	-4337
istet	-4338
▁Erweit	-4339
abel	-4340
▁Erklär	-4341
▁Öff	-4342
attet	-4343
▁later	-4344
gern	-4345
▁Schwe	-4346
▁21	-4347
▁Mont	-4348
zeigt	-4349
▁Book	-4350
▁Integr	-4351
rieben	-4352
▁indic	-4353
▁mer	-4354
▁€	-4355
unik	-4356
▁improve	-4357
▁Wissen	-4358
▁schwier	-4359
▁additional	-4360
iable	-4361
trie	-4362
date	-4363
▁states	-4364
▁‘	-4365
ipment	-4366
▁prices	-4367
▁EC	-4368
anten	-4369
ichen	-4370
▁ermöglicht	-4371
▁contract	-4372
▁fünf	-4373
chnik	-4374
mark	-4375
▁true	-4376
▁Aktiv	-4377
ka	-4378
usst	-4379
▁arbeiten	-4380
▁actually	-4381
ging	-4382
▁Hoch	-4383
pendent	-4384
▁vorgeschlagen	-4385
▁Mod	-4386
▁stor	-4387
▁French	-4388
onn	-4389
▁Institutionen	-4390
▁accommod	-4391
haps	-4392
▁almost	-4393
▁altern	-4394
▁konkre	-4395
▁fort	-4396
▁document	-4397
▁verschiedene	-4398
▁idea	-4399
▁living	-4400
▁monitor	-4401
ielle	-4402
▁Sport	-4403
▁Auswirkungen	-4404
▁Kle	-4405
▁Presidency	-4406
mm	-4407
▁join	-4408
urt	-4409
▁hatten	-4410
▁cut	-4411
▁gemeinsame	-4412
▁Lis	-4413
▁democratic	-4414
▁immed	-4415
▁included	-4416
▁Kraft	-4417
▁Diskuss	-4418
ißt	-4419
▁education	-4420
spräsident	-4421
ios	-4422
gegen	-4423
vin	-4424
▁Room	-4425
▁Steuer	-4426
ibr	-4427
igte	-4428
▁que	-4429
RO	-4430
eless	-4431
▁analys	-4432
▁pict	-4433
fil	-4434
ester	-4435
▁receive	-4436
▁Apart	-4437
wegen	-4438
▁verfügt	-4439
▁vollständ	-4440
▁climate	-4441
▁vill	-4442
ulate	-4443
ental	-4444
▁Doch	-4445
bahn	-4446
▁dialog	-4447
ork	-4448
▁Tatsache	-4449
▁tats	-4450
▁schrift	-4451
▁wide	-4452
int	-4453
▁encour	-4454
▁appropriate	-4455
rad	-4456
▁schein	-4457
lack	-4458
▁thus	-4459
▁Unser	-4460
▁bleiben	-4461
jenigen	-4462
▁seen	-4463
▁Kir	-4464
rechts	-4465
▁Prozess	-4466
ommer	-4467
▁führt	-4468
ikt	-4469
▁Beg	-4470
▁Platz	-4471
▁file	-4472
▁akzept	-4473
▁Regionen	-4474
lle	-4475
▁euro	-4476
▁Plan	-4477
▁type	-4478
▁hold	-4479
▁Landes	-4480
▁Minuten	-4481
▁Änderungsantrag	-4482
ingt	-4483
▁Forschung	-4484
iellen	-4485
ilar	-4486
hinder	-4487
▁travel	-4488
▁Abgeordneten	-4489
▁Rad	-4490
▁allgemein	-4491
setzen	-4492
frei	-4493
▁designed	-4494
▁features	-4495
orf	-4496
▁held	-4497
▁funds	-4498
▁knowledge	-4499
▁Webs	-4500
▁zeigt	-4501
barkeit	-4502
▁official	-4503
iance	-4504
▁erwä	-4505
▁bisher	-4506
▁Sicherheits	-4507
▁Rechn	-4508
zer	-4509
rachten	-4510
▁Dis	-4511
▁outside	-4512
▁happ	-4513
▁program	-4514
laden	-4515
▁famous	-4516
▁professional	-4517
▁Strategie	-4518
▁Ausdruck	-4519
▁Nie	-4520
▁procedure	-4521
ires	-4522
▁Ant	-4523
▁Aff	-4524
ams	-4525
ound	-4526
IP	-4527
▁enl	-4528
▁27	-4529
▁Vertre	-4530
▁lack	-4531
▁Frühstück	-4532
:00	-4533
feld	-4534
folgen	-4535
mail	-4536
fragen	-4537
▁Iran	-4538
▁thing	-4539
▁funktion	-4540
▁gesamten	-4541
öffentlich	-4542
ood	-4543
▁angeb	-4544
▁publish	-4545
ählt	-4546
▁erforderlich	-4547
änden	-4548
▁darum	-4549
▁Ergebnis	-4550
verfahren	-4551
fel	-4552
anced	-4553
kra	-4554
▁später	-4555
atisf	-4556
ogra	-4557
▁hon	-4558
▁Funktion	-4559
▁Arch	-4560
▁space	-4561
jähr	-4562
▁suggest	-4563
ko	-4564
stead	-4565
▁ebenso	-4566
▁Kolleginnen	-4567
▁majority	-4568
▁relev	-4569
auber	-4570
ternal	-4571
▁Portug	-4572
▁danken	-4573
▁Com	-4574
▁August	-4575
ctors	-4576
▁Lond	-4577
▁American	-4578
▁assoc	-4579
▁rate	-4580
öglichen	-4581
ießen	-4582
adurch	-4583
mitteln	-4584
▁propert	-4585
▁entwickelt	-4586
oid	-4587
▁Schritt	-4588
▁ce	-4589
iews	-4590
▁cop	-4591
isieren	-4592
oper	-4593
▁Zur	-4594
va	-4595
▁throughout	-4596
▁exclus	-4597
▁betra	-4598
▁einzelnen	-4599
▁angenommen	-4600
▁denke	-4601
▁five	-4602
imme	-4603
▁Erst	-4604
▁download	-4605
▁enable	-4606
▁draw	-4607
▁Mitglieder	-4608
▁answer	-4609
indest	-4610
▁emphas	-4611
▁Fund	-4612
▁Hers	-4613
▁Familien	-4614
▁early	-4615
▁workers	-4616
.00	-4617
▁Verhandlungen	-4618
▁Antwort	-4619
▁colleag	-4620
ässt	-4621
▁wider	-4622
des	-4623
▁takes	-4624
▁General	-4625
▁potential	-4626
igration	-4627
▁1,	-4628
▁proper	-4629
▁Dec	-4630
kämpfung	-4631
▁Ris	-4632
▁communication	-4633
cep	-4634
▁Du	-4635
▁Mil	-4636
▁hätte	-4637
▁Gemeinschafts	-4638
▁Binnen	-4639
clud	-4640
▁school	-4641
▁hours	-4642
ült	-4643
▁impact	-4644
otos	-4645
▁West	-4646
▁works	-4647
cure	-4648
▁behand	-4649
▁consequ	-4650
▁Außerdem	-4651
▁äußer	-4652
arbeitet	-4653
pression	-4654
▁looking	-4655
▁*	-4656
orre	-4657
▁customer	-4658
▁weiß	-4659
▁univers	-4660
▁investment	-4661
enken	-4662
▁jedem	-4663
iens	-4664
onom	-4665
cer	-4666
▁Version	-4667
▁certainly	-4668
▁normal	-4669
1,	-4670
▁doing	-4671
▁vorh	-4672
ländern	-4673
liegen	-4674
ällen	-4675
▁parts	-4676
▁Vereinigten	-4677
fähigkeit	-4678
▁Denn	-4679
▁Währ	-4680
▁Position	-4681
▁Zum	-4682
▁across	-4683
▁gemeinsam	-4684
este	-4685
prä	-4686
▁strengthen	-4687
▁Pak	-4688
▁Bereichen	-4689
▁solid	-4690
▁setzen	-4691
▁mechan	-4692
▁Acc	-4693
▁Pa	-4694
▁links	-4695
▁befinden	-4696
▁Dialog	-4697
▁ca	-4698
bru	-4699
▁konnte	-4700
▁transl	-4701
▁80	-4702
▁umfassen	-4703
zif	-4704
▁weiteren	-4705
ügen	-4706
ändert	-4707
▁complex	-4708
▁jede	-4709
▁London	-4710
▁Beziehungen	-4711
▁internationale	-4712
kn	-4713
aly	-4714
▁ever	-4715
▁North	-4716
ille	-4717
▁programmes	-4718
kr	-4719
▁guest	-4720
▁resol	-4721
▁took	-4722
▁Staats	-4723
▁divers	-4724
▁heißt	-4725
▁users	-4726
wie	-4727
▁erhö	-4728
▁Handels	-4729
▁connection	-4730
▁neues	-4731
ösen	-4732
▁record	-4733
▁gleichzeitig	-4734
stre	-4735
▁concerns	-4736
ava	-4737
hab	-4738
uren	-4739
▁Führ	-4740
▁date	-4741
.000	-4742
▁aud	-4743
chsel	-4744
▁Programme	-4745
griff	-4746
▁card	-4747
▁arg	-4748
▁Luft	-4749
ini	-4750
aring	-4751
▁zuf	-4752
▁model	-4753
▁Zentrum	-4754
▁eth	-4755
▁although	-4756
▁PC	-4757
▁erhe	-4758
▁cross	-4759
▁amount	-4760
▁existing	-4761
ET	-4762
▁relig	-4763
▁hinter	-4764
hung	-4765
▁neben	-4766
▁Leit	-4767
▁Süd	-4768
▁Hol	-4769
teid	-4770
▁Nat	-4771
erei	-4772
halte	-4773
ipl	-4774
kei	-4775
▁traditional	-4776
▁original	-4777
üsse	-4778
affung	-4779
▁Abkommen	-4780
▁Vertra	-4781
ias	-4782
äss	-4783
▁Government	-4784
▁Proz	-4785
▁Flugh	-4786
▁Kos	-4787
▁Turkey	-4788
▁Fuß	-4789
range	-4790
▁mentioned	-4791
AM	-4792
▁High	-4793
▁Interessen	-4794
oking	-4795
▁completely	-4796
ayer	-4797
ande	-4798
sehen	-4799
▁Terror	-4800
▁America	-4801
länder	-4802
▁lat	-4803
uted	-4804
face	-4805
▁Court	-4806
▁Kontrolle	-4807
alter	-4808
▁Förderung	-4809
lang	-4810
▁Let	-4811
▁gegenwärt	-4812
▁Verpflicht	-4813
ox	-4814
▁concerning	-4815
▁absolute	-4816
▁Beitrag	-4817
▁joint	-4818
▁vö	-4819
▁Bevölkerung	-4820
▁helfen	-4821
esserung	-4822
▁writing	-4823
▁Handel	-4824
▁Werk	-4825
fortun	-4826
▁reasons	-4827
▁lux	-4828
▁nothing	-4829
▁Mag	-4830
▁leading	-4831
▁beit	-4832
▁game	-4833
▁extens	-4834
ball	-4835
arity	-4836
▁demonstr	-4837
hlen	-4838
▁Liste	-4839
▁Schlussel	-4840
amera	-4841
▁committee	-4842
▁prakt	-4843
ole	-4844
▁Inform	-4845
richtungen	-4846
▁kleine	-4847
▁related	-4848
▁intens	-4849
▁half	-4850
▁Aufgabe	-4851
▁holiday	-4852
▁wichtigen	-4853
▁parliament	-4854
▁decisions	-4855
▁English	-4856
▁gelten	-4857
▁conflic	-4858
▁Türkei	-4859
▁rund	-4860
▁culture	-4861
▁Themen	-4862
▁friendly	-4863
▁meinen	-4864
▁Febru	-4865
▁includes	-4866
▁Sy	-4867
ID	-4868
ba	-4869
zös	-4870
▁community	-4871
▁Reform	-4872
▁CD	-4873
▁consult	-4874
▁empf	-4875
▁aware	-4876
▁search	-4877
uffer	-4878
nissen	-4879
▁built	-4880
formen	-4881
▁aktiv	-4882
▁becom	-4883
▁assess	-4884
orten	-4885
▁body	-4886
▁IS	-4887
▁Online	-4888
lant	-4889
ological	-4890
esh	-4891
▁-,	-4892
iddle	-4893
▁media	-4894
▁schwer	-4895
odell	-4896
▁Einzel	-4897
▁Stabil	-4898
temp	-4899
▁jobs	-4900
▁front	-4901
ush	-4902
▁deter	-4903
▁basic	-4904
AC	-4905
gangenen	-4906
▁liegen	-4907
▁practice	-4908
Re	-4909
▁bekommen	-4910
▁oblig	-4911
▁Rel	-4912
führen	-4913
▁Barcel	-4914
inden	-4915
una	-4916
▁unseres	-4917
▁Wettbewerbs	-4918
▁Verbindung	-4919
▁gab	-4920
▁enlarge	-4921
▁spezie	-4922
▁gestellt	-4923
▁commer	-4924
▁digital	-4925
▁internet	-4926
ara	-4927
lies	-4928
osen	-4929
jahr	-4930
▁conclus	-4931
bedingungen	-4932
▁Cor	-4933
▁objectives	-4934
▁Erweiterung	-4935
more	-4936
quis	-4937
▁Entschließung	-4938
SE	-4939
spe	-4940
▁verd	-4941
▁Ausschusses	-4942
▁allows	-4943
tes	-4944
▁advant	-4945
oo	-4946
fluss	-4947
▁wün	-4948
grat	-4949
▁Mor	-4950
gl	-4951
iterran	-4952
zunehmen	-4953
▁wa	-4954
rachen	-4955
▁Kampf	-4956
ills	-4957
▁Pass	-4958
▁Sup	-4959
▁wegen	-4960
▁choice	-4961
▁jedes	-4962
▁agreements	-4963
▁population	-4964
istrat	-4965
▁gestimmt	-4966
itable	-4967
▁bleibt	-4968
▁simple	-4969
▁Since	-4970
zeugen	-4971
ason	-4972
▁Lisbon	-4973
▁values	-4974
▁spr	-4975
alien	-4976
▁erinn	-4977
▁nahe	-4978
▁equipment	-4979
len	-4980
▁err	-4981
▁unabhäng	-4982
▁1999	-4983
iated	-4984
ED	-4985
▁satisf	-4986
▁received	-4987
▁fail	-4988
▁broad	-4989
abon	-4990
▁Thank	-4991
▁Behörden	-4992
▁regarding	-4993
▁emer	-4994
itness	-4995
▁package	-4996
▁warm	-4997
▁Here	-4998
▁Che	-4999
▁sun	-5000
▁established	-5001
struments	-5002
ying	-5003
▁Liss	-5004
▁erlaub	-5005
▁files	-5006
▁Augen	-5007
▁military	-5008
▁angem	-5009
▁Lux	-5010
▁Konferenz	-5011
▁Mitarbeiter	-5012
▁Verordnung	-5013
älle	-5014
▁Volk	-5015
ördern	-5016
▁harmon	-5017
▁Kop	-5018
Mail	-5019
licken	-5020
▁credit	-5021
▁wunder	-5022
▁Prior	-5023
▁quickly	-5024
annte	-5025
▁computer	-5026
▁move	-5027
▁gerne	-5028
▁Ze	-5029
▁performance	-5030
▁Now	-5031
▁Cons	-5032
vement	-5033
ón	-5034
eden	-5035
▁applications	-5036
mbol	-5037
ikanischen	-5038
pected	-5039
geschlossen	-5040
▁below	-5041
▁Vis	-5042
▁plann	-5043
▁richtig	-5044
▁Home	-5045
vious	-5046
▁prim	-5047
dom	-5048
ico	-5049
Ver	-5050
▁Serv	-5051
ourn	-5052
ovo	-5053
▁wichtigsten	-5054
▁capac	-5055
▁Strand	-5056
▁IT	-5057
▁Krise	-5058
such	-5059
▁agricultural	-5060
▁Frankreich	-5061
▁Notwend	-5062
▁initi	-5063
▁Urlaub	-5064
imension	-5065
▁Damit	-5066
öst	-5067
gesamt	-5068
essour	-5069
▁bess	-5070
▁Aufent	-5071
▁transfer	-5072
stellungen	-5073
gef	-5074
icles	-5075
▁Verbesserung	-5076
▁pleas	-5077
▁poor	-5078
.,	-5079
ennung	-5080
pass	-5081
▁sag	-5082
▁Nutzung	-5083
▁Wochen	-5084
▁lok	-5085
▁huge	-5086
rab	-5087
▁keyword	-5088
▁jud	-5089
uclear	-5090
▁herr	-5091
▁stop	-5092
▁purch	-5093
▁sound	-5094
▁attack	-5095
▁objective	-5096
▁Volks	-5097
▁verantwort	-5098
▁Lissabon	-5099
▁Gruppe	-5100
▁ganzen	-5101
▁Bitte	-5102
▁image	-5103
▁$	-5104
▁note	-5105
▁Ober	-5106
▁Auswahl	-5107
erve	-5108
osed	-5109
▁Reise	-5110
▁center	-5111
ernen	-5112
▁spend	-5113
▁industrial	-5114
▁benefit	-5115
ps	-5116
▁wonder	-5117
▁mehrere	-5118
uck	-5119
▁experien	-5120
inne	-5121
▁cru	-5122
▁Imm	-5123
Fra	-5124
▁party	-5125
entwick	-5126
pite	-5127
,000	-5128
▁Forder	-5129
ften	-5130
▁garant	-5131
▁sense	-5132
▁goods	-5133
▁hinsichtlich	-5134
chter	-5135
flä	-5136
▁Sant	-5137
▁face	-5138
öhn	-5139
▁fran	-5140
▁Amend	-5141
▁ermöglichen	-5142
▁seems	-5143
▁Imp	-5144
▁los	-5145
▁ganze	-5146
▁leaders	-5147
▁self	-5148
sterreich	-5149
▁option	-5150
▁reports	-5151
gn	-5152
undes	-5153
erweise	-5154
sitz	-5155
▁einger	-5156
▁durchge	-5157
mann	-5158
▁south	-5159
▁schön	-5160
▁treatment	-5161
▁Veranst	-5162
▁Dokument	-5163
opping	-5164
▁+	-5165
▁22	-5166
ros	-5167
aving	-5168
ery	-5169
mor	-5170
▁popular	-5171
▁Pan	-5172
▁enthält	-5173
▁wobei	-5174
▁indeed	-5175
▁nachhalt	-5176
▁Schaffung	-5177
▁vict	-5178
▁Gree	-5179
▁Affairs	-5180
▁leben	-5181
seit	-5182
gelt	-5183
teller	-5184
▁achieved	-5185
statt	-5186
▁Bef	-5187
wide	-5188
▁Chin	-5189
schließend	-5190
▁initiative	-5191
▁Les	-5192
▁Bad	-5193
▁double	-5194
▁Ukra	-5195
▁zeigen	-5196
▁Wachstum	-5197
erc	-5198
▁Social	-5199
▁Link	-5200
▁28	-5201
▁everyone	-5202
▁East	-5203
▁Voraus	-5204
▁ruh	-5205
▁Sim	-5206
möglichkeit	-5207
otion	-5208
▁Gelegenheit	-5209
iveness	-5210
bre	-5211
▁carry	-5212
▁mittel	-5213
istische	-5214
▁contains	-5215
▁code	-5216
wander	-5217
▁rail	-5218
▁trotz	-5219
▁Club	-5220
brigen	-5221
▁beein	-5222
▁engine	-5223
ienste	-5224
▁correct	-5225
▁Finally	-5226
▁Verwendung	-5227
▁veh	-5228
itect	-5229
▁integration	-5230
▁June	-5231
▁recently	-5232
▁Gewalt	-5233
▁Personal	-5234
▁beginning	-5235
▁Binnenmarkt	-5236
▁Ergebnisse	-5237
▁oil	-5238
kennen	-5239
▁Anfang	-5240
▁dialogue	-5241
fonds	-5242
▁efficient	-5243
▁City	-5244
lassen	-5245
▁500	-5246
▁scient	-5247
/9	-5248
lam	-5249
▁grund	-5250
▁Global	-5251
▁Macht	-5252
▁passen	-5253
▁active	-5254
▁ill	-5255
iment	-5256
▁consumers	-5257
▁Barcelona	-5258
▁heut	-5259
▁Central	-5260
▁red	-5261
ätigkeit	-5262
äum	-5263
▁garden	-5264
▁highly	-5265
lla	-5266
▁spielen	-5267
ostels	-5268
▁Standard	-5269
put	-5270
▁stage	-5271
ßt	-5272
▁presented	-5273
▁3.	-5274
haupt	-5275
▁successful	-5276
stances	-5277
▁nice	-5278
▁levels	-5279
▁carried	-5280
▁congrat	-5281
▁comprom	-5282
▁!	-5283
▁völlig	-5284
pid	-5285
lace	-5286
▁click	-5287
▁Some	-5288
fordert	-5289
▁Up	-5290
oppel	-5291
mehr	-5292
▁whose	-5293
▁ut	-5294
▁frü	-5295
▁Liefer	-5296
buch	-5297
▁floor	-5298
ature	-5299
▁Fach	-5300
▁series	-5301
atell	-5302
▁Kern	-5303
▁governments	-5304
nern	-5305
▁exchange	-5306
▁super	-5307
▁einzig	-5308
▁equipped	-5309
En	-5310
▁lässt	-5311
▁increased	-5312
▁Innov	-5313
▁Amster	-5314
▁Management	-5315
emb	-5316
▁Notwendigkeit	-5317
▁spac	-5318
▁Angebot	-5319
inger	-5320
▁kulture	-5321
▁frei	-5322
▁verbessern	-5323
utt	-5324
örper	-5325
VD	-5326
ued	-5327
▁Darüber	-5328
vorschriften	-5329
ützen	-5330
ley	-5331
onse	-5332
bie	-5333
itel	-5334
iko	-5335
anzen	-5336
▁gefähr	-5337
abor	-5338
▁principles	-5339
loyment	-5340
▁196	-5341
lier	-5342
▁tele	-5343
....	-5344
▁office	-5345
▁Second	-5346
▁soziale	-5347
▁Gebä	-5348
▁Beschäftigung	-5349
▁Zweit	-5350
▁Woche	-5351
▁sex	-5352
wise	-5353
▁Tage	-5354
wertungen	-5355
▁tw	-5356
fortunately	-5357
▁Bra	-5358
..."	-5359
just	-5360
▁supply	-5361
ania	-5362
▁stra	-5363
▁grundlegen	-5364
icien	-5365
▁Leg	-5366
▁Further	-5367
▁Berg	-5368
aufen	-5369
ering	-5370
Te	-5371
▁Akt	-5372
▁furn	-5373
action	-5374
organis	-5375
▁Team	-5376
▁Zeitpunkt	-5377
40	-5378
▁Solid	-5379
▁Ho	-5380
atic	-5381
▁sent	-5382
anner	-5383
▁higher	-5384
hoben	-5385
▁expl	-5386
▁häuf	-5387
▁Ferien	-5388
▁guten	-5389
▁schö	-5390
▁verg	-5391
isted	-5392
ape	-5393
▁six	-5394
▁commercial	-5395
▁Russland	-5396
▁Bud	-5397
▁mal	-5398
▁rat	-5399
▁coll	-5400
▁subsid	-5401
aint	-5402
▁Material	-5403
▁verfügen	-5404
schw	-5405
▁dre	-5406
▁Anzahl	-5407
unt	-5408
▁age	-5409
imming	-5410
▁Golf	-5411
▁choose	-5412
▁Dan	-5413
▁verfüg	-5414
verständlich	-5415
icherung	-5416
▁obtain	-5417
umb	-5418
▁großer	-5419
▁verwenden	-5420
▁Zw	-5421
▁Mich	-5422
▁meinem	-5423
▁profit	-5424
scht	-5425
▁Integration	-5426
▁dang	-5427
▁agreed	-5428
▁aspects	-5429
▁vorhanden	-5430
▁perhaps	-5431
PE	-5432
▁Sil	-5433
▁Therefore	-5434
▁similar	-5435
▁Business	-5436
▁commitment	-5437
▁dynam	-5438
ufficient	-5439
xis	-5440
▁direction	-5441
▁block	-5442
▁eigene	-5443
RE	-5444
atast	-5445
▁Rot	-5446
▁shows	-5447
▁effects	-5448
▁avoid	-5449
zub	-5450
▁bathroom	-5451
spiel	-5452
ja	-5453
▁pan	-5454
▁Lösungen	-5455
▁Produktion	-5456
agn	-5457
pose	-5458
▁anzu	-5459
▁fördern	-5460
▁atmosph	-5461
izien	-5462
OL	-5463
▁obs	-5464
▁Post	-5465
▁diskut	-5466
▁Develop	-5467
ahren	-5468
apt	-5469
▁Maß	-5470
▁Miss	-5471
lass	-5472
▁exc	-5473
▁gleichen	-5474
▁zunächst	-5475
träge	-5476
▁gehören	-5477
ängt	-5478
▁künft	-5479
aschinen	-5480
▁Juni	-5481
▁amendment	-5482
▁bi	-5483
▁tell	-5484
▁reviews	-5485
▁Mac	-5486
▁innovative	-5487
▁influen	-5488
▁asked	-5489
äst	-5490
▁traff	-5491
fält	-5492
▁stress	-5493
ored	-5494
Sch	-5495
▁Don	-5496
▁Krieg	-5497
ausschuss	-5498
▁Pers	-5499
▁considered	-5500
usion	-5501
iglich	-5502
▁seek	-5503
greifen	-5504
▁gesamte	-5505
▁Änderungen	-5506
▁creation	-5507
▁news	-5508
▁tatsächlich	-5509
▁Arg	-5510
griffen	-5511
IM	-5512
▁rein	-5513
▁Män	-5514
▁nuclear	-5515
▁verstär	-5516
▁Of	-5517
▁lik	-5518
minister	-5519
cks	-5520
▁Stellung	-5521
▁eig	-5522
▁rates	-5523
▁added	-5524
▁Article	-5525
owers	-5526
▁matters	-5527
▁Mehrheit	-5528
essourcen	-5529
ously	-5530
▁Col	-5531
pflich	-5532
mitt	-5533
▁promote	-5534
▁reached	-5535
▁hotels	-5536
▁Program	-5537
ends	-5538
▁Während	-5539
▁Eigen	-5540
▁thanks	-5541
klus	-5542
▁speed	-5543
▁Jugend	-5544
▁sorgen	-5545
▁Beschl	-5546
▁sofort	-5547
ierenden	-5548
cript	-5549
▁äußerst	-5550
▁Ham	-5551
▁Wein	-5552
▁Organisation	-5553
▁Debian	-5554
▁Hinter	-5555
▁materials	-5556
▁Dez	-5557
ändig	-5558
▁Wahr	-5559
osp	-5560
▁Initiative	-5561
▁eindeut	-5562
▁gelegen	-5563
▁former	-5564
standen	-5565
▁opportunities	-5566
IL	-5567
▁Herzen	-5568
▁Well	-5569
lös	-5570
ühm	-5571
▁Mai	-5572
▁came	-5573
▁shown	-5574
▁geführt	-5575
▁Lat	-5576
artige	-5577
▁ernst	-5578
▁condition	-5579
icy	-5580
ology	-5581
▁entwickeln	-5582
6.	-5583
▁phys	-5584
▁Log	-5585
▁somit	-5586
ilen	-5587
ausch	-5588
▁Erfahrung	-5589
okoll	-5590
▁Inde	-5591
fahrt	-5592
▁possibility	-5593
▁Nieder	-5594
▁latest	-5595
where	-5596
rup	-5597
▁Net	-5598
▁summer	-5599
▁schriftlich	-5600
▁Einführung	-5601
▁pressure	-5602
alu	-5603
▁Tat	-5604
▁Balk	-5605
akter	-5606
▁draft	-5607
▁review	-5608
▁response	-5609
astic	-5610
will	-5611
▁Republic	-5612
▁Regierungen	-5613
▁Sum	-5614
▁easily	-5615
▁atmosphere	-5616
irit	-5617
leb	-5618
▁prepar	-5619
istics	-5620
▁terra	-5621
▁providing	-5622
▁Ins	-5623
▁König	-5624
▁death	-5625
▁criter	-5626
▁erk	-5627
▁Aktion	-5628
▁setting	-5629
▁hohen	-5630
▁deta	-5631
▁external	-5632
▁ten	-5633
rechend	-5634
▁depend	-5635
▁size	-5636
iction	-5637
▁accommodation	-5638
▁Agr	-5639
arent	-5640
▁leicht	-5641
▁größten	-5642
zeugt	-5643
▁prepared	-5644
itting	-5645
▁Get	-5646
▁relevant	-5647
▁schle	-5648
▁behind	-5649
unsch	-5650
▁Ru	-5651
ounts	-5652
▁Italy	-5653
kraft	-5654
▁Convention	-5655
eff	-5656
otes	-5657
▁verstehen	-5658
fg	-5659
▁Ratspräsident	-5660
▁hoff	-5661
▁Weiter	-5662
▁Micro	-5663
▁video	-5664
▁Install	-5665
▁Spain	-5666
▁sustainable	-5667
▁Dabei	-5668
▁gebracht	-5669
5.	-5670
iles	-5671
▁reduce	-5672
▁Amsterdam	-5673
▁Umgebung	-5674
▁gives	-5675
son	-5676
idel	-5677
▁Aud	-5678
▁à	-5679
ächt	-5680
▁Lauf	-5681
stellt	-5682
▁90	-5683
▁coming	-5684
▁Kontakt	-5685
▁WTO	-5686
▁priority	-5687
▁300	-5688
uffet	-5689
gene	-5690
▁cause	-5691
▁lediglich	-5692
▁''	-5693
uel	-5694
▁Loc	-5695
▁places	-5696
▁verpflich	-5697
oz	-5698
▁Konfl	-5699
▁Kommunik	-5700
▁elekt	-5701
▁Africa	-5702
▁Familie	-5703
▁Sprache	-5704
li	-5705
▁Ents	-5706
▁Höhe	-5707
▁Bekämpfung	-5708
▁exhib	-5709
▁details	-5710
▁capacity	-5711
▁Vereinbar	-5712
sy	-5713
▁actions	-5714
▁wirtschaftliche	-5715
▁gross	-5716
uern	-5717
▁island	-5718
▁anderer	-5719
▁geschlossen	-5720
és	-5721
ibilities	-5722
ki	-5723
ierter	-5724
▁concept	-5725
▁Transport	-5726
▁train	-5727
3.	-5728
rang	-5729
▁www	-5730
▁employe	-5731
▁neigh	-5732
▁beteil	-5733
▁prob	-5734
▁vern	-5735
▁Vertrags	-5736
estens	-5737
▁British	-5738
5,	-5739
▁ausgestattet	-5740
▁gewährleisten	-5741
ney	-5742
tent	-5743
▁Neben	-5744
▁style	-5745
▁Adr	-5746
maßnahmen	-5747
▁Informations	-5748
▁suffer	-5749
volle	-5750
arily	-5751
▁condu	-5752
▁Fehler	-5753
adem	-5754
kommens	-5755
▁Komprom	-5756
▁Italien	-5757
▁erschein	-5758
itzen	-5759
▁erfolgreich	-5760
▁decided	-5761
Be	-5762
emin	-5763
▁Oct	-5764
▁Folgen	-5765
rief	-5766
▁Aspe	-5767
▁Ke	-5768
▁Dom	-5769
▁remains	-5770
▁regular	-5771
▁balance	-5772
▁bestimmte	-5773
▁Rev	-5774
▁dep	-5775
▁partner	-5776
▁70	-5777
▁IN	-5778
▁bestimmten	-5779
rec	-5780
iately	-5781
▁architect	-5782
▁meines	-5783
▁scheint	-5784
▁Fed	-5785
▁Eing	-5786
hil	-5787
▁decl	-5788
▁zweite	-5789
▁property	-5790
▁sites	-5791
▁Erachten	-5792
lefon	-5793
▁Sicht	-5794
▁leave	-5795
▁billion	-5796
lav	-5797
▁Erachtens	-5798
▁neuer	-5799
ala	-5800
▁Wettbewerb	-5801
ungss	-5802
▁limited	-5803
quare	-5804
▁Open	-5805
▁consumer	-5806
ugs	-5807
mented	-5808
▁dring	-5809
▁Stad	-5810
▁Also	-5811
▁March	-5812
▁register	-5813
setzungen	-5814
▁Freiheit	-5815
▁Kommissarin	-5816
▁enlargement	-5817
industrie	-5818
iedr	-5819
▁announ	-5820
zeuge	-5821
▁December	-5822
▁x	-5823
▁une	-5824
▁Party	-5825
iture	-5826
ündet	-5827
eting	-5828
▁amer	-5829
▁zahlreiche	-5830
▁else	-5831
▁independent	-5832
▁submitted	-5833
ulgar	-5834
uert	-5835
▁sport	-5836
▁virt	-5837
▁highl	-5838
reibung	-5839
roat	-5840
fghan	-5841
▁funding	-5842
atastrop	-5843
mission	-5844
▁fal	-5845
▁forms	-5846
resp	-5847
▁green	-5848
▁Gemeins	-5849
▁York	-5850
▁Medien	-5851
▁assistance	-5852
▁woll	-5853
▁Standpunkt	-5854
▁Dinge	-5855
▁solchen	-5856
ategories	-5857
schnitt	-5858
itzer	-5859
▁Stelle	-5860
▁describ	-5861
▁Kosovo	-5862
creen	-5863
iterranean	-5864
rehens	-5865
▁closed	-5866
▁Überein	-5867
ziehung	-5868
▁obwohl	-5869
▁vorlie	-5870
▁transparen	-5871
'.	-5872
stein	-5873
▁Ukraine	-5874
▁Museum	-5875
urr	-5876
selves	-5877
▁tragen	-5878
▁Fortschritte	-5879
▁movement	-5880
▁Aktivitäten	-5881
▁außerdem	-5882
ieg	-5883
▁Enter	-5884
▁Okt	-5885
▁Wohl	-5886
mäßig	-5887
▁erhält	-5888
▁discover	-5889
▁display	-5890
▁Instrument	-5891
here	-5892
▁fig	-5893
▁deep	-5894
3,	-5895
sprün	-5896
▁effe	-5897
▁limit	-5898
▁hohe	-5899
▁prot	-5900
▁creating	-5901
▁Di	-5902
▁mobile	-5903
die	-5904
▁Jed	-5905
lekt	-5906
▁brought	-5907
ournal	-5908
▁north	-5909
▁Gruppen	-5910
▁Opt	-5911
2)	-5912
▁Bestimmungen	-5913
▁discussion	-5914
▁ground	-5915
▁Spa	-5916
▁gewor	-5917
▁vorgesehen	-5918
hindern	-5919
stitute	-5920
▁ko	-5921
ützt	-5922
▁construction	-5923
▁ähn	-5924
▁sagte	-5925
▁Dezember	-5926
▁supported	-5927
▁regulations	-5928
▁foot	-5929
▁rule	-5930
▁Booking	-5931
ritts	-5932
▁quiet	-5933
▁January	-5934
▁erweit	-5935
▁unterst	-5936
PL	-5937
Fraktion	-5938
▁entde	-5939
▁administrat	-5940
▁Verkehrs	-5941
▁fix	-5942
▁variety	-5943
terne	-5944
▁Down	-5945
▁instead	-5946
ehen	-5947
▁ord	-5948
wertung	-5949
geber	-5950
iciency	-5951
▁Western	-5952
▁apartment	-5953
▁expla	-5954
▁insgesamt	-5955
Off	-5956
▁Oper	-5957
page	-5958
etimes	-5959
▁Star	-5960
altungs	-5961
▁pleased	-5962
inal	-5963
▁erster	-5964
▁Italian	-5965
rid	-5966
ategorien	-5967
legenheiten	-5968
▁Camp	-5969
▁=	-5970
▁hy	-5971
11	-5972
cle	-5973
gesellschaft	-5974
▁Jo	-5975
▁renov	-5976
▁Preise	-5977
bert	-5978
▁vergangenen	-5979
ader	-5980
stag	-5981
ilos	-5982
▁Benutzer	-5983
▁schließlich	-5984
▁airport	-5985
▁versuchen	-5986
▁einzige	-5987
▁sus	-5988
▁Unterk	-5989
▁französ	-5990
▁produced	-5991
▁restaurants	-5992
▁Staat	-5993
▁largest	-5994
▁Jahrhundert	-5995
▁became	-5996
▁measure	-5997
möglichkeiten	-5998
Pl	-5999
▁purpose	-6000
▁Privat	-6001
▁alten	-6002
▁determin	-6003
▁allein	-6004
uis	-6005
▁Sl	-6006
▁study	-6007
endes	-6008
arenz	-6009
▁zweiten	-6010
▁relationship	-6011
▁procedures	-6012
▁Gefahr	-6013
4.	-6014
merksamkeit	-6015
▁Mart	-6016
anischen	-6017
▁regards	-6018
▁host	-6019
▁Last	-6020
▁gemäß	-6021
▁erheb	-6022
▁Stunden	-6023
▁obvious	-6024
lare	-6025
kont	-6026
▁King	-6027
▁Har	-6028
▁Ged	-6029
▁1998	-6030
▁gee	-6031
▁ways	-6032
▁2001	-6033
▁rich	-6034
▁bestät	-6035
▁Ter	-6036
conomic	-6037
▁produce	-6038
entlichkeit	-6039
▁Today	-6040
▁steps	-6041
▁dadurch	-6042
NG	-6043
▁effort	-6044
▁message	-6045
isters	-6046
▁friends	-6047
▁Erklärung	-6048
ena	-6049
▁Server	-6050
▁Alt	-6051
▁aufgenommen	-6052
▁Aufmerksamkeit	-6053
besch	-6054
ämt	-6055
▁dat	-6056
▁genießen	-6057
ürf	-6058
aft	-6059
etary	-6060
▁thous	-6061
▁ändern	-6062
unternehmen	-6063
▁Basis	-6064
▁accord	-6065
▁hervorra	-6066
▁af	-6067
▁Küche	-6068
Mit	-6069
▁Film	-6070
yond	-6071
▁Det	-6072
bus	-6073
▁liberal	-6074
▁Nur	-6075
porate	-6076
anlage	-6077
▁activity	-6078
▁Punkte	-6079
wa	-6080
ero	-6081
▁Exper	-6082
coming	-6083
▁Anforderungen	-6084
▁29	-6085
▁repe	-6086
▁instrument	-6087
▁Prü	-6088
▁wid	-6089
▁exec	-6090
▁conference	-6091
igungen	-6092
▁hous	-6093
▁source	-6094
ronic	-6095
▁stability	-6096
▁Bildung	-6097
▁mor	-6098
▁status	-6099
▁Cap	-6100
Ar	-6101
▁October	-6102
▁chem	-6103
80	-6104
ades	-6105
legung	-6106
“,	-6107
▁März	-6108
▁medium	-6109
▁Services	-6110
dra	-6111
▁lic	-6112
▁Entscheidungen	-6113
▁started	-6114
▁Stär	-6115
▁disp	-6116
▁Zeich	-6117
▁Abend	-6118
▁bein	-6119
▁eigentlich	-6120
räfte	-6121
▁konzentr	-6122
cker	-6123
▁safe	-6124
▁allowed	-6125
▁div	-6126
▁vertreten	-6127
▁morgen	-6128
FR	-6129
▁Flughafen	-6130
EP	-6131
▁Anwend	-6132
▁operation	-6133
▁interesting	-6134
angt	-6135
▁Juli	-6136
oder	-6137
itial	-6138
▁keiner	-6139
overty	-6140
polit	-6141
▁dut	-6142
▁Sm	-6143
bewertungen	-6144
▁tä	-6145
▁exact	-6146
▁Schweiz	-6147
▁Öffentlichkeit	-6148
utter	-6149
▁compromise	-6150
lines	-6151
▁2002	-6152
▁contribution	-6153
prises	-6154
▁forder	-6155
▁board	-6156
▁Transparenz	-6157
isp	-6158
▁legislative	-6159
▁Oktober	-6160
▁Diskussion	-6161
▁Development	-6162
länd	-6163
▁Gip	-6164
▁jün	-6165
▁Spanish	-6166
ateral	-6167
cement	-6168
▁erwarten	-6169
▁Bilder	-6170
▁village	-6171
falt	-6172
itude	-6173
▁Vorschriften	-6174
▁During	-6175
▁Rights	-6176
▁accep	-6177
▁word	-6178
▁Ansatz	-6179
▁einschließlich	-6180
▁Tex	-6181
▁Site	-6182
▁Gesundheits	-6183
▁appe	-6184
ugg	-6185
▁Ist	-6186
▁written	-6187
zone	-6188
▁purs	-6189
▁häufig	-6190
▁provisions	-6191
▁task	-6192
▁Every	-6193
letzt	-6194
▁Erzeug	-6195
altet	-6196
▁Städ	-6197
▁betroffen	-6198
▁san	-6199
▁Democ	-6200
▁damage	-6201
ierende	-6202
▁criteria	-6203
6,	-6204
annen	-6205
ienten	-6206
EM	-6207
▁dise	-6208
▁fall	-6209
▁fehl	-6210
▁Sommer	-6211
▁Bundes	-6212
▁compon	-6213
▁fisher	-6214
▁Kan	-6215
▁Pap	-6216
oker	-6217
▁leisten	-6218
▁beschäft	-6219
▁kit	-6220
▁Bereiche	-6221
▁historical	-6222
▁Ed	-6223
ühungen	-6224
.)	-6225
▁Nationen	-6226
ira	-6227
▁giving	-6228
▁Landwirtschaft	-6229
ford	-6230
▁Organ	-6231
▁ourselves	-6232
ibil	-6233
▁fishing	-6234
▁Em	-6235
kosten	-6236
▁documents	-6237
▁Real	-6238
▁Linux	-6239
--	-6240
see	-6241
enntnis	-6242
▁Ere	-6243
▁pen	-6244
▁Berichts	-6245
▁relation	-6246
▁launch	-6247
!!	-6248
▁loss	-6249
▁conven	-6250
▁structure	-6251
▁instruments	-6252
orgt	-6253
▁Hung	-6254
freund	-6255
▁Anfrage	-6256
unk	-6257
▁gain	-6258
▁types	-6259
▁Wider	-6260
▁regel	-6261
▁Unternehmens	-6262
▁violence	-6263
▁Investitionen	-6264
▁4.	-6265
▁Tagesordnung	-6266
▁got	-6267
▁evalu	-6268
soft	-6269
▁gran	-6270
▁July	-6271
dienst	-6272
▁mem	-6273
▁Afghan	-6274
▁leider	-6275
▁benefits	-6276
iete	-6277
▁won	-6278
▁klein	-6279
▁berühm	-6280
uls	-6281
ivity	-6282
▁labour	-6283
▁geworden	-6284
bor	-6285
rats	-6286
25	-6287
▁distance	-6288
▁konnten	-6289
▁eingesetzt	-6290
▁Arbeitnehmer	-6291
▁statement	-6292
▁überw	-6293
forderung	-6294
▁She	-6295
▁film	-6296
▁depart	-6297
▁finally	-6298
▁Belg	-6299
mö	-6300
▁Hel	-6301
▁genommen	-6302
▁minor	-6303
▁Kur	-6304
ograf	-6305
▁base	-6306
▁brit	-6307
▁Ost	-6308
▁fell	-6309
▁Januar	-6310
▁Firma	-6311
▁eleg	-6312
▁Mult	-6313
works	-6314
▁benötigen	-6315
▁ihres	-6316
4,	-6317
▁mis	-6318
Office	-6319
▁Portugal	-6320
▁Neu	-6321
▁Grenzen	-6322
▁wine	-6323
▁Ta	-6324
▁highest	-6325
▁Je	-6326
anted	-6327
▁firm	-6328
öffnet	-6329
fordern	-6330
▁Empfehl	-6331
▁gefunden	-6332
▁mountain	-6333
▁Präsidenten	-6334
▁durchgeführt	-6335
▁Veränder	-6336
no	-6337
▁applied	-6338
▁interpre	-6339
▁Although	-6340
lichkeiten	-6341
▁bra	-6342
ought	-6343
ifik	-6344
orgung	-6345
ground	-6346
idge	-6347
▁Prinzip	-6348
▁parking	-6349
▁elements	-6350
▁grat	-6351
ato	-6352
▁gele	-6353
▁stock	-6354
▁Auto	-6355
▁gas	-6356
▁Systems	-6357
▁transparency	-6358
▁Sign	-6359
OT	-6360
wind	-6361
▁gre	-6362
▁wenige	-6363
▁consequences	-6364
▁observ	-6365
▁Tradition	-6366
▁immediately	-6367
▁Metho	-6368
▁Gal	-6369
▁unmittel	-6370
▁Schwier	-6371
▁edit	-6372
▁suchen	-6373
▁Meine	-6374
▁höher	-6375
urance	-6376
▁worth	-6377
▁comprehens	-6378
▁Cost	-6379
▁angesichts	-6380
ummer	-6381
▁Iraq	-6382
▁path	-6383
▁prefer	-6384
▁weder	-6385
▁aktuellen	-6386
cret	-6387
▁section	-6388
▁Gründen	-6389
▁niedr	-6390
▁zeit	-6391
▁Auftrag	-6392
▁Untersuch	-6393
▁Many	-6394
enew	-6395
▁payment	-6396
uche	-6397
▁1997	-6398
▁distribution	-6399
zwe	-6400
eks	-6401
▁Auffassung	-6402
▁Sinne	-6403
▁Centre	-6404
▁employees	-6405
leitet	-6406
wesen	-6407
▁useful	-6408
▁kennen	-6409
▁Java	-6410
house	-6411
zusch	-6412
▁integrated	-6413
ücken	-6414
▁ult	-6415
▁alternative	-6416
cture	-6417
ängen	-6418
▁west	-6419
▁geschaffen	-6420
▁emb	-6421
▁paid	-6422
omb	-6423
▁halte	-6424
▁Bulgar	-6425
▁perfe	-6426
▁zentr	-6427
▁Computer	-6428
▁reality	-6429
ört	-6430
zt	-6431
entur	-6432
▁drive	-6433
▁freund	-6434
▁hom	-6435
▁threat	-6436
ST	-6437
▁ign	-6438
teuer	-6439
▁eher	-6440
▁equal	-6441
▁lower	-6442
▁reading	-6443
▁europäischer	-6444
cription	-6445
▁University	-6446
▁Sache	-6447
▁Villa	-6448
▁helpful	-6449
▁wichtiger	-6450
▁consist	-6451
gy	-6452
▁kannst	-6453
Un	-6454
▁Beginn	-6455
▁constant	-6456
▁daily	-6457
▁unemp	-6458
ünstler	-6459
▁challenges	-6460
ieht	-6461
▁sonst	-6462
ufe	-6463
drücklich	-6464
äte	-6465
▁vorge	-6466
wortern	-6467
▁Ol	-6468
phone	-6469
▁Mobil	-6470
70	-6471
▁Flor	-6472
▁Free	-6473
▁poverty	-6474
▁select	-6475
▁Aufenthalt	-6476
zeichnung	-6477
▁diejenigen	-6478
▁cy	-6479
▁Projekte	-6480
▁Solidar	-6481
▁hinzu	-6482
orning	-6483
▁coast	-6484
▁Koh	-6485
mosphäre	-6486
▁Furthermore	-6487
▁Ereign	-6488
▁CO	-6489
▁phot	-6490
ammlung	-6491
▁ursprün	-6492
▁Nr	-6493
▁Inn	-6494
▁Your	-6495
▁undert	-6496
bezogen	-6497
▁Heute	-6498
▁Mann	-6499
▁Rede	-6500
▁saying	-6501
▁apartments	-6502
▁wissenschaft	-6503
zehn	-6504
elten	-6505
▁dein	-6506
▁analysis	-6507
ogle	-6508
▁Regeln	-6509
▁Gast	-6510
▁affect	-6511
▁emiss	-6512
▁Beteil	-6513
▁schl	-6514
▁verm	-6515
▁sieht	-6516
front	-6517
▁Are	-6518
▁entsprechenden	-6519
▁Aufgaben	-6520
ören	-6521
▁erneut	-6522
▁entsprechend	-6523
▁teach	-6524
aign	-6525
▁solidarity	-6526
▁round	-6527
▁überprü	-6528
▁offering	-6529
▁Innen	-6530
▁numerous	-6531
▁tim	-6532
▁elections	-6533
▁beyond	-6534
ral	-6535
▁occas	-6536
▁bad	-6537
▁Zentral	-6538
schließen	-6539
▁Lebensmittel	-6540
▁colleagues	-6541
▁veröffentlich	-6542
iker	-6543
▁beitragen	-6544
▁Armut	-6545
ione	-6546
▁Gott	-6547
▁Fällen	-6548
losen	-6549
▁Ven	-6550
▁bezüglich	-6551
ula	-6552
▁bem	-6553
sprozess	-6554
ares	-6555
▁goes	-6556
▁agenda	-6557
▁perman	-6558
▁Folge	-6559
▁drink	-6560
zuführen	-6561
▁begrüße	-6562
▁öffentliche	-6563
wser	-6564
▁persons	-6565
▁plant	-6566
sych	-6567
▁Term	-6568
▁zehn	-6569
head	-6570
afe	-6571
▁Kredit	-6572
▁bringt	-6573
▁happy	-6574
▁Vorsitz	-6575
▁offered	-6576
▁thought	-6577
park	-6578
Europ	-6579
▁Agrar	-6580
▁Nachbar	-6581
▁late	-6582
▁ziehen	-6583
achtung	-6584
izin	-6585
scheinlich	-6586
back	-6587
▁Änderung	-6588
▁sufficient	-6589
▁Gas	-6590
▁Präsidentschaft	-6591
sprü	-6592
▁van	-6593
▁Winter	-6594
fühl	-6595
▁Spezial	-6596
▁Bemühungen	-6597
▁conflict	-6598
anging	-6599
▁legit	-6600
▁Straßen	-6601
PS	-6602
▁Vertreter	-6603
▁ski	-6604
▁treffen	-6605
ordination	-6606
▁Mos	-6607
▁Bahn	-6608
▁crucial	-6609
ünde	-6610
▁hil	-6611
▁vergessen	-6612
▁Linie	-6613
▁erfahren	-6614
▁DVD	-6615
▁ideas	-6616
spricht	-6617
▁pal	-6618
hilfe	-6619
▁2,	-6620
leistung	-6621
vere	-6622
▁ban	-6623
folge	-6624
▁doubt	-6625
▁mut	-6626
▁übrigen	-6627
▁infrastru	-6628
▁practical	-6629
ded	-6630
iability	-6631
▁humanit	-6632
UR	-6633
▁Monaten	-6634
▁exception	-6635
▁verhindern	-6636
▁frequ	-6637
▁las	-6638
▁Mediterranean	-6639
▁kil	-6640
hesion	-6641
{{	-6642
▁Bedürf	-6643
engen	-6644
▁processes	-6645
▁kur	-6646
legation	-6647
obby	-6648
▁früher	-6649
▁Dritt	-6650
▁illegal	-6651
▁Security	-6652
▁Behandlung	-6653
▁tools	-6654
▁Wunsch	-6655
richten	-6656
▁langfrist	-6657
view	-6658
▁Test	-6659
rü	-6660
vors	-6661
ola	-6662
▁modified	-6663
▁krit	-6664
▁weeks	-6665
aktion	-6666
▁Sitzung	-6667
othe	-6668
iveau	-6669
wart	-6670
▁getan	-6671
▁reich	-6672
ya	-6673
ym	-6674
▁spirit	-6675
ye	-6676
▁Restaurants	-6677
▁Even	-6678
▁Ressourcen	-6679
▁growing	-6680
▁Völk	-6681
▁hear	-6682
▁buy	-6683
12	-6684
tellten	-6685
▁Palest	-6686
▁advantage	-6687
DF	-6688
▁Mer	-6689
▁tomor	-6690
▁curren	-6691
IA	-6692
craft	-6693
▁implemented	-6694
heben	-6695
▁präsent	-6696
▁clients	-6697
ücht	-6698
▁requires	-6699
▁Ba	-6700
▁Mc	-6701
▁Video	-6702
▁Directive	-6703
ifel	-6704
▁bedroom	-6705
▁tomorrow	-6706
fo	-6707
▁sales	-6708
üge	-6709
▁har	-6710
schlag	-6711
▁forces	-6712
▁anderem	-6713
▁organisations	-6714
▁ready	-6715
▁Las	-6716
based	-6717
▁weak	-6718
▁monitoring	-6719
▁minimum	-6720
▁Bürgern	-6721
angeb	-6722
▁spee	-6723
▁operating	-6724
hold	-6725
esellschaften	-6726
▁Cop	-6727
▁reference	-6728
▁unbe	-6729
▁historic	-6730
estic	-6731
▁Verl	-6732
▁Public	-6733
▁wr	-6734
▁hätten	-6735
▁starting	-6736
▁pie	-6737
▁secure	-6738
▁Ak	-6739
ocol	-6740
▁restr	-6741
▁Bot	-6742
▁recon	-6743
▁nimmt	-6744
▁shopping	-6745
▁lives	-6746
▁genannten	-6747
▁published	-6748
öße	-6749
▁Human	-6750
igation	-6751
pective	-6752
▁Amendment	-6753
ürger	-6754
▁gewesen	-6755
▁partnership	-6756
▁beant	-6757
▁renew	-6758
▁jüng	-6759
▁syn	-6760
▁lines	-6761
▁erfolgt	-6762
▁usw	-6763
▁ausreich	-6764
cia	-6765
▁Milliar	-6766
strumente	-6767
gewiesen	-6768
▁circum	-6769
▁ful	-6770
We	-6771
schö	-6772
▁Vergangen	-6773
▁fordern	-6774
▁Republik	-6775
▁technologies	-6776
▁Pet	-6777
▁paar	-6778
Die	-6779
▁urg	-6780
▁Inhalt	-6781
▁vorher	-6782
ischem	-6783
▁Tagen	-6784
▁waste	-6785
▁anti	-6786
▁initial	-6787
▁Werte	-6788
▁congratulate	-6789
▁End	-6790
▁Austria	-6791
▁relating	-6792
ulated	-6793
programm	-6794
▁behandelt	-6795
▁Gerichts	-6796
bin	-6797
▁ol	-6798
theless	-6799
ibe	-6800
vis	-6801
ilosoph	-6802
ungsver	-6803
irl	-6804
▁folgen	-6805
▁erfüllen	-6806
▁Grand	-6807
wün	-6808
hafte	-6809
▁sports	-6810
ado	-6811
19	-6812
nungen	-6813
▁morning	-6814
▁reduction	-6815
▁Erd	-6816
▁remov	-6817
▁server	-6818
▁Microsoft	-6819
alyse	-6820
▁sechs	-6821
▁Natürlich	-6822
▁Anstr	-6823
II	-6824
▁accordance	-6825
▁Initi	-6826
▁advert	-6827
▁Betrieb	-6828
▁machine	-6829
▁anything	-6830
▁meaning	-6831
▁ausgezeich	-6832
stitutional	-6833
▁uner	-6834
▁Mand	-6835
▁5.	-6836
icken	-6837
▁efficiency	-6838
▁maximum	-6839
▁John	-6840
▁Ess	-6841
zielle	-6842
▁options	-6843
▁Erfahrungen	-6844
▁Bürgerinnen	-6845
▁offiz	-6846
lim	-6847
ategie	-6848
atterin	-6849
▁mü	-6850
▁warum	-6851
▁Hal	-6852
▁Mass	-6853
▁Atmosphäre	-6854
▁Gef	-6855
▁stimmen	-6856
▁Protokoll	-6857
▁Green	-6858
▁begin	-6859
▁counter	-6860
▁Minder	-6861
▁Aller	-6862
bas	-6863
▁194	-6864
▁sämt	-6865
▁comprehensive	-6866
}}	-6867
cape	-6868
▁Gest	-6869
gruppe	-6870
▁erklärt	-6871
▁Dav	-6872
▁pain	-6873
▁caused	-6874
▁überhaupt	-6875
utive	-6876
▁Herz	-6877
schreit	-6878
▁betreff	-6879
atform	-6880
▁While	-6881
ret	-6882
änge	-6883
▁Aspekte	-6884
legten	-6885
▁Beruf	-6886
▁sometimes	-6887
▁sav	-6888
▁Altern	-6889
▁Kn	-6890
▁versucht	-6891
▁ones	-6892
▁Menschenrechts	-6893
▁Stock	-6894
▁rapid	-6895
▁Val	-6896
▁mensch	-6897
▁gerecht	-6898
▁35	-6899
pack	-6900
▁welches	-6901
▁TH	-6902
▁Technologie	-6903
itation	-6904
▁Verteid	-6905
SS	-6906
▁critic	-6907
▁languages	-6908
▁PH	-6909
book	-6910
▁extent	-6911
standing	-6912
karte	-6913
altungen	-6914
▁street	-6915
▁Vergangenheit	-6916
▁Opfer	-6917
▁günst	-6918
▁Cal	-6919
▁les	-6920
▁campaign	-6921
▁pictures	-6922
zy	-6923
▁began	-6924
▁besondere	-6925
▁Nacht	-6926
▁größer	-6927
ichern	-6928
▁Praxis	-6929
▁Gebäude	-6930
▁Spieler	-6931
board	-6932
▁mitt	-6933
frastruktur	-6934
▁unbed	-6935
▁Dat	-6936
▁Forschungs	-6937
▁chance	-6938
15	-6939
▁Ac	-6940
▁ded	-6941
▁Bu	-6942
itch	-6943
izes	-6944
▁hor	-6945
▁wanted	-6946
▁jen	-6947
▁Lassen	-6948
▁reflect	-6949
▁Finanzierung	-6950
pool	-6951
▁scientific	-6952
▁cast	-6953
▁tourist	-6954
▁11.	-6955
▁Center	-6956
▁games	-6957
▁methods	-6958
▁swimming	-6959
ichert	-6960
▁Lang	-6961
▁wählen	-6962
▁Terrorismus	-6963
▁berücksichtigt	-6964
ius	-6965
▁Id	-6966
▁jeweiligen	-6967
ällt	-6968
zeiten	-6969
▁verpflichtet	-6970
LA	-6971
▁bur	-6972
▁sal	-6973
sc	-6974
▁terrorism	-6975
iding	-6976
izing	-6977
▁probably	-6978
▁interested	-6979
▁Download	-6980
▁email	-6981
▁Eas	-6982
ifically	-6983
▁verkauf	-6984
▁charm	-6985
▁sectors	-6986
▁challenge	-6987
▁players	-6988
):	-6989
mus	-6990
fläche	-6991
enh	-6992
▁historischen	-6993
▁eingeb	-6994
▁größte	-6995
▁zahlreichen	-6996
▁Gel	-6997
ichtlich	-6998
▁Spanien	-6999
▁farmers	-7000
▁außerhalb	-7001
▁staat	-7002
▁candid	-7003
▁voting	-7004
▁release	-7005
izienz	-7006
▁Del	-7007
▁arrange	-7008
▁border	-7009
▁worldwide	-7010
▁symbol	-7011
trächt	-7012
wel	-7013
▁Schritte	-7014
enk	-7015
ktive	-7016
▁ehem	-7017
▁transparent	-7018
oon	-7019
▁apprec	-7020
▁Waren	-7021
▁respond	-7022
CO	-7023
▁seines	-7024
▁Conference	-7025
grenz	-7026
▁Zivil	-7027
losigkeit	-7028
▁lands	-7029
▁schützen	-7030
▁stets	-7031
▁Est	-7032
▁visitors	-7033
▁wach	-7034
▁Viele	-7035
▁Rats	-7036
▁Zweitens	-7037
ämpfen	-7038
▁valid	-7039
▁export	-7040
IV	-7041
”.	-7042
sam	-7043
SP	-7044
▁Tem	-7045
▁Start	-7046
lose	-7047
▁Fäh	-7048
▁richtige	-7049
▁einheit	-7050
▁accepted	-7051
▁zumindest	-7052
▁Chinese	-7053
▁Gene	-7054
iell	-7055
▁selection	-7056
▁Firmen	-7057
▁).	-7058
▁vollständig	-7059
meer	-7060
reland	-7061
▁verab	-7062
fence	-7063
▁rele	-7064
▁adopt	-7065
▁Gran	-7066
▁heutigen	-7067
▁Hoff	-7068
▁Play	-7069
▁Bal	-7070
▁Hil	-7071
zul	-7072
hers	-7073
▁motor	-7074
▁persönlichen	-7075
▁bald	-7076
abkommen	-7077
▁Swiss	-7078
▁expert	-7079
▁Airport	-7080
itten	-7081
▁lost	-7082
▁exerc	-7083
▁genu	-7084
▁coup	-7085
hilfen	-7086
ais	-7087
▁powers	-7088
ränkt	-7089
▁Berat	-7090
▁ausschließlich	-7091
▁fine	-7092
▁images	-7093
▁separate	-7094
▁Hy	-7095
▁Doppel	-7096
▁cert	-7097
vollen	-7098
verage	-7099
▁kam	-7100
anda	-7101
iant	-7102
▁Dazu	-7103
ids	-7104
▁Google	-7105
23	-7106
▁genug	-7107
▁befür	-7108
8,	-7109
▁Dann	-7110
▁Einrichtung	-7111
icket	-7112
kom	-7113
▁Ihres	-7114
▁modernen	-7115
▁businesses	-7116
▁gemein	-7117
akte	-7118
▁upd	-7119
▁walking	-7120
▁glo	-7121
▁decor	-7122
enze	-7123
aters	-7124
oke	-7125
▁Angelegenheit	-7126
▁UK	-7127
künft	-7128
▁Parteien	-7129
▁Vergleich	-7130
▁erlaubt	-7131
▁substant	-7132
▁influence	-7133
▁tät	-7134
▁raised	-7135
▁verantwortlich	-7136
▁Ireland	-7137
▁demands	-7138
▁Vertrauen	-7139
konom	-7140
▁folgt	-7141
rem	-7142
poses	-7143
▁lies	-7144
▁SM	-7145
▁NAT	-7146
werte	-7147
▁Garten	-7148
▁anders	-7149
▁honour	-7150
▁club	-7151
Pr	-7152
tere	-7153
▁unten	-7154
',	-7155
tempt	-7156
hältnis	-7157
▁stärker	-7158
hotel	-7159
▁listen	-7160
▁AC	-7161
quem	-7162
//	-7163
sätze	-7164
▁Liberal	-7165
▁Drit	-7166
▁Voll	-7167
▁trying	-7168
ga	-7169
▁effiz	-7170
▁übernehmen	-7171
anc	-7172
/0	-7173
chtet	-7174
▁Chance	-7175
used	-7176
▁blo	-7177
ologie	-7178
▁prü	-7179
▁komp	-7180
▁folgenden	-7181
urb	-7182
▁Nun	-7183
▁elegant	-7184
▁Secondly	-7185
▁erwartet	-7186
QL	-7187
affe	-7188
erkennung	-7189
▁Allerdings	-7190
▁bill	-7191
atalog	-7192
▁Sam	-7193
figur	-7194
▁Schwierigkeiten	-7195
▁Frankf	-7196
barer	-7197
▁evening	-7198
mel	-7199
▁Annahme	-7200
▁Afghanistan	-7201
▁26	-7202
▁fields	-7203
▁deutschen	-7204
▁remember	-7205
▁representatives	-7206
last	-7207
▁enorm	-7208
▁competit	-7209
▁Tor	-7210
▁claim	-7211
▁manufactur	-7212
raten	-7213
▁worked	-7214
▁ris	-7215
▁Prozent	-7216
nungs	-7217
▁Prem	-7218
▁absolutely	-7219
▁bessere	-7220
gült	-7221
▁menu	-7222
▁season	-7223
gehend	-7224
▁Einige	-7225
▁Arbeitsplätze	-7226
▁technischen	-7227
▁sil	-7228
▁Islam	-7229
▁trip	-7230
▁kitchen	-7231
▁erinnern	-7232
amin	-7233
▁strategic	-7234
▁allgemeinen	-7235
▁Mess	-7236
lemente	-7237
bit	-7238
▁Stellen	-7239
▁wrong	-7240
▁Tier	-7241
▁anerk	-7242
▁Österreich	-7243
▁proceed	-7244
▁yourself	-7245
▁Regierungs	-7246
handel	-7247
▁jähr	-7248
▁Gold	-7249
gesetz	-7250
▁bitten	-7251
▁despite	-7252
▁getroffen	-7253
▁Angelegenheiten	-7254
▁Agre	-7255
▁insp	-7256
ätzlich	-7257
▁fant	-7258
rieb	-7259
▁spezif	-7260
▁Moreover	-7261
▁Modell	-7262
▁italien	-7263
▁overall	-7264
▁Produktions	-7265
▁zukünft	-7266
▁verurs	-7267
▁Hinsicht	-7268
▁Generation	-7269
▁accession	-7270
▁annual	-7271
▁initiatives	-7272
▁cell	-7273
▁offens	-7274
▁Landwir	-7275
▁crimin	-7276
▁vertra	-7277
▁changed	-7278
▁Sü	-7279
▁negative	-7280
▁Einwander	-7281
▁falls	-7282
▁Pla	-7283
▁Sonder	-7284
how	-7285
▁zweit	-7286
tert	-7287
▁terrace	-7288
▁slow	-7289
zulegen	-7290
▁plans	-7291
▁vital	-7292
▁calls	-7293
▁namely	-7294
abr	-7295
▁Solidarität	-7296
uses	-7297
ión	-7298
▁fire	-7299
▁heav	-7300
▁angemessen	-7301
▁Eigent	-7302
▁Sen	-7303
▁borders	-7304
inens	-7305
▁Supp	-7306
▁lay	-7307
▁dipl	-7308
▁Kapital	-7309
ollar	-7310
ulations	-7311
▁love	-7312
▁darstellt	-7313
zusetzen	-7314
bum	-7315
▁länd	-7316
las	-7317
indungen	-7318
▁Ang	-7319
▁angeboten	-7320
isely	-7321
▁Ausgang	-7322
sprechen	-7323
▁affe	-7324
▁Prä	-7325
▁Only	-7326
mand	-7327
ighted	-7328
iertel	-7329
▁track	-7330
▁gesetz	-7331
zeichen	-7332
▁News	-7333
▁award	-7334
▁Ord	-7335
eignet	-7336
▁Slo	-7337
ildet	-7338
▁ehemal	-7339
▁Russian	-7340
engungen	-7341
▁Wissenschaft	-7342
▁cas	-7343
▁Flex	-7344
▁bir	-7345
▁gek	-7346
5-0	-7347
▁goal	-7348
▁natür	-7349
▁dringend	-7350
▁Wo	-7351
ielt	-7352
▁Anges	-7353
▁innovation	-7354
▁tal	-7355
ördert	-7356
▁banks	-7357
▁restrict	-7358
vorsitz	-7359
▁Roma	-7360
▁endlich	-7361
wes	-7362
aries	-7363
▁Trotz	-7364
▁verme	-7365
nel	-7366
▁heard	-7367
▁player	-7368
▁privaten	-7369
▁bilden	-7370
▁Mün	-7371
Hotel	-7372
krise	-7373
ziert	-7374
immern	-7375
▁Verfassung	-7376
▁Son	-7377
▁beide	-7378
gruppen	-7379
▁zudem	-7380
▁element	-7381
▁gesehen	-7382
▁Verwaltung	-7383
▁Antrag	-7384
▁running	-7385
▁processing	-7386
EG	-7387
▁sinn	-7388
▁wiederhol	-7389
▁datab	-7390
▁Cy	-7391
ystemen	-7392
▁Konzept	-7393
lymp	-7394
▁simpl	-7395
▁target	-7396
▁planning	-7397
▁Soll	-7398
▁flexible	-7399
itzt	-7400
▁hot	-7401
rogen	-7402
▁Acht	-7403
▁beginnen	-7404
▁Falls	-7405
star	-7406
▁Erk	-7407
auern	-7408
▁fear	-7409
▁150	-7410
▁Einfluss	-7411
▁discrimin	-7412
itts	-7413
▁committed	-7414
wan	-7415
▁Glaub	-7416
IF	-7417
▁Leute	-7418
▁increasingly	-7419
▁Eind	-7420
▁Its	-7421
▁jun	-7422
▁cities	-7423
agraph	-7424
bringen	-7425
▁eindeutig	-7426
▁People	-7427
▁bestimmt	-7428
▁intended	-7429
▁spect	-7430
▁setzt	-7431
▁Milliarden	-7432
▁God	-7433
▁Tätigkeit	-7434
13	-7435
ibly	-7436
grams	-7437
▁automatisch	-7438
▁Verpflichtungen	-7439
glied	-7440
▁NATO	-7441
▁irgend	-7442
▁expressed	-7443
für	-7444
ita	-7445
▁deine	-7446
▁placed	-7447
gere	-7448
▁anc	-7449
▁bemü	-7450
▁begrüßen	-7451
reise	-7452
▁Heim	-7453
▁traffic	-7454
kaufs	-7455
▁Tal	-7456
▁Obwohl	-7457
▁ability	-7458
▁dan	-7459
ustausch	-7460
▁Nations	-7461
▁students	-7462
▁Ausschuß	-7463
bü	-7464
▁concentr	-7465
▁Mitte	-7466
▁letzte	-7467
▁approved	-7468
▁Hostels	-7469
▁talking	-7470
ories	-7471
▁feature	-7472
▁reag	-7473
▁angene	-7474
Le	-7475
idelines	-7476
▁Mex	-7477
▁Hause	-7478
▁zusätzliche	-7479
1)	-7480
▁mainly	-7481
ruit	-7482
▁größere	-7483
▁families	-7484
ifizierung	-7485
▁Krank	-7486
▁benutzt	-7487
▁entgegen	-7488
▁jem	-7489
▁Zustimmung	-7490
ples	-7491
iente	-7492
▁remind	-7493
hood	-7494
uly	-7495
ils	-7496
▁opening	-7497
▁Verhalten	-7498
pliz	-7499
▁195	-7500
▁Falle	-7501
“.	-7502
▁decide	-7503
▁;	-7504
▁AL	-7505
itory	-7506
▁conclusion	-7507
▁Erstens	-7508
tritt	-7509
▁improved	-7510
▁occup	-7511
angs	-7512
hrte	-7513
▁brand	-7514
ION	-7515
▁rom	-7516
cluded	-7517
8.	-7518
▁circumstances	-7519
stoffe	-7520
▁cohesion	-7521
▁Cr	-7522
▁tit	-7523
▁Bur	-7524
system	-7525
▁fresh	-7526
▁comments	-7527
quate	-7528
▁Kauf	-7529
ores	-7530
▁box	-7531
zeigen	-7532
▁belieb	-7533
▁collection	-7534
-2	-7535
▁Gesamt	-7536
▁IP	-7537
▁photo	-7538
▁länger	-7539
▁Kompromiss	-7540
▁kaum	-7541
▁eingehen	-7542
▁administration	-7543
di	-7544
▁currency	-7545
▁Bi	-7546
▁whom	-7547
▁feed	-7548
▁Amb	-7549
▁fas	-7550
9,	-7551
orea	-7552
▁überzeugt	-7553
▁unemployment	-7554
▁administrative	-7555
▁Bade	-7556
▁occur	-7557
bad	-7558
▁Anstrengungen	-7559
ses	-7560
reiber	-7561
zech	-7562
▁ethn	-7563
▁Georg	-7564
acc	-7565
▁Besonder	-7566
://	-7567
bourg	-7568
etten	-7569
ifying	-7570
▁bezahl	-7571
▁suitable	-7572
▁autom	-7573
▁hol	-7574
▁gesetzt	-7575
▁Bon	-7576
▁ersch	-7577
wenden	-7578
endence	-7579
▁emissions	-7580
▁kürz	-7581
▁coordin	-7582
▁Dub	-7583
ray	-7584
▁Rh	-7585
gers	-7586
enty	-7587
▁reforms	-7588
▁Qualitäts	-7589
aming	-7590
▁"...	-7591
▁laws	-7592
▁bege	-7593
▁Alp	-7594
▁Grie	-7595
▁Freiz	-7596
ückt	-7597
▁alone	-7598
▁entspricht	-7599
set	-7600
▁Öl	-7601
▁1990	-7602
▁structural	-7603
▁Schwer	-7604
▁victims	-7605
▁entschieden	-7606
iler	-7607
gebiet	-7608
▁touch	-7609
▁encourage	-7610
▁provision	-7611
▁mill	-7612
▁inn	-7613
verläss	-7614
▁erkennen	-7615
▁extensive	-7616
▁Anerkennung	-7617
▁gegr	-7618
▁justice	-7619
▁affected	-7620
aschine	-7621
▁berücksichtigen	-7622
”,	-7623
▁Dre	-7624
▁regime	-7625
▁Idee	-7626
▁contribute	-7627
Al	-7628
▁oben	-7629
▁attempt	-7630
zentrum	-7631
ev	-7632
ago	-7633
▁Elekt	-7634
▁cos	-7635
▁Boden	-7636
▁Haft	-7637
▁supports	-7638
▁genannt	-7639
▁Kriterien	-7640
▁entstehen	-7641
▁komfort	-7642
▁zufrieden	-7643
▁Überwach	-7644
▁priorities	-7645
▁Durchführung	-7646
▁Vereinbarung	-7647
elte	-7648
▁automatically	-7649
▁Immobil	-7650
▁confirm	-7651
▁reduced	-7652
▁Wann	-7653
▁Körper	-7654
igran	-7655
9.	-7656
▁Ra	-7657
iums	-7658
▁gere	-7659
▁Costa	-7660
odies	-7661
▁phone	-7662
entwicklung	-7663
▁confidence	-7664
▁rise	-7665
artigen	-7666
▁elektron	-7667
▁genutzt	-7668
▁Holz	-7669
▁Ausbildung	-7670
▁Kommunikation	-7671
ästinens	-7672
▁Nachfol	-7673
▁4-	-7674
daten	-7675
▁effectively	-7676
rel	-7677
struktur	-7678
ham	-7679
inian	-7680
▁unbedingt	-7681
▁Sing	-7682
▁po	-7683
▁extend	-7684
▁Autom	-7685
▁stabil	-7686
▁infrastructure	-7687
▁Sprachen	-7688
ändigen	-7689
▁Organisationen	-7690
▁moderne	-7691
▁Vorteile	-7692
AG	-7693
7,	-7694
▁Cre	-7695
▁Spr	-7696
▁manner	-7697
▁nachdem	-7698
▁vorgelegt	-7699
▁specifically	-7700
▁aimed	-7701
▁anz	-7702
▁Wahlen	-7703
TV	-7704
gewöhn	-7705
▁powerful	-7706
ras	-7707
▁Any	-7708
ündung	-7709
▁Bestand	-7710
▁mindestens	-7711
▁His	-7712
▁ship	-7713
▁aktuelle	-7714
▁delivery	-7715
▁speziell	-7716
▁participation	-7717
aktiv	-7718
▁umfang	-7719
▁repla	-7720
▁entsprechende	-7721
▁plus	-7722
▁electronic	-7723
▁fellow	-7724
gerungen	-7725
ongs	-7726
▁Besucher	-7727
▁says	-7728
▁medic	-7729
omet	-7730
▁played	-7731
▁Enterprise	-7732
▁Ev	-7733
alled	-7734
▁Einsch	-7735
▁angegeben	-7736
▁auszu	-7737
▁Agreement	-7738
▁Sea	-7739
laufen	-7740
esearch	-7741
▁quant	-7742
▁scope	-7743
▁vorsch	-7744
▁erreich	-7745
ickets	-7746
▁detailed	-7747
▁Osten	-7748
▁Garant	-7749
▁Et	-7750
▁Partei	-7751
zeichnen	-7752
▁gezeigt	-7753
▁serve	-7754
▁Licht	-7755
▁Schaden	-7756
▁herz	-7757
▁intell	-7758
▁erwähnt	-7759
▁wesentlich	-7760
azz	-7761
äden	-7762
führer	-7763
aria	-7764
my	-7765
▁unterb	-7766
▁wert	-7767
▁Bemerk	-7768
▁Policy	-7769
▁referred	-7770
attle	-7771
▁Each	-7772
▁white	-7773
▁verfügbar	-7774
▁voraus	-7775
▁sources	-7776
iano	-7777
haften	-7778
▁animals	-7779
▁Bran	-7780
▁Archite	-7781
fun	-7782
▁Nah	-7783
▁Liber	-7784
▁gesprochen	-7785
▁besonderen	-7786
ault	-7787
▁hochwert	-7788
▁Mitteilung	-7789
▁Ann	-7790
▁Nahr	-7791
▁ensuring	-7792
öm	-7793
▁danke	-7794
▁agriculture	-7795
letter	-7796
▁Mio	-7797
fälle	-7798
▁exactly	-7799
án	-7800
ideos	-7801
▁herunter	-7802
▁platform	-7803
▁Stabilität	-7804
▁mehreren	-7805
▁Abschluss	-7806
▁purposes	-7807
ingu	-7808
idents	-7809
▁black	-7810
▁larger	-7811
▁euch	-7812
▁Waffen	-7813
fiz	-7814
▁Anspruch	-7815
▁mm	-7816
▁Czech	-7817
▁crime	-7818
▁Ern	-7819
lying	-7820
▁getting	-7821
itzerland	-7822
▁mid	-7823
▁fert	-7824
▁Ander	-7825
▁Koordin	-7826
▁Bew	-7827
▁Paul	-7828
▁bewusst	-7829
ampag	-7830
▁2020	-7831
jected	-7832
▁erzielt	-7833
▁hinweisen	-7834
▁akzeptieren	-7835
▁beschlossen	-7836
▁tabled	-7837
▁nöt	-7838
▁church	-7839
▁Homepage	-7840
▁Ident	-7841
▁Indeed	-7842
endet	-7843
▁prem	-7844
▁installation	-7845
▁poll	-7846
spunkt	-7847
▁camera	-7848
▁functions	-7849
arus	-7850
mack	-7851
▁Hintergrund	-7852
▁Tab	-7853
▁verz	-7854
▁Mensch	-7855
▁motion	-7856
▁glauben	-7857
▁demokratischen	-7858
uts	-7859
▁Serb	-7860
▁Tele	-7861
▁hund	-7862
▁Reformen	-7863
▁..	-7864
▁usually	-7865
▁summit	-7866
▁followed	-7867
▁protected	-7868
▁introduced	-7869
▁wants	-7870
▁client	-7871
▁Verfass	-7872
afft	-7873
▁becoming	-7874
mon	-7875
▁domin	-7876
fahrens	-7877
anlagen	-7878
▁institutional	-7879
udem	-7880
▁Olymp	-7881
▁reception	-7882
▁watch	-7883
▁Agenda	-7884
law	-7885
▁Glück	-7886
iat	-7887
▁vac	-7888
▁entw	-7889
enhagen	-7890
▁militär	-7891
▁nationale	-7892
▁Lab	-7893
▁Inhalte	-7894
izenz	-7895
oted	-7896
▁India	-7897
▁angesprochen	-7898
▁Zwischen	-7899
▁precisely	-7900
▁Schlaf	-7901
benen	-7902
▁stated	-7903
▁harm	-7904
called	-7905
▁mil	-7906
▁otherwise	-7907
▁ec	-7908
▁(3	-7909
▁ed	-7910
▁rural	-7911
schuld	-7912
wirken	-7913
▁Zunächst	-7914
jo	-7915
▁facilit	-7916
▁Asia	-7917
▁screen	-7918
▁likely	-7919
idential	-7920
▁zentral	-7921
▁IM	-7922
▁Card	-7923
hle	-7924
▁Regional	-7925
▁geeignet	-7926
▁Umst	-7927
▁served	-7928
▁Komfort	-7929
▁Innovation	-7930
▁Währung	-7931
▁Zeichen	-7932
time	-7933
▁expens	-7934
▁kontroll	-7935
▁wonderful	-7936
ael	-7937
▁budgetary	-7938
CD	-7939
▁trä	-7940
▁sort	-7941
quality	-7942
▁sitting	-7943
▁Eff	-7944
▁Sand	-7945
▁mand	-7946
▁Board	-7947
▁wahrscheinlich	-7948
▁sicherzustellen	-7949
rans	-7950
▁jene	-7951
▁sold	-7952
▁pleasant	-7953
▁Beitritts	-7954
▁dedic	-7955
▁Abs	-7956
▁Power	-7957
umin	-7958
▁Fakt	-7959
▁winter	-7960
▁Irak	-7961
▁Zudem	-7962
▁luxur	-7963
▁February	-7964
▁notwendigen	-7965
gree	-7966
▁Luxem	-7967
▁temper	-7968
▁möglicherweise	-7969
laus	-7970
▁Haltung	-7971
▁managed	-7972
▁Wellness	-7973
avi	-7974
äher	-7975
▁chann	-7976
▁programs	-7977
▁bestehenden	-7978
ING	-7979
▁Fot	-7980
▁Som	-7981
▁Arab	-7982
▁risks	-7983
Sh	-7984
agegen	-7985
▁Roman	-7986
▁Vorbereit	-7987
do	-7988
amber	-7989
▁Reserv	-7990
▁globalen	-7991
▁discussed	-7992
brit	-7993
▁Sektor	-7994
▁ehr	-7995
▁According	-7996
24	-7997
▁Most	-7998
▁Great	-7999
▁entry	-8000
▁Ausgaben	-8001
▁provider	-8002
sm	-8003
▁Cast	-8004
atively	-8005
▁Exp	-8006
▁Wik	-8007
▁conver	-8008
▁eingerichtet	-8009
▁Griechen	-8010
▁developments	-8011
▁convin	-8012
▁finanziellen	-8013
ida	-8014
▁Us	-8015
zieht	-8016
▁Aufnahme	-8017
oom	-8018
ounge	-8019
PT	-8020
▁Middle	-8021
bu	-8022
▁AN	-8023
▁Dol	-8024
▁Salz	-8025
▁covered	-8026
Ch	-8027
ureau	-8028
▁Assoc	-8029
▁police	-8030
amente	-8031
▁vermeiden	-8032
▁Prote	-8033
▁Funktionen	-8034
rip	-8035
üste	-8036
▁Geh	-8037
▁expected	-8038
▁?	-8039
▁corresp	-8040
▁introduction	-8041
▁competen	-8042
▁Motor	-8043
esents	-8044
ibilität	-8045
▁closely	-8046
▁festgelegt	-8047
▁mix	-8048
unkten	-8049
▁expand	-8050
▁thousands	-8051
▁Ap	-8052
▁freuen	-8053
wegung	-8054
▁Fischerei	-8055
▁Schließlich	-8056
▁Industr	-8057
▁Kind	-8058
▁ries	-8059
▁Technologien	-8060
▁discussions	-8061
IR	-8062
▁Then	-8063
▁forget	-8064
▁anderes	-8065
▁Schlüssel	-8066
uit	-8067
▁bequem	-8068
▁Frankfurt	-8069
▁weap	-8070
▁Nutzen	-8071
IG	-8072
icks	-8073
▁benutzen	-8074
▁auth	-8075
7.	-8076
▁ausgew	-8077
▁competitive	-8078
▁rechts	-8079
▁dead	-8080
▁earlier	-8081
▁remark	-8082
aste	-8083
▁Other	-8084
▁erfüllt	-8085
ologischen	-8086
ulierung	-8087
▁critical	-8088
categories	-8089
ield	-8090
▁actual	-8091
▁represents	-8092
▁6.	-8093
werke	-8094
▁spread	-8095
▁Haushalt	-8096
posed	-8097
▁Konflikt	-8098
▁wood	-8099
▁compl	-8100
▁Unterkategorien	-8101
▁ergreifen	-8102
▁zuletzt	-8103
DP	-8104
**	-8105
äuser	-8106
▁dienen	-8107
ora	-8108
▁fahren	-8109
band	-8110
▁uses	-8111
▁guidelines	-8112
▁einzus	-8113
▁gleiche	-8114
▁400	-8115
▁prüfen	-8116
▁ged	-8117
▁centr	-8118
▁Research	-8119
▁wünschen	-8120
uber	-8121
▁Economic	-8122
uisine	-8123
▁inside	-8124
▁listed	-8125
chnologie	-8126
▁graph	-8127
▁Kenntnis	-8128
mas	-8129
▁Karte	-8130
ücke	-8131
▁ade	-8132
▁Dateien	-8133
wirk	-8134
▁scen	-8135
ailing	-8136
▁Haup	-8137
▁went	-8138
either	-8139
mod	-8140
▁freien	-8141
▁enterprises	-8142
ungsantrag	-8143
▁exclusive	-8144
präsident	-8145
wasser	-8146
▁paper	-8147
▁Richtlinien	-8148
▁Code	-8149
schiede	-8150
▁öffentlich	-8151
▁Fle	-8152
werten	-8153
▁trust	-8154
ulieren	-8155
▁spacious	-8156
▁assessment	-8157
▁Sinn	-8158
imb	-8159
▁Ja	-8160
▁Why	-8161
▁zug	-8162
▁hoffen	-8163
▁defend	-8164
stieg	-8165
freiheit	-8166
▁explo	-8167
▁electric	-8168
▁buildings	-8169
90	-8170
▁unters	-8171
▁understanding	-8172
▁comment	-8173
▁45	-8174
▁Bush	-8175
achtet	-8176
uropa	-8177
▁Schengen	-8178
▁geändert	-8179
▁Tun	-8180
▁htt	-8181
▁Switzerland	-8182
levision	-8183
denken	-8184
▁Suche	-8185
atik	-8186
▁einzu	-8187
▁multil	-8188
aves	-8189
roh	-8190
lebr	-8191
britann	-8192
▁Anpass	-8193
rum	-8194
▁unc	-8195
▁Schiff	-8196
▁ausger	-8197
▁territor	-8198
▁medical	-8199
▁schwierig	-8200
▁umgesetzt	-8201
▁jederzeit	-8202
▁Pack	-8203
▁selected	-8204
▁Straße	-8205
▁disapp	-8206
▁Turk	-8207
▁debt	-8208
▁votes	-8209
cause	-8210
olden	-8211
▁Click	-8212
▁Arten	-8213
▁Monate	-8214
inu	-8215
▁Found	-8216
▁süd	-8217
▁Rooms	-8218
▁Produkten	-8219
ensions	-8220
▁impress	-8221
cers	-8222
gets	-8223
▁networks	-8224
kap	-8225
möglich	-8226
▁metres	-8227
▁Av	-8228
ente	-8229
▁lösen	-8230
▁effizient	-8231
16	-8232
▁operations	-8233
asts	-8234
uard	-8235
iques	-8236
prüfung	-8237
▁telephone	-8238
▁Rein	-8239
▁improving	-8240
▁Tar	-8241
▁gelangen	-8242
▁Stil	-8243
ishing	-8244
crete	-8245
rahmen	-8246
▁ergän	-8247
▁radio	-8248
▁degree	-8249
▁linked	-8250
▁Lib	-8251
▁prä	-8252
▁Klein	-8253
▁color	-8254
▁Moment	-8255
▁format	-8256
▁Meter	-8257
ua	-8258
▁dealing	-8259
TA	-8260
ads	-8261
▁empfehl	-8262
▁photograph	-8263
▁Installation	-8264
▁properly	-8265
fu	-8266
▁fallen	-8267
▁Apartments	-8268
zieren	-8269
▁jeweils	-8270
▁acqu	-8271
union	-8272
▁Prov	-8273
▁Milit	-8274
konferenz	-8275
nach	-8276
▁playing	-8277
▁immigration	-8278
▁substantial	-8279
▁abst	-8280
gencies	-8281
▁speech	-8282
onym	-8283
atoren	-8284
bruch	-8285
▁Sehens	-8286
▁supporting	-8287
▁sole	-8288
vements	-8289
▁multip	-8290
reiten	-8291
▁sicherlich	-8292
▁save	-8293
▁braucht	-8294
▁darunter	-8295
▁entirely	-8296
▁Barro	-8297
▁hands	-8298
▁frag	-8299
ktiven	-8300
▁beziehen	-8301
etze	-8302
▁opened	-8303
▁Station	-8304
▁Telefon	-8305
▁brief	-8306
▁gemüt	-8307
▁Standards	-8308
▁entit	-8309
sta	-8310
▁Greece	-8311
▁Grundsatz	-8312
chmal	-8313
▁gern	-8314
▁gewün	-8315
▁Wege	-8316
▁beds	-8317
▁gave	-8318
▁stattfinden	-8319
▁Ky	-8320
scher	-8321
▁convenient	-8322
▁entweder	-8323
▁Wirk	-8324
▁Zweck	-8325
▁coordination	-8326
▁Street	-8327
▁components	-8328
het	-8329
▁presence	-8330
▁Vereinten	-8331
inc	-8332
istrib	-8333
Sp	-8334
dis	-8335
▁erhöhen	-8336
▁accomp	-8337
clude	-8338
jekten	-8339
▁dramat	-8340
ikanische	-8341
sper	-8342
▁bott	-8343
▁incor	-8344
▁lesen	-8345
▁Charakter	-8346
▁Einrichtungen	-8347
istence	-8348
leitung	-8349
gebaut	-8350
kunfts	-8351
▁compens	-8352
▁stärk	-8353
▁Pakistan	-8354
▁kostenlos	-8355
ee	-8356
▁ging	-8357
▁destro	-8358
▁Netzwerk	-8359
▁verbessert	-8360
IE	-8361
▁erzielen	-8362
▁Status	-8363
▁Februar	-8364
▁Vielfalt	-8365
2-	-8366
can	-8367
▁Frem	-8368
▁zuvor	-8369
▁Stimme	-8370
▁übernachten	-8371
▁moral	-8372
▁untern	-8373
▁7.	-8374
lad	-8375
▁Phil	-8376
punkte	-8377
▁--	-8378
▁considerable	-8379
edia	-8380
▁sho	-8381
▁Top	-8382
gal	-8383
▁Menge	-8384
▁wären	-8385
▁generally	-8386
▁compar	-8387
▁abzu	-8388
▁Büro	-8389
▁founded	-8390
▁map	-8391
▁coffe	-8392
▁Infrastruktur	-8393
aw	-8394
▁animal	-8395
▁Name	-8396
▁verur	-8397
▁elimin	-8398
▁komplex	-8399
maß	-8400
▁ISO	-8401
▁lernen	-8402
▁http	-8403
▁psych	-8404
▁Fischere	-8405
▁chines	-8406
itors	-8407
▁nieder	-8408
▁strict	-8409
ADS	-8410
▁iP	-8411
▁willing	-8412
▁angezeigt	-8413
▁presidency	-8414
preis	-8415
gemeine	-8416
▁Großbritann	-8417
▁Break	-8418
▁wollte	-8419
▁tourism	-8420
itze	-8421
uting	-8422
▁technische	-8423
ura	-8424
▁cuisine	-8425
▁ausdrücklich	-8426
▁Absatz	-8427
▁duty	-8428
▁tempor	-8429
erstellen	-8430
▁besuchen	-8431
▁peaceful	-8432
▁PHP	-8433
▁Prag	-8434
▁items	-8435
18	-8436
räft	-8437
ussels	-8438
▁gekommen	-8439
▁Lehr	-8440
▁refuge	-8441
▁authority	-8442
füll	-8443
stelle	-8444
▁Never	-8445
▁Klimawand	-8446
▁Veränderungen	-8447
schlossen	-8448
igem	-8449
▁betonen	-8450
▁difficulties	-8451
▁purchase	-8452
ometer	-8453
ossible	-8454
▁welcher	-8455
gment	-8456
▁Unabhäng	-8457
vey	-8458
▁ober	-8459
▁komplett	-8460
▁Abschließend	-8461
▁Forderung	-8462
14	-8463
▁3,	-8464
▁tack	-8465
▁Bereit	-8466
▁Verwaltungs	-8467
▁hosp	-8468
▁sagt	-8469
▁Over	-8470
▁Belarus	-8471
▁alte	-8472
▁delay	-8473
▁experts	-8474
▁vehicles	-8475
▁Initiativen	-8476
ütze	-8477
▁Sach	-8478
▁relate	-8479
▁Kindern	-8480
Er	-8481
▁klare	-8482
▁combat	-8483
▁interpret	-8484
▁stimme	-8485
▁fisheries	-8486
overy	-8487
▁Office	-8488
▁plants	-8489
▁handeln	-8490
▁shower	-8491
km	-8492
prechen	-8493
▁Health	-8494
▁marketing	-8495
gewicht	-8496
Aus	-8497
▁alloc	-8498
▁mobil	-8499
IB	-8500
▁Völker	-8501
▁resort	-8502
▁3-	-8503
plätze	-8504
▁Because	-8505
▁teilweise	-8506
▁Vill	-8507
▁grenz	-8508
▁Act	-8509
▁Eisen	-8510
▁gefordert	-8511
▁Heil	-8512
▁typical	-8513
▁erstellt	-8514
aken	-8515
schech	-8516
inding	-8517
▁sand	-8518
▁Begriff	-8519
▁Sow	-8520
▁suc	-8521
▁Dienste	-8522
▁Techn	-8523
▁Leistungen	-8524
uba	-8525
club	-8526
wohner	-8527
▁becomes	-8528
▁paragraph	-8529
▁Plen	-8530
mär	-8531
allel	-8532
▁door	-8533
▁thinking	-8534
▁Kol	-8535
▁permanent	-8536
▁opposition	-8537
▁Angaben	-8538
▁speaking	-8539
▁informieren	-8540
/2	-8541
ova	-8542
EA	-8543
-20	-8544
▁dispos	-8545
umm	-8546
▁Leider	-8547
▁ständig	-8548
▁kommenden	-8549
▁dro	-8550
▁konkrete	-8551
▁politics	-8552
▁Out	-8553
portion	-8554
▁adjust	-8555
aker	-8556
tete	-8557
bew	-8558
▁Arbeiten	-8559
▁),	-8560
▁sle	-8561
rägen	-8562
▁Modern	-8563
▁picture	-8564
▁Verständ	-8565
4-0	-8566
▁jur	-8567
▁Systeme	-8568
▁Brussels	-8569
▁Worte	-8570
▁facing	-8571
try	-8572
▁é	-8573
▁fragen	-8574
▁Webseite	-8575
▁competitiveness	-8576
▁Abgeordnete	-8577
▁Teile	-8578
▁percent	-8579
▁funktioniert	-8580
ennis	-8581
▁Under	-8582
ünden	-8583
▁Schn	-8584
▁Zeitraum	-8585
▁Übergang	-8586
▁Fore	-8587
▁Instrumente	-8588
▁Kurz	-8589
▁aims	-8590
▁SP	-8591
▁calc	-8592
▁criminal	-8593
▁machines	-8594
▁recognis	-8595
hnung	-8596
▁district	-8597
fachen	-8598
▁fixed	-8599
iro	-8600
schul	-8601
▁numbers	-8602
▁consideration	-8603
▁Guest	-8604
▁applies	-8605
itter	-8606
RA	-8607
▁benötigt	-8608
▁durchaus	-8609
▁Banken	-8610
▁Wander	-8611
▁constit	-8612
▁sorg	-8613
▁detail	-8614
▁Ul	-8615
▁Wien	-8616
▁Gipfel	-8617
▁Unfortunately	-8618
▁russ	-8619
ameter	-8620
▁trave	-8621
▁Poland	-8622
▁Engagement	-8623
▁Environment	-8624
▁organisation	-8625
bericht	-8626
▁myself	-8627
▁bodies	-8628
▁Bos	-8629
tempor	-8630
yes	-8631
▁average	-8632
sb	-8633
▁contra	-8634
▁hinzuf	-8635
▁Band	-8636
▁propose	-8637
▁Fonds	-8638
yer	-8639
oman	-8640
ünen	-8641
▁stärken	-8642
▁succeed	-8643
▁Stellungnahme	-8644
ibet	-8645
iche	-8646
iking	-8647
▁trägt	-8648
▁wirks	-8649
▁unternehmen	-8650
▁sauber	-8651
esterday	-8652
▁Gebieten	-8653
like	-8654
umn	-8655
▁freue	-8656
▁beaches	-8657
▁verring	-8658
▁establishment	-8659
ishes	-8660
ranken	-8661
▁dagegen	-8662
▁hält	-8663
▁Mitgliedstaat	-8664
▁Vielen	-8665
▁erleben	-8666
haben	-8667
▁shops	-8668
▁Anteil	-8669
▁Madrid	-8670
▁Black	-8671
▁Datei	-8672
▁darstellen	-8673
▁EADS	-8674
▁Maschinen	-8675
▁IC	-8676
▁Jetzt	-8677
▁Sehenswürd	-8678
cknow	-8679
▁income	-8680
▁told	-8681
▁Risiko	-8682
▁promotion	-8683
▁193	-8684
hörde	-8685
▁hour	-8686
▁ancient	-8687
▁defined	-8688
▁meetings	-8689
▁Immobilien	-8690
▁veröffentlicht	-8691
ißen	-8692
▁orient	-8693
hrase	-8694
▁resist	-8695
illing	-8696
▁informed	-8697
▁practices	-8698
▁finanzielle	-8699
▁GN	-8700
pper	-8701
tte	-8702
▁Casino	-8703
▁Zeiten	-8704
▁database	-8705
▁Berichte	-8706
ae	-8707
▁NI	-8708
▁lif	-8709
▁Technik	-8710
reifen	-8711
▁Grenz	-8712
▁signed	-8713
MU	-8714
qualität	-8715
▁Mount	-8716
▁eingesch	-8717
▁bear	-8718
lern	-8719
▁hop	-8720
▁Kritik	-8721
ashion	-8722
▁Non	-8723
inary	-8724
▁pros	-8725
▁safeg	-8726
▁himself	-8727
iegel	-8728
▁instru	-8729
▁flexibility	-8730
▁Wass	-8731
▁acknow	-8732
▁Hafen	-8733
▁gewährleistet	-8734
17	-8735
▁length	-8736
▁wenigen	-8737
▁erklären	-8738
▁experienced	-8739
▁Mö	-8740
▁multi	-8741
▁Mel	-8742
▁volle	-8743
haber	-8744
SC	-8745
▁Herstellung	-8746
führten	-8747
▁withdra	-8748
▁Einigung	-8749
isms	-8750
▁domestic	-8751
ungsk	-8752
▁Bay	-8753
▁Aufbau	-8754
ading	-8755
▁glob	-8756
▁rech	-8757
▁Warum	-8758
▁coffee	-8759
pendence	-8760
▁schem	-8761
▁Herausforderung	-8762
▁fle	-8763
▁pet	-8764
isierten	-8765
▁implementing	-8766
▁Kil	-8767
▁anyone	-8768
ée	-8769
▁früh	-8770
▁rent	-8771
▁middle	-8772
▁Achtung	-8773
▁promoting	-8774
▁Mir	-8775
worten	-8776
▁failure	-8777
▁Origin	-8778
▁Sonnen	-8779
▁Königreich	-8780
Str	-8781
▁Analyse	-8782
▁organiz	-8783
▁konzentrieren	-8784
schung	-8785
▁oppos	-8786
▁dennoch	-8787
qual	-8788
▁Jahrhunderts	-8789
▁Once	-8790
▁voice	-8791
▁erscheint	-8792
▁Hauses	-8793
▁geleistet	-8794
▁seriously	-8795
▁lokalen	-8796
year	-8797
▁Tool	-8798
rich	-8799
SL	-8800
embly	-8801
lisch	-8802
ategory	-8803
▁appears	-8804
▁natur	-8805
ifiziert	-8806
leistungs	-8807
▁positions	-8808
icians	-8809
▁gradu	-8810
▁Mechan	-8811
▁Zweifel	-8812
da	-8813
▁Lo	-8814
▁19.	-8815
▁signal	-8816
arta	-8817
▁tut	-8818
▁stable	-8819
▁Kingdom	-8820
▁Vien	-8821
▁Super	-8822
▁zerst	-8823
▁erfolgen	-8824
▁Roy	-8825
▁Saf	-8826
lägen	-8827
opol	-8828
▁beru	-8829
▁superv	-8830
▁liebe	-8831
▁Formen	-8832
▁Versuch	-8833
▁advanced	-8834
▁Forderungen	-8835
▁Prioritäten	-8836
deck	-8837
wagen	-8838
▁legen	-8839
▁verfolgen	-8840
▁Einhaltung	-8841
▁parliamentary	-8842
▁zul	-8843
cting	-8844
waren	-8845
▁cooper	-8846
▁verlassen	-8847
▁easier	-8848
etter	-8849
▁arrival	-8850
▁möglichst	-8851
▁Rum	-8852
▁Kenn	-8853
▁clar	-8854
▁estate	-8855
▁Gewähr	-8856
▁Bern	-8857
ibrary	-8858
▁Forum	-8859
▁indire	-8860
▁Regelung	-8861
▁concrete	-8862
▁klass	-8863
▁difference	-8864
▁dangerous	-8865
▁Allgemein	-8866
▁Sekt	-8867
▁celebr	-8868
▁models	-8869
accept	-8870
▁adoption	-8871
▁verwende	-8872
▁Ratsvorsitz	-8873
▁erf	-8874
▁gering	-8875
▁happened	-8876
▁instance	-8877
▁21.	-8878
known	-8879
▁accur	-8880
▁Freund	-8881
▁Harmon	-8882
▁absolut	-8883
▁financing	-8884
cts	-8885
▁Lesung	-8886
▁fulfil	-8887
zwischen	-8888
▁nächste	-8889
wogen	-8890
▁Strom	-8891
▁studies	-8892
▁Rechnung	-8893
flanzen	-8894
▁schönen	-8895
▁übertragen	-8896
▁Kal	-8897
lösung	-8898
▁Private	-8899
Ne	-8900
llos	-8901
▁continued	-8902
free	-8903
▁Texte	-8904
▁ausges	-8905
▁Terrasse	-8906
▁erstellen	-8907
▁Bib	-8908
▁Asyl	-8909
▁Atlant	-8910
utin	-8911
liefer	-8912
▁Flücht	-8913
▁persönlich	-8914
▁Gleichzeitig	-8915
gas	-8916
▁associated	-8917
irus	-8918
▁structures	-8919
▁Titel	-8920
hindert	-8921
DA	-8922
▁welcom	-8923
▁nennen	-8924
▁Firstly	-8925
▁impossible	-8926
erman	-8927
regel	-8928
leiten	-8929
▁Colle	-8930
▁endgült	-8931
▁diskutieren	-8932
zz	-8933
öder	-8934
peratur	-8935
▁Klicken	-8936
▁courses	-8937
▁AK	-8938
ando	-8939
▁Leistung	-8940
▁gegenseit	-8941
▁truly	-8942
▁collabor	-8943
▁monetary	-8944
▁architecture	-8945
▁discrimination	-8946
making	-8947
▁Sorge	-8948
▁connected	-8949
kle	-8950
▁condem	-8951
▁Due	-8952
▁unto	-8953
▁Stein	-8954
▁fit	-8955
▁imag	-8956
▁neighbour	-8957
ny	-8958
▁Kirche	-8959
▁satell	-8960
▁Brüssel	-8961
▁booking	-8962
▁MP	-8963
räume	-8964
▁1996	-8965
▁houses	-8966
▁betrachtet	-8967
▁reasonable	-8968
▁amerikanischen	-8969
ugos	-8970
▁Rec	-8971
▁quar	-8972
▁combination	-8973
▁denken	-8974
▁defence	-8975
hy	-8976
oring	-8977
▁Paket	-8978
licherweise	-8979
▁unabhängig	-8980
▁Zugrif	-8981
▁Alex	-8982
▁Dorf	-8983
▁excess	-8984
▁exhibition	-8985
box	-8986
▁approxim	-8987
▁Mittelmeer	-8988
iffer	-8989
▁cred	-8990
yright	-8991
▁Fen	-8992
▁geograph	-8993
▁translation	-8994
▁Dennoch	-8995
▁announced	-8996
▁statements	-8997
▁television	-8998
verkehrs	-8999
▁Stärkung	-9000
▁vere	-9001
▁klicken	-9002
▁gegründet	-9003
▁background	-9004
▁unge	-9005
wissen	-9006
zeugung	-9007
▁reducing	-9008
sicherheit	-9009
▁Santa	-9010
arischen	-9011
▁umfasst	-9012
▁garantiert	-9013
rollen	-9014
▁leader	-9015
▁agencies	-9016
▁guarantees	-9017
▁Hall	-9018
▁humanitarian	-9019
body	-9020
▁unan	-9021
▁Geist	-9022
tenance	-9023
▁Breakfast	-9024
www	-9025
▁täglich	-9026
künd	-9027
▁territory	-9028
ador	-9029
zeption	-9030
▁Kompeten	-9031
▁carefully	-9032
▁feststellen	-9033
▁sty	-9034
▁spielt	-9035
▁Christian	-9036
▁recognition	-9037
üg	-9038
]],	-9039
▁Trade	-9040
▁behaup	-9041
▁erforderlichen	-9042
▁Umfang	-9043
▁Kommissions	-9044
▁Aspekt	-9045
▁attractive	-9046
▁Anwendungen	-9047
▁Nachfolgend	-9048
▁(2	-9049
▁Verletz	-9050
▁begrenz	-9051
▁00	-9052
▁Element	-9053
▁hören	-9054
▁Sehr	-9055
▁article	-9056
▁Vo	-9057
▁manage	-9058
jährigen	-9059
European	-9060
▁verloren	-9061
▁erleich	-9062
aby	-9063
▁differences	-9064
▁Note	-9065
▁Barroso	-9066
▁evidence	-9067
▁unaccept	-9068
Es	-9069
▁mist	-9070
▁Association	-9071
▁Hard	-9072
person	-9073
door	-9074
▁Messe	-9075
ruf	-9076
▁charged	-9077
▁Großbritannien	-9078
posit	-9079
▁Wand	-9080
▁positiv	-9081
ilder	-9082
▁immediate	-9083
iscal	-9084
▁names	-9085
▁Vielzahl	-9086
Innen	-9087
iendly	-9088
▁Ideen	-9089
▁availability	-9090
gypt	-9091
▁spent	-9092
▁surrounding	-9093
nam	-9094
bieter	-9095
▁advance	-9096
▁combined	-9097
Ab	-9098
▁Lam	-9099
▁England	-9100
▁Nahrungs	-9101
▁allowing	-9102
▁entertain	-9103
▁Wald	-9104
▁Katastrop	-9105
▁membership	-9106
▁au	-9107
▁raise	-9108
▁bezeichnet	-9109
LE	-9110
äck	-9111
▁released	-9112
▁possibilities	-9113
▁Defin	-9114
▁adapt	-9115
▁producers	-9116
▁Gemeinsamen	-9117
orient	-9118
▁genuine	-9119
▁alt	-9120
▁Patienten	-9121
▁Beschreibung	-9122
▁arbeitet	-9123
▁enth	-9124
▁wishes	-9125
▁Künstler	-9126
▁Wün	-9127
▁cards	-9128
▁abgeschlossen	-9129
älter	-9130
▁Effe	-9131
▁Prime	-9132
▁richtigen	-9133
ido	-9134
▁forest	-9135
▁shared	-9136
condition	-9137
istisch	-9138
▁generation	-9139
%.	-9140
▁sn	-9141
▁improvement	-9142
.”	-9143
ista	-9144
läuf	-9145
▁Wall	-9146
raucher	-9147
▁Hamburg	-9148
▁calling	-9149
▁hingewiesen	-9150
ärm	-9151
▁spl	-9152
▁Afrika	-9153
zig	-9154
ohlen	-9155
▁cars	-9156
▁Wicht	-9157
▁Digital	-9158
riminierung	-9159
preise	-9160
üter	-9161
▁Finn	-9162
greif	-9163
sized	-9164
▁Foundation	-9165
▁Saint	-9166
▁compla	-9167
▁desire	-9168
▁ausreichend	-9169
▁described	-9170
▁Ve	-9171
▁Irish	-9172
▁glass	-9173
▁sale	-9174
stimmung	-9175
▁win	-9176
▁Komple	-9177
öss	-9178
grade	-9179
ensus	-9180
▁überprüfen	-9181
▁attractions	-9182
äten	-9183
sport	-9184
▁Rome	-9185
▁Justice	-9186
▁kulturellen	-9187
▁Seine	-9188
▁stell	-9189
▁tasks	-9190
▁trag	-9191
▁Währungs	-9192
TE	-9193
▁taste	-9194
▁10.	-9195
▁effektiv	-9196
mögen	-9197
▁vernünft	-9198
organisation	-9199
▁enables	-9200
sprogramm	-9201
▁Überwachung	-9202
ries	-9203
wing	-9204
▁Polize	-9205
▁Hersteller	-9206
hören	-9207
▁Rand	-9208
▁vert	-9209
▁Tourismus	-9210
karten	-9211
▁figures	-9212
▁haup	-9213
meld	-9214
▁Mun	-9215
▁owners	-9216
▁skills	-9217
icking	-9218
okraten	-9219
Script	-9220
▁Poker	-9221
▁tätig	-9222
▁weiterer	-9223
▁ahead	-9224
▁einiger	-9225
▁Work	-9226
assung	-9227
ologische	-9228
lück	-9229
▁unz	-9230
▁delic	-9231
▁union	-9232
▁Teilnehmer	-9233
ointed	-9234
▁appeal	-9235
▁nearby	-9236
upp	-9237
active	-9238
▁consumption	-9239
▁liter	-9240
▁Entwicklungen	-9241
▁Ruhe	-9242
▁Konz	-9243
▁African	-9244
▁holidays	-9245
▁registered	-9246
äumen	-9247
:0	-9248
▁24-	-9249
ränken	-9250
gu	-9251
ema	-9252
omas	-9253
itious	-9254
▁Ausfl	-9255
▁Beach	-9256
▁packages	-9257
▁religious	-9258
▁sämtliche	-9259
▁transition	-9260
Ge	-9261
▁una	-9262
▁Fernse	-9263
▁devices	-9264
▁participate	-9265
▁danach	-9266
▁Muse	-9267
▁bemer	-9268
▁mission	-9269
▁completed	-9270
eto	-9271
▁unless	-9272
▁continues	-9273
haltet	-9274
▁Kurs	-9275
krieg	-9276
▁besitzt	-9277
▁occasion	-9278
ía	-9279
▁Typ	-9280
▁trading	-9281
▁miteinander	-9282
▁unacceptable	-9283
ausschusses	-9284
▁profitieren	-9285
gegeben	-9286
partner	-9287
▁entitled	-9288
▁0.	-9289
▁Nether	-9290
▁relativ	-9291
andidaten	-9292
▁Wi	-9293
chnet	-9294
▁attach	-9295
Kon	-9296
sequent	-9297
aration	-9298
▁Beitritt	-9299
technik	-9300
▁Gre	-9301
▁except	-9302
viel	-9303
▁gewinnen	-9304
onia	-9305
▁Europeans	-9306
▁Polen	-9307
bindung	-9308
▁Partnerschaft	-9309
▁shop	-9310
▁Heimat	-9311
▁aufmerksam	-9312
▁born	-9313
▁micro	-9314
gestimmt	-9315
▁greatest	-9316
government	-9317
▁economies	-9318
ags	-9319
▁meters	-9320
▁Priorität	-9321
▁Problemen	-9322
▁Check	-9323
▁expend	-9324
▁beginnt	-9325
fa	-9326
auftrag	-9327
isierte	-9328
▁vollkommen	-9329
▁Verpflichtung	-9330
▁Mik	-9331
▁kons	-9332
▁konstru	-9333
▁Bedürfnisse	-9334
olo	-9335
version	-9336
▁Festival	-9337
▁relaxing	-9338
▁introduce	-9339
);	-9340
▁isol	-9341
▁burden	-9342
▁USB	-9343
▁folgende	-9344
asil	-9345
utch	-9346
▁ergeben	-9347
führungen	-9348
▁Elemente	-9349
ilst	-9350
▁Urs	-9351
▁Ear	-9352
▁Altstadt	-9353
▁eingeführt	-9354
▁8.	-9355
▁Nav	-9356
weist	-9357
▁zahlen	-9358
temporary	-9359
▁Democrats	-9360
▁französischen	-9361
▁32	-9362
brauch	-9363
▁strongly	-9364
▁perspective	-9365
road	-9366
▁conv	-9367
ireless	-9368
windigkeit	-9369
▁Aussicht	-9370
cont	-9371
▁geschehen	-9372
Date	-9373
▁Schön	-9374
▁Europäer	-9375
▁Regulation	-9376
▁unfortunately	-9377
ikal	-9378
▁Mat	-9379
▁PDF	-9380
tzeit	-9381
▁beauty	-9382
comm	-9383
atever	-9384
▁Versch	-9385
▁vorliegenden	-9386
teten	-9387
▁überall	-9388
▁üb	-9389
▁closer	-9390
▁spezielle	-9391
afr	-9392
▁dauer	-9393
▁Turkish	-9394
pa	-9395
▁Fel	-9396
▁pure	-9397
▁regionalen	-9398
▁gestalten	-9399
▁Fortschritt	-9400
▁31	-9401
▁CH	-9402
▁gegenwärtig	-9403
ague	-9404
▁urban	-9405
▁button	-9406
▁Deutsche	-9407
45	-9408
uble	-9409
erver	-9410
▁Dollar	-9411
▁learning	-9412
▁Irland	-9413
▁reservation	-9414
▁Verteidigung	-9415
▁Bis	-9416
▁äuß	-9417
▁Bewertung	-9418
chem	-9419
▁einst	-9420
▁meant	-9421
▁Foto	-9422
▁großes	-9423
▁dedicated	-9424
▁norm	-9425
▁urgent	-9426
▁Entwurf	-9427
▁Globalisierung	-9428
xts	-9429
bere	-9430
▁Meiner	-9431
▁claims	-9432
▁Michael	-9433
▁Zuständ	-9434
▁biggest	-9435
▁Custom	-9436
▁Führung	-9437
▁Federal	-9438
▁surface	-9439
olz	-9440
höhung	-9441
▁verfolgt	-9442
ram	-9443
▁einsetzen	-9444
▁Gerichtshof	-9445
▁Live	-9446
ih	-9447
▁Lake	-9448
▁kept	-9449
▁enormous	-9450
ürk	-9451
inder	-9452
▁Anlagen	-9453
EO	-9454
reten	-9455
▁fruit	-9456
-3	-9457
stands	-9458
▁forced	-9459
▁keinerlei	-9460
▁insurance	-9461
▁Angesichts	-9462
▁advertising	-9463
▁court	-9464
▁Gebrauch	-9465
▁unterstütze	-9466
leihen	-9467
▁haupts	-9468
öse	-9469
▁20.	-9470
istik	-9471
▁asyl	-9472
▁grunds	-9473
▁Support	-9474
▁höchste	-9475
▁offensichtlich	-9476
sektor	-9477
▁qualit	-9478
▁Rechnungs	-9479
▁empfehlen	-9480
▁Nevertheless	-9481
▁Mond	-9482
▁sides	-9483
kor	-9484
rance	-9485
rüst	-9486
▁Fotos	-9487
▁refle	-9488
▁Austrian	-9489
▁Eindruck	-9490
▁garantieren	-9491
▁gegenwärtigen	-9492
Das	-9493
▁Po	-9494
▁stim	-9495
▁einver	-9496
▁session	-9497
▁Van	-9498
▁Verst	-9499
▁ök	-9500
▁Links	-9501
8)	-9502
▁asylum	-9503
▁Wechsel	-9504
▁granted	-9505
det	-9506
▁dir	-9507
▁Drogen	-9508
▁failed	-9509
holung	-9510
▁geschützt	-9511
▁Justiz	-9512
▁river	-9513
▁conclusions	-9514
▁Very	-9515
▁nütz	-9516
▁Grunde	-9517
▁vision	-9518
▁exercise	-9519
▁nom	-9520
▁vul	-9521
▁prison	-9522
▁controls	-9523
-00	-9524
inde	-9525
itar	-9526
▁Stadtz	-9527
▁Foreign	-9528
▁Griechenland	-9529
▁geeig	-9530
▁golf	-9531
bieten	-9532
prinzip	-9533
▁convinced	-9534
▁Main	-9535
attform	-9536
▁reliable	-9537
LAN	-9538
fle	-9539
log	-9540
▁Jeder	-9541
▁Schif	-9542
▁gutes	-9543
▁Day	-9544
iertes	-9545
▁beige	-9546
▁forth	-9547
▁veget	-9548
▁notice	-9549
▁warten	-9550
▁einfache	-9551
▁Beteiligung	-9552
▁politischer	-9553
▁Verz	-9554
▁extended	-9555
▁individuals	-9556
▁establishing	-9557
rate	-9558
▁magn	-9559
bring	-9560
▁Haut	-9561
▁Maße	-9562
▁tief	-9563
▁chair	-9564
▁story	-9565
▁command	-9566
▁Netherlands	-9567
zep	-9568
eller	-9569
▁gram	-9570
▁square	-9571
▁science	-9572
▁umfassende	-9573
▁earth	-9574
▁buffet	-9575
▁größeren	-9576
anische	-9577
▁Mutter	-9578
▁Mü	-9579
▁Anw	-9580
▁tried	-9581
▁zentrale	-9582
▁Option	-9583
▁Vienna	-9584
▁bestätigt	-9585
▁grenzüber	-9586
onial	-9587
▁Tisch	-9588
▁railway	-9589
▁reprodu	-9590
▁Regelungen	-9591
EU	-9592
ENT	-9593
erma	-9594
▁beteiligt	-9595
▁entstanden	-9596
▁Opp	-9597
▁Back	-9598
hebung	-9599
▁window	-9600
▁dimension	-9601
▁diss	-9602
▁advice	-9603
▁luxury	-9604
▁zusätzlich	-9605
▁formal	-9606
▁Special	-9607
▁verbundenen	-9608
iode	-9609
▁Trek	-9610
▁Erklärungen	-9611
▁Indien	-9612
▁hum	-9613
glieder	-9614
alia	-9615
▁Eastern	-9616
▁Wiederauf	-9617
ancial	-9618
▁Martin	-9619
▁75	-9620
reisen	-9621
▁seven	-9622
mittelt	-9623
▁totally	-9624
zust	-9625
äfen	-9626
steht	-9627
▁core	-9628
▁grant	-9629
▁Company	-9630
ris	-9631
enkt	-9632
▁Media	-9633
▁passed	-9634
▁installed	-9635
▁dient	-9636
▁romant	-9637
rochen	-9638
▁Worten	-9639
▁memory	-9640
▁colleague	-9641
▁kü	-9642
▁Budget	-9643
▁Latin	-9644
▁White	-9645
▁Meeres	-9646
▁ausführ	-9647
▁diplomat	-9648
▁spending	-9649
▁Market	-9650
▁Unterkunft	-9651
▁teilnehmen	-9652
▁Dus	-9653
:30	-9654
▁ECU	-9655
▁(200	-9656
▁Syn	-9657
▁Yet	-9658
athed	-9659
▁unit	-9660
▁highlight	-9661
leun	-9662
▁Another	-9663
▁Bla	-9664
straße	-9665
▁compared	-9666
▁na	-9667
▁para	-9668
stattung	-9669
▁müs	-9670
▁Bill	-9671
▁2009.	-9672
▁ru	-9673
reibt	-9674
▁laid	-9675
▁mode	-9676
▁registr	-9677
▁device	-9678
▁Karten	-9679
pal	-9680
stät	-9681
▁Front	-9682
▁interface	-9683
▁internationaler	-9684
▁solcher	-9685
▁betrachten	-9686
▁disease	-9687
▁cra	-9688
▁leb	-9689
ibel	-9690
▁stands	-9691
▁beinhaltet	-9692
▁Data	-9693
▁Control	-9694
▁Institute	-9695
▁wunderschö	-9696
olge	-9697
▁guide	-9698
▁Mindest	-9699
▁rightly	-9700
ey	-9701
▁expression	-9702
▁Greek	-9703
▁Märkte	-9704
▁perfectly	-9705
itage	-9706
▁drawn	-9707
▁Presse	-9708
▁factors	-9709
▁steigen	-9710
▁storage	-9711
▁commitments	-9712
▁lä	-9713
ügel	-9714
▁honourable	-9715
▁1995	-9716
▁neither	-9717
era	-9718
▁earn	-9719
▁destroy	-9720
▁achieving	-9721
SQL	-9722
mittag	-9723
▁Relig	-9724
▁Vertrie	-9725
▁corporate	-9726
▁mountains	-9727
ipping	-9728
▁Marken	-9729
▁korre	-9730
▁Ans	-9731
▁unable	-9732
▁definition	-9733
lägt	-9734
▁legitim	-9735
▁speziellen	-9736
▁chosen	-9737
▁moving	-9738
aket	-9739
▁erg	-9740
▁Ganz	-9741
▁ep	-9742
▁Größe	-9743
▁wesentlichen	-9744
▁12.	-9745
force	-9746
▁finance	-9747
▁Constitution	-9748
oram	-9749
reck	-9750
▁daraus	-9751
▁Unabhängigkeit	-9752
MS	-9753
▁por	-9754
allery	-9755
▁sogen	-9756
▁outcome	-9757
▁Rob	-9758
▁balcon	-9759
▁weapons	-9760
▁candidate	-9761
▁tie	-9762
schrift	-9763
vorschlag	-9764
ternen	-9765
▁maintenance	-9766
▁THE	-9767
▁festge	-9768
aktionen	-9769
▁agency	-9770
▁Todes	-9771
▁condemn	-9772
▁britischen	-9773
▁Gegensatz	-9774
iam	-9775
ancy	-9776
▁fern	-9777
ilot	-9778
apers	-9779
UN	-9780
oret	-9781
▁Quest	-9782
▁contrary	-9783
worfen	-9784
CC	-9785
ammer	-9786
▁obviously	-9787
linge	-9788
▁Hinweis	-9789
▁Voraussetzungen	-9790
▁pour	-9791
▁informiert	-9792
Ex	-9793
▁Where	-9794
ington	-9795
▁Reich	-9796
jet	-9797
▁obligations	-9798
▁liber	-9799
with	-9800
▁motiv	-9801
Reg	-9802
▁equality	-9803
hlt	-9804
bett	-9805
idung	-9806
▁genet	-9807
▁confir	-9808
sequently	-9809
▁match	-9810
igrants	-9811
▁Vermitt	-9812
look	-9813
umer	-9814
uchten	-9815
setzt	-9816
▁Städte	-9817
▁yesterday	-9818
älfte	-9819
▁Gent	-9820
▁Ros	-9821
De	-9822
liothe	-9823
▁Gründe	-9824
▁Palace	-9825
▁patent	-9826
▁Croat	-9827
▁Süden	-9828
▁erfre	-9829
uzz	-9830
onenten	-9831
▁goals	-9832
▁Resort	-9833
▁Ereignisse	-9834
▁intervention	-9835
äufer	-9836
▁benach	-9837
▁umwelt	-9838
22	-9839
▁Betriebs	-9840
▁Universität	-9841
▁Pool	-9842
▁fiscal	-9843
▁Peter	-9844
▁Realität	-9845
Fi	-9846
▁jour	-9847
▁Monat	-9848
versorgung	-9849
▁Programms	-9850
▁sam	-9851
verein	-9852
▁aufzu	-9853
▁route	-9854
▁distin	-9855
▁erhöht	-9856
▁weight	-9857
orial	-9858
▁Fert	-9859
▁Kohäs	-9860
▁Third	-9861
▁scale	-9862
▁Zahlen	-9863
▁Dimension	-9864
▁vergleich	-9865
▁freie	-9866
ichtete	-9867
▁Agency	-9868
▁sensitive	-9869
trib	-9870
▁sell	-9871
▁surv	-9872
▁Studien	-9873
▁Leistungs	-9874
istry	-9875
▁Anlage	-9876
▁ambitious	-9877
GO	-9878
elbe	-9879
▁Verkauf	-9880
▁category	-9881
ela	-9882
▁Hist	-9883
▁rock	-9884
asters	-9885
▁artists	-9886
▁Erde	-9887
▁sched	-9888
▁store	-9889
▁Farben	-9890
▁Fire	-9891
▁contained	-9892
▁outstanding	-9893
imit	-9894
▁elected	-9895
▁PPE	-9896
▁rob	-9897
actions	-9898
nehmern	-9899
▁someone	-9900
▁Sä	-9901
alty	-9902
▁secret	-9903
▁Verständnis	-9904
heits	-9905
atures	-9906
▁Ausland	-9907
wers	-9908
▁beglück	-9909
▁correspond	-9910
DR	-9911
▁flight	-9912
▁schöne	-9913
Ein	-9914
reitung	-9915
▁Fitness	-9916
auso	-9917
▁organised	-9918
iced	-9919
▁asking	-9920
bald	-9921
▁Kopf	-9922
▁wealth	-9923
▁Jac	-9924
▁investig	-9925
ünfte	-9926
enntnisse	-9927
▁organization	-9928
▁Cam	-9929
▁Slow	-9930
▁Alban	-9931
▁colour	-9932
▁erh	-9933
▁spa	-9934
▁enor	-9935
Or	-9936
▁ST	-9937
▁Thus	-9938
▁chemical	-9939
▁beglückwün	-9940
governmental	-9941
iov	-9942
▁Alliance	-9943
klang	-9944
▁compat	-9945
▁gelungen	-9946
aub	-9947
▁rig	-9948
▁analy	-9949
75	-9950
▁Wür	-9951
▁saw	-9952
System	-9953
▁starke	-9954
▁definit	-9955
ario	-9956
▁Gut	-9957
endum	-9958
7)	-9959
Bahn	-9960
▁acts	-9961
fallen	-9962
So	-9963
ipe	-9964
otten	-9965
▁minute	-9966
▁beachten	-9967
EW	-9968
wortet	-9969
▁Beschäftigungs	-9970
▁langen	-9971
▁Beschluss	-9972
▁satellite	-9973
▁unf	-9974
▁Mail	-9975
gefähr	-9976
▁Entsp	-9977
▁bound	-9978
▁Gesprä	-9979
▁reject	-9980
▁Summit	-9981
ategorie	-9982
▁physical	-9983
▁accessible	-9984
▁190	-9985
▁Mitteln	-9986
erap	-9987
▁lauf	-9988
krat	-9989
▁photos	-9990
▁schneller	-9991
▁sage	-9992
▁Lizenz	-9993
▁Apparte	-9994
knü	-9995
Sterne	-9996
▁Agentur	-9997
▁waiting	-9998
ifications	-9999
Ber	-10000
▁manchmal	-10001
▁2010.	-10002
▁title	-10003
▁Nutzer	-10004
▁limits	-10005
ktivität	-10006
▁Manager	-10007
▁Botschaft	-10008
▁festgestellt	-10009
▁kos	-10010
▁Emiss	-10011
▁labor	-10012
▁dynamic	-10013
▁dé	-10014
handels	-10015
wechsel	-10016
▁privile	-10017
▁communities	-10018
TP	-10019
▁successfully	-10020
fähig	-10021
ansion	-10022
reitet	-10023
▁überein	-10024
abilities	-10025
▁constantly	-10026
▁Flexibilität	-10027
▁>	-10028
gerung	-10029
▁Niveau	-10030
abl	-10031
▁dur	-10032
▁näher	-10033
▁einverstanden	-10034
unehm	-10035
▁Studio	-10036
▁Gegenteil	-10037
▁vehicle	-10038
▁36	-10039
▁Korea	-10040
▁Datenschutz	-10041
zil	-10042
fest	-10043
▁Beim	-10044
▁Aktionen	-10045
▁pointed	-10046
▁intention	-10047
▁übernommen	-10048
oster	-10049
▁hauptsächlich	-10050
▁continuing	-10051
▁Palestinian	-10052
NL	-10053
üb	-10054
▁cheap	-10055
▁Kontroll	-10056
▁allgemeine	-10057
▁contents	-10058
▁payments	-10059
▁independence	-10060
▁participants	-10061
▁gehalten	-10062
▁Liberalisierung	-10063
odurch	-10064
▁defic	-10065
▁Nachdem	-10066
▁exklus	-10067
▁Bahnhof	-10068
▁Hoffnung	-10069
▁Beihilfen	-10070
▁Gebiete	-10071
management	-10072
▁möglichen	-10073
isure	-10074
▁grie	-10075
utzung	-10076
▁resulting	-10077
eind	-10078
▁submit	-10079
▁revolution	-10080
quar	-10081
▁sem	-10082
▁geöffnet	-10083
▁sorgfält	-10084
▁Architektur	-10085
▁swe	-10086
ending	-10087
▁Fraktionen	-10088
▁situations	-10089
▁Located	-10090
▁nav	-10091
abled	-10092
▁Energy	-10093
▁update	-10094
▁mechanism	-10095
500	-10096
▁MEP	-10097
▁Schm	-10098
▁niemand	-10099
▁unternommen	-10100
erry	-10101
cast	-10102
ismen	-10103
▁ideale	-10104
▁treten	-10105
▁Vorteil	-10106
▁Blog	-10107
▁Weitere	-10108
▁election	-10109
▁III	-10110
▁Good	-10111
▁dete	-10112
▁race	-10113
▁Marketing	-10114
▁pill	-10115
▁expenditure	-10116
▁Risiken	-10117
▁recommendations	-10118
uung	-10119
▁rasch	-10120
▁massive	-10121
▁balanced	-10122
▁Garden	-10123
▁Sweden	-10124
down	-10125
▁prospect	-10126
▁guter	-10127
ulating	-10128
▁causes	-10129
▁einsch	-10130
▁changing	-10131
▁Teilnahme	-10132
ickt	-10133
ähren	-10134
▁Andre	-10135
▁mittl	-10136
▁Journal	-10137
▁AR	-10138
▁glad	-10139
tellect	-10140
▁preserv	-10141
▁ap	-10142
enswert	-10143
▁Wirkung	-10144
▁Klimaanlage	-10145
real	-10146
▁Pic	-10147
▁targets	-10148
▁nar	-10149
▁bars	-10150
▁webs	-10151
▁vieler	-10152
▁Empfehlungen	-10153
imal	-10154
kurr	-10155
▁reve	-10156
▁Teilen	-10157
▁Experten	-10158
▁EN	-10159
▁putting	-10160
▁gebe	-10161
()	-10162
▁Sur	-10163
▁furnished	-10164
igned	-10165
▁Mitgliedern	-10166
trägt	-10167
obility	-10168
▁species	-10169
▁andererseits	-10170
▁wodurch	-10171
▁betroffenen	-10172
▁ID	-10173
aschen	-10174
▁pun	-10175
annung	-10176
inning	-10177
App	-10178
▁blog	-10179
▁mittels	-10180
rant	-10181
▁ausländ	-10182
▁Vom	-10183
▁lake	-10184
▁jungen	-10185
▁aircraft	-10186
▁surrounded	-10187
▁Beob	-10188
▁Sprach	-10189
kan	-10190
▁pleasure	-10191
▁türk	-10192
▁Erwart	-10193
▁Prüfung	-10194
ränkungen	-10195
▁guaranteed	-10196
▁Lu	-10197
inent	-10198
▁zählen	-10199
▁philosoph	-10200
▁Kooperation	-10201
▁Gaz	-10202
▁Phase	-10203
▁irgende	-10204
nes	-10205
▁dig	-10206
▁merely	-10207
▁zunehm	-10208
akete	-10209
wachst	-10210
▁250	-10211
bürger	-10212
ählten	-10213
▁safeguard	-10214
asen	-10215
▁herzlich	-10216
▁Those	-10217
▁kaufen	-10218
gbarkeit	-10219
▁Treffen	-10220
▁einzigen	-10221
▁geschieht	-10222
▁praktisch	-10223
▁außerord	-10224
icon	-10225
▁prevention	-10226
▁Grundrechte	-10227
▁("	-10228
▁write	-10229
▁disposal	-10230
▁landscape	-10231
▁approximately	-10232
SV	-10233
▁pred	-10234
▁leads	-10235
▁smaller	-10236
wegs	-10237
▁lov	-10238
▁Rich	-10239
▁Rules	-10240
▁damals	-10241
▁gewiss	-10242
▁grounds	-10243
▁fraud	-10244
utr	-10245
ktop	-10246
▁Tom	-10247
▁Lord	-10248
▁Politiker	-10249
▁quot	-10250
▁sobald	-10251
▁Militär	-10252
▁zugleich	-10253
▁Admin	-10254
▁echte	-10255
▁Square	-10256
]].	-10257
ques	-10258
uters	-10259
▁Gefühl	-10260
▁slight	-10261
Adr	-10262
▁Bol	-10263
▁Fax	-10264
▁siehe	-10265
bereiche	-10266
▁Friedens	-10267
6)	-10268
▁id	-10269
ints	-10270
vereign	-10271
▁persönliche	-10272
urm	-10273
ventions	-10274
▁sovereign	-10275
▁nationaler	-10276
▁18.	-10277
▁patients	-10278
▁Diskriminierung	-10279
vely	-10280
▁Via	-10281
▁sieben	-10282
▁registration	-10283
▁Zoll	-10284
cco	-10285
iene	-10286
▁adap	-10287
▁Schne	-10288
▁enhan	-10289
▁berecht	-10290
PC	-10291
▁valu	-10292
▁vorgeschlagenen	-10293
odes	-10294
▁retain	-10295
▁gewünsch	-10296
▁Arbeitsmarkt	-10297
▁School	-10298
▁regelmäßig	-10299
▁Tit	-10300
▁incorpor	-10301
▁erfordert	-10302
▁strengthening	-10303
▁Syr	-10304
ermal	-10305
wiesen	-10306
▁Hauptstadt	-10307
▁Repr	-10308
▁gemeinschaft	-10309
▁Chem	-10310
▁decades	-10311
▁Überprüfung	-10312
▁Los	-10313
▁Feld	-10314
ermaßen	-10315
▁Mitglieds	-10316
▁wichtigste	-10317
ask	-10318
▁Zuf	-10319
▁ung	-10320
▁identity	-10321
▁Absicht	-10322
▁explain	-10323
▁consists	-10324
verse	-10325
▁cool	-10326
▁Erhöhung	-10327
▁wachs	-10328
ausende	-10329
▁jüngsten	-10330
wurf	-10331
▁acht	-10332
ifellos	-10333
▁Publik	-10334
▁proportion	-10335
==	-10336
▁Touristen	-10337
▁Vorbereitung	-10338
64	-10339
▁Ban	-10340
▁lau	-10341
▁zone	-10342
▁Gesam	-10343
▁Effizienz	-10344
▁convention	-10345
gesellschaften	-10346
▁Press	-10347
▁Gesetzgebung	-10348
ource	-10349
▁truth	-10350
▁Welche	-10351
▁Charter	-10352
▁Ausnahme	-10353
▁underg	-10354
▁Methode	-10355
▁Niederl	-10356
▁amt	-10357
▁Ebenso	-10358
▁Island	-10359
▁nearly	-10360
ierend	-10361
istenz	-10362
▁waters	-10363
▁zunehmend	-10364
▁acceptable	-10365
35	-10366
▁Both	-10367
▁spricht	-10368
▁Gedanken	-10369
▁adequate	-10370
place	-10371
▁print	-10372
▁Männer	-10373
▁testing	-10374
cap	-10375
▁capable	-10376
▁Bedarf	-10377
▁selten	-10378
▁argument	-10379
▁800	-10380
artner	-10381
▁Bestandteil	-10382
▁elegan	-10383
▁manufacturing	-10384
enture	-10385
▁abhäng	-10386
▁vorschlagen	-10387
legte	-10388
atlant	-10389
▁bringing	-10390
▁beschäftigt	-10391
▁Kor	-10392
▁Merk	-10393
▁Enjoy	-10394
istungs	-10395
▁requested	-10396
▁Old	-10397
▁schn	-10398
selben	-10399
▁Schwar	-10400
▁contemporary	-10401
hel	-10402
▁Lag	-10403
▁Eltern	-10404
▁Pflicht	-10405
information	-10406
Der	-10407
▁orders	-10408
▁talks	-10409
2010	-10410
aces	-10411
lebt	-10412
▁Class	-10413
▁anbieten	-10414
,00	-10415
▁AB	-10416
-200	-10417
asten	-10418
▁copy	-10419
▁surpr	-10420
SA	-10421
▁factor	-10422
▁inhab	-10423
zwungen	-10424
▁respekt	-10425
▁recovery	-10426
richtlinie	-10427
▁Nichtraucher	-10428
▁Nik	-10429
▁disch	-10430
▁gewählt	-10431
▁operate	-10432
▁conclude	-10433
▁Ferienwohn	-10434
▁Koordinierung	-10435
▁Pop	-10436
▁weg	-10437
▁Royal	-10438
▁Hälfte	-10439
▁Einkaufs	-10440
▁Eth	-10441
ress	-10442
▁Valle	-10443
▁vielfält	-10444
ky	-10445
▁Prakt	-10446
▁Rotary	-10447
▁consolid	-10448
▁discussing	-10449
▁Akte	-10450
▁Internationalen	-10451
rist	-10452
utzer	-10453
▁Komb	-10454
▁steel	-10455
▁planned	-10456
▁einzelne	-10457
▁association	-10458
cling	-10459
organisationen	-10460
▁SD	-10461
▁Dutch	-10462
▁River	-10463
sprüche	-10464
station	-10465
▁nations	-10466
▁seeking	-10467
▁{{	-10468
▁Pin	-10469
▁Bosn	-10470
▁toler	-10471
ssystem	-10472
inations	-10473
produktion	-10474
ablen	-10475
endung	-10476
▁nachhaltige	-10477
iot	-10478
iest	-10479
▁Willen	-10480
▁kleiner	-10481
▁Jose	-10482
▁beob	-10483
▁sets	-10484
▁Chamber	-10485
▁consensus	-10486
▁ta	-10487
ancen	-10488
▁Rund	-10489
▁Morgen	-10490
▁Apartment	-10491
gänglich	-10492
▁regret	-10493
▁seitens	-10494
▁examples	-10495
iring	-10496
▁fashion	-10497
▁brings	-10498
▁Fischer	-10499
▁expensive	-10500
▁evaluation	-10501
▁grammat	-10502
▁traditionellen	-10503
▁previously	-10504
alys	-10505
▁Sun	-10506
issens	-10507
Gen	-10508
▁erneuer	-10509
▁governance	-10510
")	-10511
hann	-10512
iling	-10513
▁JavaScript	-10514
lichem	-10515
UT	-10516
▁2009,	-10517
▁teilen	-10518
splan	-10519
▁fuel	-10520
▁Thanks	-10521
▁Details	-10522
▁industries	-10523
▁9.	-10524
▁medizin	-10525
äume	-10526
ktions	-10527
▁reagieren	-10528
sein	-10529
▁count	-10530
▁master	-10531
▁determined	-10532
▁remove	-10533
otenzial	-10534
▁multiple	-10535
▁password	-10536
▁Os	-10537
▁(19	-10538
▁band	-10539
▁assum	-10540
▁divid	-10541
iern	-10542
▁eight	-10543
▁Norden	-10544
▁letter	-10545
▁verk	-10546
▁Kaffe	-10547
▁Romania	-10548
▁feeling	-10549
▁kürzlich	-10550
▁Cypr	-10551
▁fällt	-10552
▁Inseln	-10553
▁ländlichen	-10554
going	-10555
▁Streit	-10556
▁optimal	-10557
▁Veröffentlich	-10558
sid	-10559
▁Jean	-10560
▁blue	-10561
ady	-10562
▁spaces	-10563
▁Obama	-10564
▁opposite	-10565
▁southern	-10566
▁vielmehr	-10567
▁Landschaft	-10568
▁4,	-10569
▁lag	-10570
▁amongst	-10571
▁Bio	-10572
▁Rumän	-10573
▁Patent	-10574
▁behandeln	-10575
nahm	-10576
iquid	-10577
▁Graf	-10578
▁dritten	-10579
mlich	-10580
▁Angriff	-10581
▁thereby	-10582
▁Aufgrund	-10583
▁Jahrzehn	-10584
▁deutsche	-10585
▁cook	-10586
▁junge	-10587
entscheid	-10588
▁begonnen	-10589
▁versions	-10590
▁48	-10591
▁primary	-10592
▁hergestellt	-10593
▁Glas	-10594
▁dealt	-10595
▁trend	-10596
aks	-10597
car	-10598
rest	-10599
▁Dort	-10600
▁Gästen	-10601
▁weiteres	-10602
zahlung	-10603
▁kontext	-10604
▁rejected	-10605
▁angeht	-10606
licit	-10607
▁Direkt	-10608
▁qualified	-10609
kräfte	-10610
▁Express	-10611
▁journal	-10612
▁representative	-10613
▁Argent	-10614
▁globale	-10615
▁sichern	-10616
▁Anliegen	-10617
▁zunehmen	-10618
fers	-10619
phrase	-10620
struction	-10621
▁Berücksicht	-10622
ungsverfahren	-10623
▁Win	-10624
▁fif	-10625
orrup	-10626
eshalb	-10627
▁Liebe	-10628
▁betrie	-10629
▁leiden	-10630
▁Zustand	-10631
▁Autor	-10632
▁liability	-10633
▁Church	-10634
▁bureau	-10635
▁Financial	-10636
pielt	-10637
position	-10638
▁addressed	-10639
▁mel	-10640
▁Laufe	-10641
▁anerkannt	-10642
▁Stadtzentrum	-10643
▁Nice	-10644
▁sinnvoll	-10645
▁Umständen	-10646
▁attacks	-10647
▁Prodi	-10648
▁finde	-10649
sprach	-10650
▁aktual	-10651
▁demokratische	-10652
▁fried	-10653
itime	-10654
▁betont	-10655
▁primarily	-10656
kunden	-10657
▁jemand	-10658
▁prepare	-10659
ampagne	-10660
▁Freude	-10661
bereitet	-10662
▁Tai	-10663
▁sec	-10664
▁bere	-10665
▁capt	-10666
▁turned	-10667
▁Methoden	-10668
lebnis	-10669
▁begann	-10670
▁besseren	-10671
▁verstärkt	-10672
▁dah	-10673
▁Report	-10674
▁Anpassung	-10675
▁Dach	-10676
jection	-10677
▁vulner	-10678
strategie	-10679
▁nochmals	-10680
▁Verhältnis	-10681
▁Sonn	-10682
ported	-10683
▁kinds	-10684
▁territorial	-10685
▁voc	-10686
▁beruf	-10687
▁driving	-10688
nd	-10689
zur	-10690
▁Maria	-10691
▁afford	-10692
▁bewegen	-10693
▁diverse	-10694
▁ehemaligen	-10695
▁derzeitigen	-10696
▁Veranstaltungen	-10697
▁genü	-10698
▁Dublin	-10699
▁manufacturers	-10700
▁extreme	-10701
▁attitude	-10702
▁Verbesser	-10703
tten	-10704
oß	-10705
igern	-10706
▁flow	-10707
▁phase	-10708
▁Zimmern	-10709
▁diskutiert	-10710
▁Inc	-10711
ahnen	-10712
ciliation	-10713
▁investments	-10714
▁named	-10715
▁books	-10716
gramms	-10717
▁explan	-10718
▁bio	-10719
▁moved	-10720
▁unanim	-10721
entlichen	-10722
lege	-10723
tehen	-10724
▁thre	-10725
igsten	-10726
▁sicherstellen	-10727
ädt	-10728
uttle	-10729
▁Wegen	-10730
▁Spiele	-10731
▁Ca	-10732
üben	-10733
▁conduct	-10734
▁berühmten	-10735
ikte	-10736
▁Two	-10737
▁skin	-10738
▁Que	-10739
▁diesbe	-10740
zahlt	-10741
fangen	-10742
▁Ordnung	-10743
▁parallel	-10744
▁bran	-10745
▁nation	-10746
▁authent	-10747
iry	-10748
▁600	-10749
▁Rem	-10750
▁Ton	-10751
plant	-10752
▁griech	-10753
▁technological	-10754
▁urge	-10755
▁Provin	-10756
▁mechanisms	-10757
verw	-10758
▁Bek	-10759
▁User	-10760
▁drugs	-10761
▁ultim	-10762
reis	-10763
▁doll	-10764
▁Formular	-10765
uries	-10766
▁vorbe	-10767
▁attend	-10768
▁positiven	-10769
▁Minutes	-10770
▁bon	-10771
▁dry	-10772
cin	-10773
▁fed	-10774
gence	-10775
iegen	-10776
▁runs	-10777
griffe	-10778
▁Tiere	-10779
▁corner	-10780
▁verteid	-10781
UM	-10782
▁wall	-10783
jährige	-10784
▁Fälle	-10785
▁helping	-10786
▁schools	-10787
tellectual	-10788
cluding	-10789
ahrt	-10790
▁Flash	-10791
▁knows	-10792
▁belong	-10793
schaffen	-10794
▁Handeln	-10795
▁führenden	-10796
▁Klimawandel	-10797
lesen	-10798
▁mail	-10799
▁Despite	-10800
▁Antworten	-10801
akten	-10802
▁Rock	-10803
folgerungen	-10804
▁OS	-10805
▁Komment	-10806
▁Revolution	-10807
öp	-10808
lles	-10809
▁Ref	-10810
▁Übern	-10811
▁Brazil	-10812
▁Freizeit	-10813
fügt	-10814
▁Stunde	-10815
▁1980	-10816
▁Mach	-10817
stoffen	-10818
▁akzeptiert	-10819
▁Satell	-10820
▁Kollege	-10821
▁delivered	-10822
kret	-10823
▁onto	-10824
▁diversity	-10825
ikas	-10826
▁fand	-10827
grundlage	-10828
▁Hor	-10829
▁Alter	-10830
▁audio	-10831
▁imper	-10832
hrt	-10833
▁experiences	-10834
▁Swed	-10835
▁16.	-10836
fertigt	-10837
iser	-10838
▁welchen	-10839
▁Einklang	-10840
▁launched	-10841
▁willkommen	-10842
▁abgele	-10843
▁bedrooms	-10844
gin	-10845
akers	-10846
metho	-10847
9)	-10848
lause	-10849
▁laut	-10850
▁Minderheiten	-10851
▁EG	-10852
border	-10853
lechter	-10854
▁wiederum	-10855
▁accounts	-10856
MO	-10857
▁Jes	-10858
füllung	-10859
▁mutual	-10860
▁schlecht	-10861
▁verlieren	-10862
▁hall	-10863
▁Champ	-10864
▁Diskussionen	-10865
▁Kunde	-10866
▁grand	-10867
▁starken	-10868
▁Strukturfonds	-10869
▁BM	-10870
▁17.	-10871
▁wait	-10872
▁Kyoto	-10873
▁Stück	-10874
folio	-10875
▁snow	-10876
▁attemp	-10877
kehren	-10878
▁Munich	-10879
▁binding	-10880
▁Aufsicht	-10881
▁Perspekt	-10882
▁gespe	-10883
▁Grundsätze	-10884
iary	-10885
▁Schloss	-10886
▁subsidiar	-10887
Tra	-10888
stat	-10889
▁dict	-10890
▁Autob	-10891
▁Fluss	-10892
▁Bedenken	-10893
AB	-10894
▁Tibet	-10895
▁corrup	-10896
anger	-10897
▁Adresse	-10898
▁leadership	-10899
▁Take	-10900
▁spät	-10901
unsten	-10902
▁fordert	-10903
▁lock	-10904
▁inten	-10905
absicht	-10906
enter	-10907
▁München	-10908
▁Unterschied	-10909
▁Lö	-10910
fare	-10911
▁Klim	-10912
▁Sound	-10913
▁gesellschaft	-10914
▁consultation	-10915
▁Fähigkeit	-10916
ifall	-10917
ieties	-10918
▁noise	-10919
▁marked	-10920
uropäischen	-10921
▁Kombination	-10922
zeß	-10923
izont	-10924
owned	-10925
ätzung	-10926
▁exceed	-10927
▁presentation	-10928
ès	-10929
zed	-10930
▁Amerika	-10931
▁Fenster	-10932
▁default	-10933
▁umgeben	-10934
▁vorgenommen	-10935
iana	-10936
▁rot	-10937
▁Dadurch	-10938
▁kompliz	-10939
essor	-10940
▁sleep	-10941
istribution	-10942
igence	-10943
▁seien	-10944
▁höchst	-10945
▁Wachstums	-10946
▁error	-10947
▁hervorge	-10948
▁requests	-10949
AV	-10950
venue	-10951
▁shape	-10952
▁Voraussetzung	-10953
,"	-10954
▁Sud	-10955
▁Instit	-10956
ährt	-10957
▁Bor	-10958
▁barr	-10959
▁schließen	-10960
sec	-10961
dete	-10962
▁Lou	-10963
▁Rub	-10964
iating	-10965
▁Egypt	-10966
▁trial	-10967
▁Erwach	-10968
▁politisch	-10969
▁überzeugen	-10970
gg	-10971
berecht	-10972
termine	-10973
handlungs	-10974
▁charming	-10975
▁significantly	-10976
zubauen	-10977
▁Schäden	-10978
▁befassen	-10979
▁websites	-10980
▁zustimmen	-10981
sph	-10982
iform	-10983
mechan	-10984
▁genauso	-10985
▁5-	-10986
▁15.	-10987
▁Verfügbarkeit	-10988
▁Fac	-10989
orgnis	-10990
▁straight	-10991
▁reply	-10992
▁bildet	-10993
▁liefern	-10994
▁Technology	-10995
▁improvements	-10996
kurs	-10997
▁vess	-10998
▁Grenze	-10999
▁Johann	-11000
▁zuverläss	-11001
▁Law	-11002
▁keines	-11003
▁Freunde	-11004
▁Zul	-11005
▁David	-11006
▁streets	-11007
▁meist	-11008
▁parad	-11009
▁Player	-11010
▁Pflanzen	-11011
▁landwirtschaft	-11012
▁Berufs	-11013
▁output	-11014
▁Gesetze	-11015
▁leisure	-11016
▁Angebote	-11017
▁systemat	-11018
▁betreffen	-11019
▁compliance	-11020
▁Dienstleistungs	-11021
ulted	-11022
▁trees	-11023
kund	-11024
▁spot	-11025
uj	-11026
▁Time	-11027
▁dele	-11028
▁stone	-11029
igerung	-11030
▁Follow	-11031
▁spezial	-11032
▁Tim	-11033
▁Kong	-11034
▁privacy	-11035
beziehung	-11036
▁existence	-11037
▁0,	-11038
otte	-11039
▁Präs	-11040
▁blood	-11041
▁Unterschiede	-11042
läne	-11043
▁spok	-11044
▁resolve	-11045
▁Untersuchung	-11046
▁eye	-11047
meister	-11048
▁Vision	-11049
EF	-11050
oples	-11051
▁recommended	-11052
▁Definition	-11053
▁läuft	-11054
▁Theater	-11055
▁Reaktion	-11056
reb	-11057
▁Before	-11058
▁100%	-11059
▁birth	-11060
▁treated	-11061
sparte	-11062
pped	-11063
▁konkreten	-11064
▁obligation	-11065
▁dog	-11066
▁2008.	-11067
▁browser	-11068
▁withdraw	-11069
▁Einwanderung	-11070
gro	-11071
▁gewisse	-11072
▁Roh	-11073
▁Skype	-11074
▁piece	-11075
▁exists	-11076
▁Maßnahme	-11077
Chr	-11078
artet	-11079
abilität	-11080
▁expertise	-11081
▁competence	-11082
▁nötig	-11083
▁represented	-11084
▁umfass	-11085
▁Premier	-11086
▁recognise	-11087
3)	-11088
TER	-11089
eds	-11090
geiz	-11091
▁ergriffen	-11092
▁sanctions	-11093
züg	-11094
netz	-11095
erungs	-11096
▁wichtiges	-11097
▁Kreat	-11098
rechten	-11099
▁repeated	-11100
fä	-11101
antly	-11102
▁sights	-11103
▁Sein	-11104
▁Bestell	-11105
▁Zahlungs	-11106
▁Dokumente	-11107
▁120	-11108
▁units	-11109
▁compensation	-11110
▁expectations	-11111
tragung	-11112
▁extension	-11113
oli	-11114
▁cm	-11115
▁Bör	-11116
▁Use	-11117
▁vast	-11118
▁keeping	-11119
▁hoher	-11120
▁sprach	-11121
gebracht	-11122
▁lose	-11123
▁Master	-11124
▁comply	-11125
▁reicht	-11126
▁wenden	-11127
Mitglied	-11128
▁pension	-11129
▁discharge	-11130
▁transform	-11131
ani	-11132
▁ow	-11133
hop	-11134
▁TO	-11135
▁wild	-11136
ilding	-11137
▁Englisch	-11138
▁stations	-11139
▁Eigenschaften	-11140
DS	-11141
▁texts	-11142
▁gestern	-11143
▁Kranken	-11144
▁consistent	-11145
▁permit	-11146
▁entered	-11147
▁Allgemeinen	-11148
▁zeich	-11149
ossen	-11150
ameras	-11151
▁geist	-11152
▁Jack	-11153
▁felt	-11154
abling	-11155
▁Paper	-11156
▁Straf	-11157
▁wirksam	-11158
▁taxes	-11159
uds	-11160
▁sod	-11161
▁Karl	-11162
▁Know	-11163
▁Datenbank	-11164
▁Amts	-11165
▁applicable	-11166
onte	-11167
wood	-11168
▁13.	-11169
▁flat	-11170
▁angep	-11171
▁heavy	-11172
▁objects	-11173
▁emphasis	-11174
zza	-11175
heber	-11176
▁Balt	-11177
▁centres	-11178
▁substances	-11179
▁older	-11180
ispiele	-11181
▁appreciate	-11182
▁proud	-11183
klärung	-11184
▁Konsequ	-11185
größ	-11186
bahnhof	-11187
▁combating	-11188
▁switch	-11189
▁Menü	-11190
▁hair	-11191
stance	-11192
stände	-11193
▁latter	-11194
▁Zugriff	-11195
▁emphasise	-11196
▁relatively	-11197
▁temperature	-11198
spar	-11199
▁whatever	-11200
▁Austausch	-11201
▁fantastic	-11202
uver	-11203
▁arms	-11204
▁Monte	-11205
▁Offen	-11206
▁umfassenden	-11207
ichteten	-11208
▁speakers	-11209
atre	-11210
uste	-11211
▁Genehm	-11212
urd	-11213
▁cold	-11214
▁Gewinn	-11215
▁articles	-11216
mo	-11217
▁Malt	-11218
▁Suite	-11219
▁Registr	-11220
▁advantages	-11221
▁entlang	-11222
▁valuable	-11223
▁Ministers	-11224
wirt	-11225
▁Dafür	-11226
▁configur	-11227
▁thor	-11228
▁alter	-11229
▁gather	-11230
▁abhängig	-11231
▁Exec	-11232
▁verlangen	-11233
▁fir	-11234
▁Holl	-11235
▁beiz	-11236
▁trotzdem	-11237
ischung	-11238
formance	-11239
▁außergewöhn	-11240
behörden	-11241
▁Sanktionen	-11242
▁whe	-11243
▁Plaza	-11244
▁Massen	-11245
▁Director	-11246
▁refugees	-11247
grad	-11248
▁breat	-11249
ml	-11250
vak	-11251
▁erb	-11252
theit	-11253
▁Signal	-11254
▁Schwerpunkt	-11255
▁destination	-11256
▁Fer	-11257
▁rare	-11258
▁Vielleicht	-11259
▁dishes	-11260
▁basiert	-11261
▁Radio	-11262
▁tests	-11263
▁führte	-11264
▁unterschiedlich	-11265
▁engag	-11266
▁scrip	-11267
▁Verträge	-11268
▁deiner	-11269
▁complic	-11270
▁bedeuten	-11271
▁directives	-11272
kop	-11273
pers	-11274
▁Westen	-11275
▁affairs	-11276
▁furniture	-11277
▁involving	-11278
▁naturally	-11279
▁Atom	-11280
▁zuge	-11281
▁Küste	-11282
▁helps	-11283
▁spectac	-11284
▁Bewegung	-11285
Th	-11286
▁Besitz	-11287
uy	-11288
▁MySQL	-11289
▁hostels	-11290
▁threaten	-11291
politischen	-11292
▁1000	-11293
▁senden	-11294
▁bezieht	-11295
▁entertainment	-11296
▁Flä	-11297
▁Ferner	-11298
maschinen	-11299
▁figure	-11300
▁happens	-11301
▁engl	-11302
▁mini	-11303
▁Wahrheit	-11304
▁politicians	-11305
▁PR	-11306
▁Krie	-11307
▁covers	-11308
▁Swedish	-11309
▁koordin	-11310
▁engineering	-11311
ergie	-11312
kommt	-11313
▁plug	-11314
▁Beweis	-11315
▁bekannten	-11316
▁helped	-11317
▁whilst	-11318
▁eur	-11319
▁Original	-11320
▁bureauc	-11321
▁reichen	-11322
▁suffering	-11323
▁Leitlinien	-11324
▁adj	-11325
▁estim	-11326
▁approval	-11327
flug	-11328
▁Erwä	-11329
▁gült	-11330
▁dinner	-11331
▁museum	-11332
▁Strategy	-11333
▁regionale	-11334
teen	-11335
▁operators	-11336
oßen	-11337
▁Airbus	-11338
▁kommun	-11339
▁ziemlich	-11340
▁erscheinen	-11341
▁Set	-11342
▁Strategien	-11343
▁personally	-11344
▁5,	-11345
usal	-11346
▁Safety	-11347
▁höhere	-11348
▁erweitert	-11349
▁historische	-11350
isc	-11351
▁Il	-11352
▁religi	-11353
▁diseases	-11354
▁maß	-11355
andon	-11356
▁entre	-11357
▁geprü	-11358
▁Fremden	-11359
▁Dra	-11360
apter	-11361
▁Empfehlung	-11362
▁arrangements	-11363
▁öffnen	-11364
▁beschrieben	-11365
▁(4	-11366
▁Heiz	-11367
▁Hong	-11368
▁dans	-11369
▁solve	-11370
▁Studenten	-11371
▁betreffenden	-11372
uchte	-11373
fällen	-11374
▁peoples	-11375
▁Verbrechen	-11376
▁respective	-11377
▁bedarf	-11378
▁italienischen	-11379
ati	-11380
isory	-11381
▁Gesicht	-11382
ér	-11383
▁looks	-11384
▁eröffnet	-11385
▁zugänglich	-11386
▁si	-11387
▁Expl	-11388
▁Show	-11389
▁Turn	-11390
▁Zusatz	-11391
gelassen	-11392
▁individuell	-11393
▁od	-11394
▁Pay	-11395
▁aktuell	-11396
▁amounts	-11397
▁intend	-11398
wareness	-11399
▁finding	-11400
▁Landwirte	-11401
rote	-11402
▁Div	-11403
ochen	-11404
▁Hans	-11405
▁zusätzlichen	-11406
▁Welcome	-11407
ettbewerbs	-11408
tellte	-11409
▁equally	-11410
▁Schulden	-11411
86	-11412
reds	-11413
schule	-11414
▁Essen	-11415
▁thorough	-11416
▁weltweiten	-11417
region	-11418
▁voller	-11419
▁beträgt	-11420
▁Kategorie	-11421
▁Mittelpunkt	-11422
▁doesn	-11423
okument	-11424
▁opposed	-11425
▁unmittelbar	-11426
▁danger	-11427
▁outdoor	-11428
▁disaster	-11429
▁pick	-11430
▁cloth	-11431
▁falsch	-11432
▁issued	-11433
▁Beratung	-11434
▁obtained	-11435
▁ye	-11436
code	-11437
▁obst	-11438
actory	-11439
▁Puert	-11440
quellen	-11441
▁entdecken	-11442
▁erhältlich	-11443
ère	-11444
▁Mut	-11445
▁Umweltschutz	-11446
▁inf	-11447
azine	-11448
,”	-11449
▁util	-11450
gendes	-11451
flächen	-11452
▁spring	-11453
▁gefördert	-11454
üren	-11455
essene	-11456
▁exceptional	-11457
▁weather	-11458
▁Anfragen	-11459
ungsbereich	-11460
▁exclusively	-11461
prech	-11462
ventionen	-11463
▁interessiert	-11464
▁favor	-11465
handelt	-11466
▁Profession	-11467
▁schwierigen	-11468
▁OF	-11469
▁Ohne	-11470
▁Refer	-11471
▁Studie	-11472
▁Umgang	-11473
▁repeat	-11474
▁künftig	-11475
▁Berichterstat	-11476
holders	-11477
▁Disc	-11478
acher	-11479
▁jährlich	-11480
▁treaty	-11481
▁Britain	-11482
▁Materialien	-11483
vec	-11484
▁Wirklichkeit	-11485
▁gene	-11486
▁faced	-11487
▁stake	-11488
amerika	-11489
liefert	-11490
weisung	-11491
▁residence	-11492
▁recognised	-11493
zin	-11494
▁exem	-11495
▁fill	-11496
astronom	-11497
▁Ungleich	-11498
▁einerseits	-11499
oria	-11500
neter	-11501
▁Elect	-11502
▁familiar	-11503
▁Nachrichten	-11504
bek	-11505
vol	-11506
class	-11507
ti	-11508
▁Schweden	-11509
▁kulturelle	-11510
▁Erwartungen	-11511
27	-11512
CS	-11513
Se	-11514
räften	-11515
trägen	-11516
▁strugg	-11517
▁journey	-11518
▁qualifiz	-11519
west	-11520
▁newly	-11521
▁Proced	-11522
▁millions	-11523
▁Delegation	-11524
▁delegation	-11525
▁geschrieben	-11526
▁Action	-11527
▁Govern	-11528
▁Schule	-11529
▁fighting	-11530
▁mobility	-11531
win	-11532
▁Ep	-11533
▁Sov	-11534
▁George	-11535
▁kurzem	-11536
▁Erinner	-11537
▁Eisenbahn	-11538
rüstung	-11539
▁zurückge	-11540
▁hervorragende	-11541
▁hilft	-11542
▁bemüht	-11543
▁laufen	-11544
reichung	-11545
▁zweifellos	-11546
ugnisse	-11547
▁protecting	-11548
▁removed	-11549
TS	-11550
▁außen	-11551
▁organizations	-11552
▁tours	-11553
▁zuerst	-11554
chron	-11555
▁Kann	-11556
▁neuesten	-11557
▁Luxembourg	-11558
ito	-11559
pol	-11560
dessen	-11561
▁schönsten	-11562
▁Veranstaltung	-11563
▁grundlegenden	-11564
aul	-11565
▁verf	-11566
▁enthus	-11567
▁stattf	-11568
isierungs	-11569
▁natürlichen	-11570
▁conserv	-11571
▁entspannen	-11572
▁serves	-11573
▁offices	-11574
▁Kandidaten	-11575
GB	-11576
oler	-11577
▁eyes	-11578
▁discovered	-11579
itäre	-11580
▁Ladies	-11581
▁largely	-11582
bauen	-11583
örung	-11584
▁Farb	-11585
urger	-11586
▁niemals	-11587
idden	-11588
▁2011	-11589
▁Wash	-11590
▁Angel	-11591
▁foll	-11592
▁intellectual	-11593
▁Anti	-11594
▁healthy	-11595
wendungen	-11596
▁inzwischen	-11597
uden	-11598
▁Baum	-11599
▁leaving	-11600
▁automatic	-11601
▁eigent	-11602
▁Übersetzung	-11603
▁Tax	-11604
inken	-11605
ingesch	-11606
▁Fahrzeug	-11607
unktions	-11608
hme	-11609
eler	-11610
▁läng	-11611
▁1994	-11612
▁Cook	-11613
▁Sund	-11614
▁Nachfrage	-11615
what	-11616
Programm	-11617
▁criticism	-11618
▁constructive	-11619
▁firstly	-11620
▁ruhigen	-11621
▁Ambiente	-11622
▁Badezimmer	-11623
▁Agrarpolitik	-11624
▁communications	-11625
erte	-11626
ändige	-11627
▁Update	-11628
▁Temperatur	-11629
irk	-11630
iva	-11631
icip	-11632
lieben	-11633
▁Music	-11634
spruchs	-11635
▁determine	-11636
▁einfachen	-11637
izz	-11638
▁MS	-11639
hard	-11640
▁Sauna	-11641
▁couple	-11642
▁Einstellung	-11643
MA	-11644
uens	-11645
▁incent	-11646
uing	-11647
▁Thomas	-11648
▁renewable	-11649
▁involvement	-11650
hi	-11651
arkt	-11652
▁Sens	-11653
umping	-11654
▁volume	-11655
▁surroundings	-11656
▁liberalisation	-11657
▁Robert	-11658
institution	-11659
▁girl	-11660
▁underm	-11661
▁durchzuführen	-11662
ikes	-11663
▁Inf	-11664
▁Year	-11665
▁essen	-11666
▁Hindern	-11667
▁contributions	-11668
én	-11669
▁33	-11670
▁preparation	-11671
▁wesentliche	-11672
▁precise	-11673
▁installiert	-11674
päck	-11675
▁ignor	-11676
▁richten	-11677
▁strategies	-11678
▁Like	-11679
▁Their	-11680
▁officials	-11681
▁impressive	-11682
▁funktionieren	-11683
▁characteristics	-11684
einrichtungen	-11685
obe	-11686
andal	-11687
uführen	-11688
-/	-11689
inos	-11690
▁handling	-11691
iga	-11692
finanz	-11693
▁sofern	-11694
▁eigenes	-11695
▁Alternative	-11696
verletz	-11697
▁lovely	-11698
▁balcony	-11699
▁inhabit	-11700
▁mandate	-11701
▁besitzen	-11702
▁anwes	-11703
trieben	-11704
▁cry	-11705
deten	-11706
ändler	-11707
looking	-11708
stehenden	-11709
▁contracts	-11710
▁Four	-11711
▁illustr	-11712
▁controll	-11713
▁cer	-11714
▁hit	-11715
▁kommer	-11716
▁Croatia	-11717
▁Wil	-11718
freie	-11719
▁direkte	-11720
▁creative	-11721
gesundheit	-11722
▁SO	-11723
▁Engine	-11724
▁Meinungs	-11725
abwe	-11726
▁Nap	-11727
▁Ren	-11728
▁boat	-11729
▁soft	-11730
▁passengers	-11731
▁anschließen	-11732
not	-11733
Vers	-11734
▁GDP	-11735
▁Grad	-11736
▁Kapaz	-11737
behörde	-11738
▁happening	-11739
▁Frü	-11740
▁gezogen	-11741
▁abgelehnt	-11742
iday	-11743
▁impression	-11744
▁Dauer	-11745
▁chain	-11746
▁increases	-11747
▁Ausgangspunkt	-11748
▁rank	-11749
ateful	-11750
▁gender	-11751
▁beträcht	-11752
▁schreiben	-11753
▁Überzeugung	-11754
▁ausgesprochen	-11755
▁Termin	-11756
▁prohib	-11757
▁confirmed	-11758
▁operational	-11759
▁entscheidend	-11760
holen	-11761
ählte	-11762
▁2008,	-11763
▁Geräte	-11764
▁beraten	-11765
▁traditions	-11766
95	-11767
TML	-11768
opt	-11769
▁Ungar	-11770
▁Verbesserungen	-11771
rufen	-11772
▁musste	-11773
▁obstac	-11774
▁collective	-11775
▁restrictions	-11776
26	-11777
aal	-11778
▁Bauern	-11779
▁abroad	-11780
▁reserve	-11781
▁weshalb	-11782
aser	-11783
gemäß	-11784
▁Burg	-11785
arl	-11786
▁14.	-11787
iones	-11788
▁sorgt	-11789
▁Normen	-11790
▁acquis	-11791
▁grundlegende	-11792
▁Vir	-11793
wachstum	-11794
▁Sad	-11795
achte	-11796
▁Küsten	-11797
▁awareness	-11798
▁Life	-11799
nischen	-11800
▁fühlen	-11801
▁höchsten	-11802
▁riesigen	-11803
bil	-11804
▁decis	-11805
▁debates	-11806
dire	-11807
▁vous	-11808
▁achten	-11809
▁lautet	-11810
▁remaining	-11811
▁präsentiert	-11812
100	-11813
▁mur	-11814
steuer	-11815
▁letzt	-11816
▁reden	-11817
▁hospit	-11818
▁bekämpfen	-11819
▁coher	-11820
▁kombin	-11821
▁offenen	-11822
▁universal	-11823
▁verändert	-11824
stood	-11825
▁bezug	-11826
▁maintained	-11827
▁ursprünglichen	-11828
loyed	-11829
service	-11830
▁Papier	-11831
▁Geschmack	-11832
enturen	-11833
▁Beispiele	-11834
ighten	-11835
▁suite	-11836
▁gelegt	-11837
▁übernimmt	-11838
▁organisiert	-11839
▁Caf	-11840
▁GNU	-11841
apest	-11842
▁Mall	-11843
▁getr	-11844
▁accom	-11845
erse	-11846
tedly	-11847
unicip	-11848
▁walls	-11849
▁spanischen	-11850
lastung	-11851
▁license	-11852
▁künftigen	-11853
▁Ty	-11854
▁USD	-11855
reuung	-11856
▁Kroat	-11857
▁Gentoo	-11858
▁resolutions	-11859
entions	-11860
▁commun	-11861
▁gewalt	-11862
▁detaill	-11863
▁temporary	-11864
▁Ausstattung	-11865
▁ausgezeichnete	-11866
▁gewonnen	-11867
▁Nahrungsmittel	-11868
▁MEPs	-11869
wirkung	-11870
▁Angst	-11871
light	-11872
▁advoc	-11873
▁aufzunehmen	-11874
85	-11875
ichtbar	-11876
▁schwar	-11877
▁identify	-11878
▁intensiv	-11879
▁renovated	-11880
märkte	-11881
Adresse	-11882
▁creates	-11883
▁requirement	-11884
▁Optim	-11885
▁kurze	-11886
legungen	-11887
▁Instead	-11888
▁Viertel	-11889
▁sla	-11890
▁Tagung	-11891
▁verlangt	-11892
▁Stahl	-11893
▁lobby	-11894
▁2007.	-11895
▁faith	-11896
▁schwed	-11897
▁sexual	-11898
▁Weiß	-11899
▁album	-11900
▁cancel	-11901
▁Bulgaria	-11902
▁Problems	-11903
▁Box	-11904
macht	-11905
table	-11906
▁abol	-11907
▁laden	-11908
▁parents	-11909
▁witness	-11910
▁Reisen	-11911
▁remote	-11912
▁Garantie	-11913
▁erlauben	-11914
werb	-11915
▁Tel	-11916
▁Town	-11917
zellen	-11918
▁Armen	-11919
▁depends	-11920
▁Lim	-11921
▁älter	-11922
▁Tschech	-11923
▁Executive	-11924
▁2.0	-11925
forschung	-11926
▁GU	-11927
▁alarm	-11928
▁Brasil	-11929
▁anstatt	-11930
▁interessant	-11931
▁Kommun	-11932
new	-11933
inational	-11934
▁Struct	-11935
fined	-11936
▁gold	-11937
▁Jedes	-11938
grenzung	-11939
▁conflicts	-11940
▁Harmonisierung	-11941
oni	-11942
▁UNO	-11943
▁Arme	-11944
▁veran	-11945
▁verändern	-11946
▁answers	-11947
▁catalog	-11948
▁president	-11949
▁Verd	-11950
▁recommendation	-11951
td	-11952
▁Polish	-11953
▁trifft	-11954
▁Konsens	-11955
▁Verfahrens	-11956
TR	-11957
krit	-11958
▁Bucht	-11959
▁Marina	-11960
▁gets	-11961
▁Procedure	-11962
▁verursacht	-11963
ci	-11964
anen	-11965
rating	-11966
▁inspir	-11967
▁Sat	-11968
ziplin	-11969
▁Gegend	-11970
▁menschlichen	-11971
aling	-11972
rohung	-11973
▁dritte	-11974
▁BSE	-11975
▁sin	-11976
▁Franc	-11977
▁Canada	-11978
▁breite	-11979
▁pattern	-11980
▁schnelle	-11981
adow	-11982
äumt	-11983
▁Verk	-11984
meldung	-11985
▁reserves	-11986
vant	-11987
▁phen	-11988
schirm	-11989
▁owner	-11990
▁appoint	-11991
mes	-11992
▁Ret	-11993
▁Halb	-11994
inuier	-11995
▁gratulieren	-11996
▁unfor	-11997
▁messages	-11998
▁facilitate	-11999
▁EP	-12000
▁ster	-12001
▁define	-12002
▁legend	-12003
▁Kontext	-12004
▁Steuern	-12005
▁Japanese	-12006
▁Internets	-12007
▁extraordin	-12008
ipel	-12009
▁Export	-12010
▁beseit	-12011
▁dining	-12012
▁abandon	-12013
▁rapporteurs	-12014
aller	-12015
cohol	-12016
▁irre	-12017
▁Indones	-12018
▁Geschäft	-12019
▁ausgezeichneten	-12020
täus	-12021
36	-12022
rd	-12023
uite	-12024
ließt	-12025
ucher	-12026
▁leistungs	-12027
▁dich	-12028
▁stimmt	-12029
▁contrast	-12030
far	-12031
▁List	-12032
▁soweit	-12033
▁Behinder	-12034
▁Arbeitsplatz	-12035
▁Zentr	-12036
▁joined	-12037
▁angesehen	-12038
wald	-12039
▁topic	-12040
▁gelöst	-12041
▁charges	-12042
▁fordere	-12043
▁opinions	-12044
▁enh	-12045
▁Award	-12046
▁Balkan	-12047
▁Mangel	-12048
▁Camping	-12049
▁Festlegung	-12050
▁Canon	-12051
▁Through	-12052
▁starten	-12053
gä	-12054
▁cab	-12055
istern	-12056
uliert	-12057
material	-12058
▁drawing	-12059
▁properties	-12060
iera	-12061
angebot	-12062
▁involve	-12063
▁returned	-12064
▁auftreten	-12065
▁regulatory	-12066
▁Übereinstimmung	-12067
asche	-12068
▁Krisen	-12069
▁career	-12070
▁Bestellung	-12071
▁Hostelsclub	-12072
Man	-12073
bro	-12074
▁Brand	-12075
▁Rumänien	-12076
▁supposed	-12077
▁transportation	-12078
modell	-12079
▁reported	-12080
▁Gestaltung	-12081
erechtigkeit	-12082
▁Word	-12083
▁meat	-12084
▁zählt	-12085
▁bekomm	-12086
▁Standort	-12087
zne	-12088
ährung	-12089
▁Regen	-12090
ätigung	-12091
▁Nic	-12092
▁Pia	-12093
▁Wähl	-12094
▁Polizei	-12095
standards	-12096
▁900	-12097
▁Prin	-12098
▁Prop	-12099
center	-12100
▁ought	-12101
▁annehmen	-12102
▁interior	-12103
▁umzusetzen	-12104
kur	-12105
▁east	-12106
ju	-12107
führte	-12108
-4	-12109
▁Strukturen	-12110
▁Zentralbank	-12111
▁ausgeschlossen	-12112
gänge	-12113
▁Wild	-12114
▁metal	-12115
▁Einheit	-12116
▁Abschnitt	-12117
aled	-12118
▁smo	-12119
grenzen	-12120
▁Planung	-12121
izer	-12122
▁recip	-12123
▁grateful	-12124
34	-12125
ef	-12126
deb	-12127
▁({{	-12128
▁Nahen	-12129
▁Solar	-12130
▁customs	-12131
▁zufolge	-12132
▁hervorheben	-12133
▁schne	-12134
orie	-12135
▁NGO	-12136
azier	-12137
▁load	-12138
▁towns	-12139
▁sodass	-12140
▁settings	-12141
▁dark	-12142
▁volunt	-12143
▁ausgewogen	-12144
läut	-12145
▁artist	-12146
▁mögliche	-12147
berge	-12148
▁sauna	-12149
▁perfekt	-12150
ivals	-12151
stanz	-12152
▁Secret	-12153
▁northern	-12154
ML	-12155
arma	-12156
liste	-12157
▁Urspr	-12158
▁consc	-12159
▁conducted	-12160
osis	-12161
banken	-12162
▁Erholung	-12163
▁Ausführung	-12164
▁Protection	-12165
bart	-12166
▁trib	-12167
ittees	-12168
▁Hohen	-12169
▁Sonne	-12170
▁hostel	-12171
▁notwendige	-12172
▁Krankheiten	-12173
▁Gleichgewicht	-12174
▁Ski	-12175
Produ	-12176
▁hundreds	-12177
▁frequently	-12178
▁Tatsächlich	-12179
cles	-12180
lieb	-12181
▁Luf	-12182
▁Trag	-12183
▁Vice	-12184
▁iron	-12185
▁Inner	-12186
▁prove	-12187
▁Umfeld	-12188
▁verständ	-12189
▁Stabilitäts	-12190
▁verschiedener	-12191
äger	-12192
▁Himm	-12193
▁heat	-12194
▁cable	-12195
▁einig	-12196
▁Punkten	-12197
▁Agricult	-12198
28	-12199
uese	-12200
▁zut	-12201
igend	-12202
ypern	-12203
arat	-12204
▁Wolf	-12205
▁mitten	-12206
▁schafft	-12207
▁decorated	-12208
▁erheblich	-12209
▁solar	-12210
▁Maastr	-12211
▁proved	-12212
▁uneingesch	-12213
▁Zuständigkeit	-12214
BS	-12215
gut	-12216
ties	-12217
▁Late	-12218
▁präz	-12219
passen	-12220
▁Hilfs	-12221
▁Monetary	-12222
ifies	-12223
▁Noch	-12224
▁Geheim	-12225
▁Max	-12226
▁Ware	-12227
▁gebaut	-12228
▁continent	-12229
▁aufgefordert	-12230
▁Vorschlägen	-12231
▁push	-12232
▁verstanden	-12233
▁fee	-12234
▁erör	-12235
▁geprä	-12236
▁destru	-12237
▁Washington	-12238
▁Ausführungen	-12239
ößen	-12240
▁Access	-12241
▁abgesch	-12242
▁Drittländern	-12243
▁entschlossen	-12244
schäd	-12245
▁Funds	-12246
uminium	-12247
▁derart	-12248
rett	-12249
▁drop	-12250
ruppen	-12251
▁electricity	-12252
iftung	-12253
▁Subsid	-12254
▁faster	-12255
▁Europol	-12256
▁islands	-12257
▁Ausstellung	-12258
uers	-12259
▁Eis	-12260
water	-12261
▁Viet	-12262
▁Fähigkeiten	-12263
▁parliaments	-12264
ación	-12265
▁unent	-12266
▁worse	-12267
▁mother	-12268
▁verhindert	-12269
üler	-12270
▁interv	-12271
▁einzigartige	-12272
einen	-12273
▁avec	-12274
minuten	-12275
▁driver	-12276
▁ehrgeiz	-12277
▁performed	-12278
▁verabschied	-12279
▁Schlafzimmer	-12280
▁Infl	-12281
▁castle	-12282
▁geprüft	-12283
▁parlament	-12284
▁kontinuier	-12285
▁verabschiedet	-12286
col	-12287
▁ermut	-12288
▁Aktien	-12289
Fl	-12290
▁Fü	-12291
care	-12292
▁Gener	-12293
▁Lager	-12294
▁updated	-12295
▁vereinbar	-12296
▁Kat	-12297
point	-12298
▁cash	-12299
decken	-12300
iessen	-12301
▁Cyprus	-12302
▁buchen	-12303
▁classic	-12304
▁demanding	-12305
cor	-12306
weite	-12307
▁Prüf	-12308
▁Vater	-12309
essions	-12310
▁arrive	-12311
ergeb	-12312
▁kurzen	-12313
▁unmöglich	-12314
▁Buchung	-12315
▁investors	-12316
▁Übereinkommen	-12317
otive	-12318
▁Block	-12319
▁Quark	-12320
▁dates	-12321
▁hängt	-12322
▁father	-12323
▁seeing	-12324
pen	-12325
minute	-12326
▁regularly	-12327
▁statistics	-12328
▁österreich	-12329
▁bud	-12330
erten	-12331
▁Blut	-12332
▁Dusche	-12333
▁vacation	-12334
▁Rent	-12335
▁Wird	-12336
▁verbringen	-12337
%,	-12338
▁AP	-12339
agers	-12340
orama	-12341
▁erwähn	-12342
▁phenomen	-12343
udes	-12344
▁Ath	-12345
kreis	-12346
▁gone	-12347
▁enfor	-12348
▁react	-12349
onymous	-12350
▁Plenum	-12351
▁Vermögen	-12352
▁Automobil	-12353
▁tail	-12354
mitten	-12355
▁Verring	-12356
▁Schatten	-12357
▁ultimately	-12358
iny	-12359
▁34	-12360
▁Partners	-12361
▁zentralen	-12362
gie	-12363
▁sehe	-12364
▁gewissen	-12365
▁emergency	-12366
▁durchführen	-12367
related	-12368
▁minority	-12369
▁beabsicht	-12370
aine	-12371
reffen	-12372
▁contacts	-12373
▁ungefähr	-12374
▁collect	-12375
▁früheren	-12376
▁hardware	-12377
örd	-12378
orca	-12379
isses	-12380
▁Anton	-12381
▁zuständigen	-12382
▁seat	-12383
▁worry	-12384
▁protest	-12385
▁Kilometer	-12386
▁zugunsten	-12387
▁relaxation	-12388
It	-12389
▁deals	-12390
OW	-12391
ror	-12392
▁Audio	-12393
▁Redner	-12394
▁drivers	-12395
▁Websites	-12396
▁IV	-12397
organ	-12398
▁Empf	-12399
▁amaz	-12400
▁Straß	-12401
▁invite	-12402
▁derartige	-12403
▁37	-12404
▁Temp	-12405
▁focused	-12406
▁Anbieter	-12407
▁Kohäsion	-12408
▁ausgezeichnet	-12409
но	-12410
▁definiert	-12411
▁nachhaltigen	-12412
▁youth	-12413
▁Training	-12414
▁entrance	-12415
▁techniques	-12416
▁Arbeitsplätzen	-12417
etzten	-12418
▁starts	-12419
▁welfare	-12420
▁tourists	-12421
▁Vier	-12422
▁WLAN	-12423
▁Zwei	-12424
▁Deutschen	-12425
▁inhabitants	-12426
▁Li	-12427
▁Är	-12428
teilungen	-12429
▁migration	-12430
▁Einbeziehung	-12431
lässlich	-12432
▁declaration	-12433
▁label	-12434
▁heritage	-12435
▁commission	-12436
▁wettbewerbs	-12437
▁jetz	-12438
▁2007,	-12439
wechs	-12440
▁Food	-12441
liothek	-12442
▁presents	-12443
▁Framework	-12444
▁beglückwünschen	-12445
▁flights	-12446
▁kämpfen	-12447
▁terrorist	-12448
▁hinzufügen	-12449
▁suites	-12450
▁Edition	-12451
▁geboren	-12452
lared	-12453
▁newsp	-12454
ältigen	-12455
▁mostly	-12456
▁visual	-12457
tendlich	-12458
▁follows	-12459
gestellten	-12460
▁organized	-12461
▁ausgestatte	-12462
aun	-12463
aux	-12464
ibar	-12465
ausend	-12466
▁Taiwan	-12467
▁aufnehmen	-12468
iox	-12469
▁king	-12470
▁Milch	-12471
▁Vorbe	-12472
▁divided	-12473
▁holding	-12474
züge	-12475
▁Jer	-12476
▁beschränkt	-12477
▁Mold	-12478
▁Kreuz	-12479
▁lebens	-12480
▁quarter	-12481
▁accompan	-12482
ns	-12483
▁Earth	-12484
▁noted	-12485
▁library	-12486
ätigkeiten	-12487
▁intensive	-12488
erkennen	-12489
zeichnis	-12490
▁involves	-12491
▁connections	-12492
▁interessante	-12493
attung	-12494
▁bezahlen	-12495
würdigkeit	-12496
▁Kompetenz	-12497
▁Copenhagen	-12498
▁produziert	-12499
▁erleichtern	-12500
erin	-12501
▁visa	-12502
▁ticket	-12503
▁widely	-12504
▁stylish	-12505
▁Drittens	-12506
▁displayed	-12507
▁Vorschlags	-12508
ete	-12509
orter	-12510
▁Polit	-12511
▁bottom	-12512
scheidet	-12513
▁magnific	-12514
▁bilateral	-12515
ées	-12516
cean	-12517
▁awa	-12518
▁Ersatz	-12519
▁bestätigen	-12520
▁maintaining	-12521
▁entwickelten	-12522
▁vollständige	-12523
stud	-12524
▁Regime	-12525
▁Ausgabe	-12526
▁channels	-12527
▁Subsidiar	-12528
▁supplement	-12529
▁Farbe	-12530
▁showing	-12531
▁corresponding	-12532
▁stored	-12533
▁accident	-12534
▁Kas	-12535
werks	-12536
▁Semin	-12537
▁Hostel	-12538
▁aftern	-12539
▁valley	-12540
▁expansion	-12541
▁string	-12542
▁locations	-12543
kohol	-12544
▁ball	-12545
▁proof	-12546
▁Ziffer	-12547
▁producing	-12548
▁außerordentlich	-12549
39	-12550
▁PRO	-12551
▁tatsäch	-12552
▁geä	-12553
▁Whether	-12554
▁pollution	-12555
▁Mode	-12556
unning	-12557
diction	-12558
▁windows	-12559
▁Gründung	-12560
▁Besonders	-12561
▁kurzfrist	-12562
▁refr	-12563
▁Wünsche	-12564
▁courage	-12565
▁chinesischen	-12566
schm	-12567
▁cosy	-12568
har	-12569
lichung	-12570
▁bestehende	-12571
▁categories	-12572
▁collaboration	-12573
level	-12574
▁behavi	-12575
▁explore	-12576
▁Bildungs	-12577
▁Gesetzes	-12578
▁sorgfältig	-12579
▁multinational	-12580
usted	-12581
▁Schuld	-12582
▁entdeck	-12583
▁vorange	-12584
▁subsidies	-12585
ruh	-12586
▁drug	-12587
▁wann	-12588
▁begrüßt	-12589
AF	-12590
vertre	-12591
▁Mexico	-12592
▁Budapest	-12593
▁erreichbar	-12594
CHT	-12595
▁Holid	-12596
▁Author	-12597
▁Nos	-12598
▁ethnic	-12599
▁spoken	-12600
▁somewhat	-12601
▁KMU	-12602
onien	-12603
▁Network	-12604
▁geboten	-12605
beauftrag	-12606
▁serviert	-12607
▁bestimmen	-12608
Star	-12609
mäßige	-12610
▁distingu	-12611
▁legt	-12612
▁symp	-12613
▁stars	-12614
▁AD	-12615
well	-12616
▁Tarif	-12617
▁freiwill	-12618
▁Freiheiten	-12619
▁demonstrate	-12620
▁anspruchs	-12621
etzte	-12622
▁Wesent	-12623
▁welchem	-12624
32	-12625
pg	-12626
▁–,	-12627
▁privat	-12628
▁visiting	-12629
▁understood	-12630
oden	-12631
▁direkten	-12632
▁exciting	-12633
▁facility	-12634
gor	-12635
▁Feuer	-12636
▁wollten	-12637
kontrolle	-12638
199	-12639
▁Friday	-12640
▁personnel	-12641
▁Portuguese	-12642
▁ven	-12643
▁solange	-12644
hörigen	-12645
▁verschw	-12646
▁Faktoren	-12647
▁department	-12648
▁Verringerung	-12649
▁James	-12650
▁dream	-12651
▁Haftung	-12652
▁Partnern	-12653
▁inflation	-12654
▁Prinzipien	-12655
▁Ltd	-12656
▁Jede	-12657
▁Orte	-12658
iented	-12659
entwurf	-12660
▁nights	-12661
▁Speicher	-12662
gemeinschaft	-12663
▁ordnungs	-12664
▁delighted	-12665
▁demonstrated	-12666
ignet	-12667
▁antw	-12668
▁mitge	-12669
▁Aktual	-12670
▁Fleisch	-12671
nor	-12672
▁6,	-12673
▁awarded	-12674
ifizieren	-12675
▁Congress	-12676
▁passiert	-12677
▁Gesellschaften	-12678
ammeln	-12679
▁Sorgen	-12680
▁pieces	-12681
▁38	-12682
▁Bö	-12683
rical	-12684
ography	-12685
▁Gemeinde	-12686
▁beschleun	-12687
▁sad	-12688
▁ferner	-12689
▁visited	-12690
▁beeindruck	-12691
▁Bemerkungen	-12692
▁angemessene	-12693
▁Vereinbarungen	-12694
▁carbon	-12695
▁nahezu	-12696
▁maritime	-12697
▁protocol	-12698
▁Sony	-12699
▁breit	-12700
▁Dipl	-12701
▁Gipf	-12702
▁Freit	-12703
▁Gewicht	-12704
▁Individ	-12705
▁ongoing	-12706
▁UR	-12707
▁sac	-12708
liegt	-12709
▁Dynam	-12710
▁spectacular	-12711
rovers	-12712
▁Asien	-12713
▁Legal	-12714
▁AV	-12715
▁Brenn	-12716
▁verehrte	-12717
▁Fa	-12718
icer	-12719
Christ	-12720
▁depending	-12721
rak	-12722
▁stopp	-12723
▁kontakt	-12724
▁Beiträge	-12725
▁Gerichte	-12726
▁entsteht	-12727
▁constitution	-12728
▁Mem	-12729
▁jegliche	-12730
aya	-12731
ikaner	-12732
▁Kamera	-12733
▁explicit	-12734
▁replaced	-12735
▁verleihen	-12736
▁ausgesetzt	-12737
tein	-12738
▁milk	-12739
▁Legisl	-12740
▁fertig	-12741
▁restruct	-12742
▁Geschäfte	-12743
imedia	-12744
▁westlichen	-12745
▁staatlichen	-12746
eta	-12747
oub	-12748
▁Naz	-12749
langen	-12750
▁bilater	-12751
▁rational	-12752
bi	-12753
▁1970	-12754
▁Fair	-12755
▁münd	-12756
▁gardens	-12757
▁visible	-12758
▁Deswegen	-12759
▁abgestimmt	-12760
▁individuelle	-12761
Spe	-12762
mäßigen	-12763
▁Abhäng	-12764
▁Balkon	-12765
▁Förder	-12766
▁Persön	-12767
▁tickets	-12768
▁controlled	-12769
Ad	-12770
fuhr	-12771
▁Boot	-12772
▁gezwungen	-12773
▁Pact	-12774
iences	-12775
undert	-12776
▁Chancen	-12777
▁heating	-12778
▁verbind	-12779
160	-12780
▁2010,	-12781
▁input	-12782
▁Verbot	-12783
▁Zypern	-12784
}})	-12785
ulin	-12786
urlaub	-12787
▁facts	-12788
▁films	-12789
▁echten	-12790
maschine	-12791
schriften	-12792
▁verringern	-12793
icans	-12794
▁Vict	-12795
▁Games	-12796
▁wines	-12797
▁effectiveness	-12798
▁McC	-12799
▁Klar	-12800
▁preis	-12801
▁Prague	-12802
▁imposed	-12803
life	-12804
▁era	-12805
▁Kräfte	-12806
ausschuß	-12807
▁documentation	-12808
ulen	-12809
usse	-12810
iefer	-12811
▁SMEs	-12812
ochter	-12813
ughter	-12814
▁Given	-12815
▁Videos	-12816
▁verwand	-12817
▁rub	-12818
▁Child	-12819
gerufen	-12820
▁Vorgehen	-12821
▁55	-12822
▁95	-12823
mens	-12824
▁sah	-12825
▁theoret	-12826
▁Palästinens	-12827
fit	-12828
igu	-12829
▁tar	-12830
weile	-12831
▁Question	-12832
▁forg	-12833
▁prest	-12834
▁Führer	-12835
▁Betr	-12836
▁Baltic	-12837
▁adopting	-12838
▁centuries	-12839
▁Maastricht	-12840
ulpt	-12841
▁Bars	-12842
▁Spazier	-12843
▁ersetzt	-12844
▁Description	-12845
49	-12846
sieht	-12847
▁Malta	-12848
▁theme	-12849
arische	-12850
▁Beziehung	-12851
▁resistance	-12852
cons	-12853
▁Luc	-12854
▁Anre	-12855
▁fuer	-12856
▁heutige	-12857
▁berechtigt	-12858
▁Krimin	-12859
▁kostet	-12860
▁Investitions	-12861
Art	-12862
Room	-12863
▁Gepäck	-12864
▁palästinens	-12865
▁fab	-12866
▁Dass	-12867
▁autonom	-12868
▁speaker	-12869
▁vorlegen	-12870
▁gespeichert	-12871
▁geltenden	-12872
▁Ten	-12873
▁streng	-12874
▁Schweizer	-12875
▁minorities	-12876
ups	-12877
▁HD	-12878
holm	-12879
▁50%	-12880
▁Zür	-12881
usehen	-12882
▁Schrift	-12883
▁Identität	-12884
▁Mobilität	-12885
beziehungen	-12886
▁Opposition	-12887
▁verurteilt	-12888
NA	-12889
на	-12890
jan	-12891
▁Equ	-12892
▁nine	-12893
Service	-12894
▁plenty	-12895
▁gegebenen	-12896
liers	-12897
▁Franz	-12898
▁geräum	-12899
▁concluded	-12900
▁occasions	-12901
▁grundsätzlich	-12902
▁ER	-12903
▁Page	-12904
▁Webseiten	-12905
ulf	-12906
▁Shop	-12907
▁oral	-12908
▁cutting	-12909
▁rechtlichen	-12910
fragt	-12911
▁signs	-12912
▁confer	-12913
▁Gespräche	-12914
▁Kommunikations	-12915
agg	-12916
▁Hof	-12917
▁Mikro	-12918
▁Format	-12919
▁Zwecke	-12920
▁prosper	-12921
▁subsidiarity	-12922
ás	-12923
bach	-12924
günst	-12925
IDS	-12926
▁flu	-12927
geräte	-12928
▁Anmer	-12929
▁Vietnam	-12930
▁indicated	-12931
▁considering	-12932
ultural	-12933
uchs	-12934
▁arm	-12935
▁forum	-12936
produkte	-12937
▁höheren	-12938
chst	-12939
ifest	-12940
▁spezifischen	-12941
oot	-12942
▁Wei	-12943
demark	-12944
▁crimes	-12945
▁(5	-12946
▁Liter	-12947
▁Niger	-12948
▁Korrup	-12949
▁fitness	-12950
▁gewährt	-12951
icherungs	-12952
pping	-12953
▁Reis	-12954
▁Zert	-12955
Intern	-12956
▁assume	-12957
national	-12958
▁profile	-12959
technolog	-12960
▁settlement	-12961
▁organisieren	-12962
▁didn	-12963
häuser	-12964
▁behalten	-12965
▁smooth	-12966
▁Interess	-12967
TC	-12968
▁fem	-12969
hrten	-12970
▁Road	-12971
▁trop	-12972
▁Slovak	-12973
▁finished	-12974
▁credibility	-12975
▁Mas	-12976
▁Medik	-12977
▁Symbol	-12978
bekämpfung	-12979
▁MB	-12980
▁Michel	-12981
▁planet	-12982
kommunik	-12983
▁Israeli	-12984
▁replace	-12985
estr	-12986
herr	-12987
▁Ferr	-12988
▁Wart	-12989
▁worksh	-12990
▁eingere	-12991
▁Amendments	-12992
zent	-12993
nitten	-12994
▁Perhaps	-12995
▁rapidly	-12996
hips	-12997
klass	-12998
▁flag	-12999
▁neun	-13000
▁Indian	-13001
▁Werbung	-13002
▁gespielt	-13003
▁printing	-13004
▁traditionelle	-13005
Form	-13006
▁Structural	-13007
▁AM	-13008
▁plen	-13009
▁lounge	-13010
▁erinnert	-13011
▁trafficking	-13012
▁transatlant	-13013
kter	-13014
cepts	-13015
immungs	-13016
▁bemühen	-13017
▁careful	-13018
IX	-13019
▁DE	-13020
▁firms	-13021
▁Browser	-13022
izza	-13023
klusive	-13024
▁Respekt	-13025
OP	-13026
▁Genau	-13027
▁cycle	-13028
▁oblige	-13029
▁ensures	-13030
▁Abkommens	-13031
▁definitely	-13032
▁Verbindungen	-13033
▁entscheidende	-13034
▁Staff	-13035
▁virtual	-13036
▁afternoon	-13037
▁Komponenten	-13038
▁educational	-13039
▁nachzu	-13040
▁destruction	-13041
.-	-13042
chnung	-13043
ameters	-13044
▁Roll	-13045
▁diagn	-13046
▁enjoyed	-13047
▁verbinden	-13048
▁Insbesondere	-13049
Des	-13050
▁ped	-13051
kehrt	-13052
ulich	-13053
▁Beam	-13054
▁Spaß	-13055
▁Provinz	-13056
▁desired	-13057
▁verdient	-13058
▁Besorgnis	-13059
▁Einwohner	-13060
▁raw	-13061
dauer	-13062
hängen	-13063
▁Konzer	-13064
▁scheme	-13065
▁angewand	-13066
▁foundation	-13067
ammt	-13068
▁Dev	-13069
▁sud	-13070
techn	-13071
▁1992	-13072
schluß	-13073
▁copyright	-13074
▁woman	-13075
ivalent	-13076
▁weekend	-13077
▁Politiken	-13078
▁Who	-13079
zentren	-13080
▁Puerto	-13081
▁Within	-13082
▁uncertain	-13083
▁Situ	-13084
▁2006.	-13085
▁partly	-13086
▁citizen	-13087
behandlung	-13088
▁Projekten	-13089
▁IB	-13090
Vert	-13091
▁Ext	-13092
▁Pot	-13093
▁klaren	-13094
▁Vorstellung	-13095
▁erfolgreiche	-13096
33	-13097
▁Ib	-13098
teils	-13099
▁frame	-13100
▁overcome	-13101
▁passenger	-13102
▁globalisation	-13103
▁BIP	-13104
uster	-13105
▁Adobe	-13106
lehnung	-13107
▁Verlauf	-13108
▁respected	-13109
▁Hen	-13110
▁Moz	-13111
▁inj	-13112
▁proven	-13113
▁tackle	-13114
▁Project	-13115
▁possibly	-13116
▁verkaufen	-13117
▁Serie	-13118
▁äußern	-13119
▁Hungary	-13120
▁ausgeführt	-13121
▁immigrants	-13122
rates	-13123
▁popul	-13124
▁discre	-13125
▁rental	-13126
▁gestaltet	-13127
▁accompanied	-13128
gess	-13129
▁died	-13130
useums	-13131
▁Werke	-13132
▁behaviour	-13133
▁Verbreitung	-13134
pet	-13135
▁Pub	-13136
▁Bord	-13137
aching	-13138
freien	-13139
▁Versand	-13140
▁corruption	-13141
▁Außenpolitik	-13142
bsp	-13143
▁2006,	-13144
▁Donner	-13145
▁Zielen	-13146
▁assets	-13147
▁termin	-13148
▁Argument	-13149
Strategie	-13150
▁Gefahren	-13151
▁WC	-13152
örter	-13153
▁Northern	-13154
▁alcohol	-13155
▁arrived	-13156
▁manager	-13157
▁Freunden	-13158
▁übrigens	-13159
▁addresses	-13160
▁competent	-13161
WF	-13162
emble	-13163
wirkt	-13164
▁Bemerkung	-13165
▁containing	-13166
wege	-13167
athem	-13168
▁Preisen	-13169
▁horizont	-13170
▁minister	-13171
▁committees	-13172
▁vorhandenen	-13173
▁professionals	-13174
▁Plug	-13175
▁ruhig	-13176
UNG	-13177
▁65	-13178
▁sending	-13179
UL	-13180
mir	-13181
nex	-13182
ockt	-13183
durch	-13184
▁eastern	-13185
▁Energien	-13186
▁Salzburg	-13187
▁compatible	-13188
▁conditioning	-13189
▁Terra	-13190
▁Konstru	-13191
▁recorded	-13192
▁Begr	-13193
▁Desk	-13194
▁Putin	-13195
▁division	-13196
▁Alexander	-13197
▁Kirk	-13198
prozess	-13199
▁erläut	-13200
▁Sollten	-13201
▁einfacher	-13202
rock	-13203
▁Konsult	-13204
▁nunmehr	-13205
NS	-13206
mung	-13207
ziele	-13208
▁Laut	-13209
▁israel	-13210
▁letztlich	-13211
oche	-13212
▁sit	-13213
▁thr	-13214
▁Tsch	-13215
wertet	-13216
▁beruht	-13217
▁bekräft	-13218
▁suspend	-13219
▁verbesser	-13220
▁Dal	-13221
▁Vize	-13222
▁usual	-13223
▁Verlust	-13224
schaffung	-13225
uben	-13226
▁700	-13227
▁Bedien	-13228
▁Single	-13229
▁überras	-13230
▁reduzieren	-13231
▁vorstellen	-13232
▁Rechtsstaat	-13233
▁Untersuchungen	-13234
llo	-13235
pap	-13236
üne	-13237
ademy	-13238
▁seas	-13239
▁Thurs	-13240
Con	-13241
comp	-13242
▁Vern	-13243
ographic	-13244
▁letzter	-13245
▁vermitteln	-13246
▁verstärken	-13247
▁Educ	-13248
▁Charta	-13249
▁Belgium	-13250
▁vorbereitet	-13251
Cl	-13252
▁Ku	-13253
▁verwirk	-13254
▁Rezeption	-13255
▁rechtzeit	-13256
▁manufacturer	-13257
Mod	-13258
Wir	-13259
▁EZ	-13260
▁sen	-13261
▁1993	-13262
vertrag	-13263
▁Soviet	-13264
▁Charles	-13265
▁certific	-13266
Lin	-13267
iese	-13268
▁Var	-13269
while	-13270
▁lots	-13271
▁jener	-13272
▁artistic	-13273
▁Anschluss	-13274
▁functioning	-13275
istent	-13276
▁courts	-13277
eing	-13278
▁Ara	-13279
ained	-13280
▁Blue	-13281
▁Yes	-13282
▁rul	-13283
▁army	-13284
▁beschäftigen	-13285
betrieb	-13286
▁constitutional	-13287
▁View	-13288
ounter	-13289
▁Schle	-13290
▁formed	-13291
▁Männern	-13292
▁stronger	-13293
▁Kontrollen	-13294
▁Genehmigung	-13295
EE	-13296
▁Vene	-13297
▁Water	-13298
▁sensible	-13299
▁Kopenhagen	-13300
▁shares	-13301
▁Exchange	-13302
▁2-	-13303
▁solely	-13304
▁judicial	-13305
▁transactions	-13306
ernel	-13307
▁Kais	-13308
▁miles	-13309
▁deposit	-13310
▁preparing	-13311
▁providers	-13312
präch	-13313
▁Neue	-13314
▁vari	-13315
lications	-13316
▁dürfte	-13317
▁mittler	-13318
▁niedrig	-13319
▁Sektoren	-13320
▁Verletzung	-13321
▁EL	-13322
▁OR	-13323
▁Alles	-13324
▁duties	-13325
▁declared	-13326
▁magnificent	-13327
ни	-13328
▁Gi	-13329
ardo	-13330
itra	-13331
▁Oder	-13332
▁luxurious	-13333
▁erfolgreichen	-13334
▁aussprechen	-13335
▁Mov	-13336
imittel	-13337
▁Städten	-13338
▁consent	-13339
▁carrying	-13340
rupt	-13341
▁22.	-13342
▁Ker	-13343
▁Mur	-13344
gelöst	-13345
▁Schluß	-13346
▁schlägt	-13347
▁proposes	-13348
▁taxation	-13349
▁PS	-13350
town	-13351
iforn	-13352
ündete	-13353
▁plays	-13354
▁channel	-13355
▁wiederholen	-13356
▁Mitarbeitern	-13357
rep	-13358
anke	-13359
▁fehlt	-13360
▁licens	-13361
▁vorzu	-13362
▁Ausmaß	-13363
▁Verpack	-13364
▁beliebt	-13365
▁großzüg	-13366
▁excessive	-13367
ede	-13368
idet	-13369
rown	-13370
▁USS	-13371
▁semin	-13372
▁Detail	-13373
zneimittel	-13374
auten	-13375
waffen	-13376
▁Alpen	-13377
▁jenen	-13378
▁attract	-13379
▁installieren	-13380
athol	-13381
systeme	-13382
▁Wohlstand	-13383
marquis	-13384
▁distributed	-13385
▁Rechnungshof	-13386
68	-13387
▁coal	-13388
▁sugar	-13389
▁slightly	-13390
▁FA	-13391
▁180	-13392
▁HTML	-13393
▁brut	-13394
▁adults	-13395
▁discip	-13396
▁Erzeugnisse	-13397
▁unverzüglich	-13398
IK	-13399
▁Bere	-13400
▁kamen	-13401
▁Monday	-13402
▁luxuri	-13403
▁unfair	-13404
▁Gericht	-13405
▁stehenden	-13406
▁Chinas	-13407
▁Valley	-13408
▁auseinander	-13409
▁configuration	-13410
▁Satur	-13411
▁Kaffee	-13412
▁individuellen	-13413
▁Rechtsgrundlage	-13414
▁ice	-13415
▁umge	-13416
ancing	-13417
▁boost	-13418
▁enhance	-13419
▁inclusion	-13420
acks	-13421
ianz	-13422
tech	-13423
gener	-13424
▁Gaza	-13425
dienste	-13426
▁Sunday	-13427
▁Betracht	-13428
▁bestimmter	-13429
▁einheitlichen	-13430
▁battle	-13431
▁emerging	-13432
erie	-13433
▁Urheber	-13434
▁eingereicht	-13435
zonen	-13436
▁Clear	-13437
▁Zusätzlich	-13438
▁functional	-13439
▁ursprünglich	-13440
lichten	-13441
▁Kriegs	-13442
▁Marktes	-13443
▁elsewhere	-13444
bleme	-13445
▁Rule	-13446
▁dign	-13447
▁extraordinary	-13448
ökonom	-13449
▁Email	-13450
viertel	-13451
▁Client	-13452
▁plenary	-13453
▁Following	-13454
▁suppliers	-13455
▁beigetragen	-13456
▁Bereitstellung	-13457
▁ang	-13458
prene	-13459
strafe	-13460
▁routes	-13461
cho	-13462
▁Mrd	-13463
▁domain	-13464
▁honest	-13465
▁Kapitel	-13466
▁appeared	-13467
▁supplies	-13468
sie	-13469
▁Auge	-13470
gested	-13471
▁Treat	-13472
▁assure	-13473
▁Stimmen	-13474
▁britische	-13475
dorf	-13476
▁mac	-13477
▁anwesend	-13478
▁identified	-13479
▁Satz	-13480
▁Defiz	-13481
▁30.	-13482
▁arab	-13483
▁appointed	-13484
▁correctly	-13485
▁substance	-13486
▁Fundamental	-13487
▁nahm	-13488
▁western	-13489
▁Ka	-13490
▁labe	-13491
▁Fernseh	-13492
▁unforget	-13493
▁zurückzu	-13494
▁acknowledge	-13495
▁toba	-13496
ativer	-13497
▁Mobile	-13498
▁abziel	-13499
▁Without	-13500
EX	-13501
mpt	-13502
werben	-13503
▁Sollte	-13504
economic	-13505
▁Wohnung	-13506
▁hundred	-13507
▁einzigartigen	-13508
▁AKP	-13509
Unter	-13510
regeln	-13511
▁Apple	-13512
General	-13513
▁sozialer	-13514
unications	-13515
vi	-13516
zut	-13517
▁Zuge	-13518
▁Event	-13519
▁euros	-13520
chester	-13521
▁Parkplatz	-13522
For	-13523
▁Bang	-13524
leiter	-13525
wählen	-13526
▁vieles	-13527
▁unvergess	-13528
▁Works	-13529
▁erhielt	-13530
▁musical	-13531
▁russischen	-13532
imp	-13533
lings	-13534
▁Chair	-13535
▁Traum	-13536
bereiten	-13537
etheless	-13538
▁Kongress	-13539
▁Ill	-13540
ziellen	-13541
▁Wetter	-13542
▁Philosoph	-13543
▁Erstellung	-13544
▁encouraging	-13545
29	-13546
▁Int	-13547
▁Hamas	-13548
▁Thirdly	-13549
▁komme	-13550
hältnisse	-13551
▁Sozialdem	-13552
▁betreffend	-13553
65	-13554
▁VAT	-13555
yside	-13556
▁suit	-13557
cision	-13558
gänger	-13559
▁ships	-13560
OC	-13561
itim	-13562
▁Betrag	-13563
▁bright	-13564
▁solches	-13565
▁Werkzeug	-13566
▁suggestions	-13567
▁wunderschönen	-13568
Br	-13569
dh	-13570
▁verkauft	-13571
▁eingehalten	-13572
▁Vel	-13573
▁Dolom	-13574
▁Gegenstand	-13575
informationen	-13576
cas	-13577
▁emotion	-13578
▁university	-13579
▁{	-13580
inks	-13581
▁Hat	-13582
▁eröff	-13583
▁roads	-13584
▁partial	-13585
▁Krankheit	-13586
zung	-13587
igert	-13588
▁Leon	-13589
▁Reduz	-13590
▁flood	-13591
▁Glaubwürdigkeit	-13592
’.	-13593
ieden	-13594
▁Ungarn	-13595
▁Tochter	-13596
▁satisfied	-13597
▁Host	-13598
▁lists	-13599
▁bislang	-13600
▁angegebenen	-13601
▁Thail	-13602
▁drinks	-13603
▁uniform	-13604
▁resolved	-13605
▁villages	-13606
deckt	-13607
ented	-13608
▁Among	-13609
oration	-13610
▁Autobahn	-13611
▁concepts	-13612
21	-13613
▁Az	-13614
hone	-13615
unger	-13616
▁2000,	-13617
▁Automat	-13618
▁zuständig	-13619
▁Programmen	-13620
ui	-13621
▁Flugzeug	-13622
▁Konsequenzen	-13623
▁amen	-13624
▁surf	-13625
▁abuse	-13626
ila	-13627
▁31.	-13628
▁Anlass	-13629
▁director	-13630
▁eventually	-13631
▁ausgerichtet	-13632
▁interpretation	-13633
dro	-13634
obel	-13635
ührt	-13636
▁thousand	-13637
▁proposing	-13638
anw	-13639
▁exit	-13640
▁Nachhalt	-13641
▁Optionen	-13642
▁verboten	-13643
▁component	-13644
▁afr	-13645
▁deleg	-13646
▁gekenn	-13647
▁decisive	-13648
▁erhebliche	-13649
▁Gewährleistung	-13650
iki	-13651
werken	-13652
▁supplier	-13653
▁Nachricht	-13654
▁elektronischen	-13655
iets	-13656
▁Women	-13657
▁lessons	-13658
▁schicken	-13659
▁Lieferung	-13660
aue	-13661
icing	-13662
▁Prom	-13663
▁Rena	-13664
▁absence	-13665
▁Nam	-13666
parte	-13667
▁decre	-13668
▁Thursday	-13669
▁everyday	-13670
▁beantworten	-13671
▁nevertheless	-13672
▁Rab	-13673
▁Ram	-13674
▁poten	-13675
steigen	-13676
▁geziel	-13677
▁beteiligen	-13678
▁fourth	-13679
▁Islands	-13680
▁wechsel	-13681
▁tea	-13682
▁nutz	-13683
▁Objekt	-13684
▁Belast	-13685
▁actively	-13686
▁Sicherung	-13687
▁description	-13688
uggage	-13689
▁Plane	-13690
▁relie	-13691
▁genügend	-13692
▁arguments	-13693
▁Kab	-13694
▁Pfer	-13695
▁tobacco	-13696
xy	-13697
enth	-13698
orry	-13699
site	-13700
räumen	-13701
▁Stutt	-13702
grammen	-13703
▁Erfüllung	-13704
▁Einstellungen	-13705
▁entscheidender	-13706
▁Gerät	-13707
▁weist	-13708
▁pursue	-13709
▁langsam	-13710
▁Entlastung	-13711
▁verantwortungs	-13712
CP	-13713
otic	-13714
▁vary	-13715
▁wrote	-13716
▁Fußball	-13717
▁GB	-13718
ipfel	-13719
▁susp	-13720
▁theory	-13721
▁Balkans	-13722
▁Assembly	-13723
▁Vide	-13724
iegelt	-13725
▁toile	-13726
▁Golden	-13727
▁Holiday	-13728
▁kleines	-13729
▁Kroatien	-13730
▁integriert	-13731
▁ing	-13732
▁tast	-13733
▁Verzö	-13734
▁acting	-13735
▁gearbeitet	-13736
stes	-13737
ingly	-13738
gebiete	-13739
ierender	-13740
▁gallery	-13741
▁housing	-13742
▁shipping	-13743
▁empfangen	-13744
▁Investment	-13745
ville	-13746
▁lokale	-13747
▁sounds	-13748
▁liefert	-13749
▁savings	-13750
▁erlebt	-13751
▁Content	-13752
▁subjects	-13753
▁offiziellen	-13754
▁satisfaction	-13755
lined	-13756
▁Aben	-13757
▁generated	-13758
USS	-13759
▁ACP	-13760
▁Schüler	-13761
▁Newsletter	-13762
idad	-13763
▁hart	-13764
▁index	-13765
▁topics	-13766
▁cleaning	-13767
▁konfront	-13768
▁Ansichten	-13769
▁Bedrohung	-13770
schefs	-13771
▁verwe	-13772
▁großem	-13773
lösungen	-13774
▁Freitag	-13775
▁Pos	-13776
estra	-13777
gehens	-13778
ausschau	-13779
▁Empfang	-13780
▁periods	-13781
▁authentic	-13782
edy	-13783
▁Hom	-13784
nummer	-13785
▁Lok	-13786
▁Riv	-13787
▁Tip	-13788
▁ports	-13789
▁compos	-13790
▁receiving	-13791
▁updates	-13792
▁Übergangs	-13793
▁Cup	-13794
▁Sind	-13795
▁liked	-13796
athedral	-13797
▁Mini	-13798
▁nörd	-13799
▁impose	-13800
usstsein	-13801
▁bedauer	-13802
▁Donnerstag	-13803
menade	-13804
▁Castle	-13805
▁Besides	-13806
▁breiten	-13807
▁deficit	-13808
▁regarded	-13809
udi	-13810
▁Ly	-13811
▁Look	-13812
▁della	-13813
▁shock	-13814
▁voranz	-13815
▁vorrang	-13816
▁Guests	-13817
▁ökonom	-13818
▁amerikanische	-13819
▁erz	-13820
▁stil	-13821
▁Sudan	-13822
▁warrant	-13823
▁beobachten	-13824
▁25.	-13825
▁Gang	-13826
▁teams	-13827
▁Budgets	-13828
▁Professor	-13829
▁Sav	-13830
▁diesel	-13831
▁handle	-13832
▁preced	-13833
▁leichter	-13834
▁Beschlüsse	-13835
▁legitimate	-13836
▁unforgettable	-13837
stellungs	-13838
▁Kulturen	-13839
▁Hungarian	-13840
▁verbindet	-13841
orer	-13842
▁Lobby	-13843
▁stren	-13844
▁Family	-13845
▁Consult	-13846
▁Augenblick	-13847
▁Federation	-13848
ROM	-13849
aga	-13850
onic	-13851
▁catch	-13852
▁defect	-13853
▁machte	-13854
glichkeit	-13855
▁Kollegin	-13856
▁Bulgarien	-13857
▁Positionen	-13858
llers	-13859
▁Verg	-13860
▁Mission	-13861
▁connect	-13862
programme	-13863
▁applying	-13864
▁departure	-13865
▁ernsthaft	-13866
▁trademark	-13867
▁strategischen	-13868
▁Sar	-13869
▁unw	-13870
utation	-13871
160;	-13872
▁root	-13873
▁erzeugt	-13874
▁überprüft	-13875
ipt	-13876
▁7,	-13877
ommerce	-13878
agements	-13879
▁Millenn	-13880
▁reinfor	-13881
▁Eigentum	-13882
▁attempts	-13883
▁difficulty	-13884
▁letztendlich	-13885
▁Bug	-13886
▁Frie	-13887
▁batter	-13888
▁Staates	-13889
▁examine	-13890
▁angepasst	-13891
▁aktivieren	-13892
▁Geschwindigkeit	-13893
▁Sohn	-13894
▁finish	-13895
Applause	-13896
gart	-13897
▁20%	-13898
▁Wäl	-13899
▁herum	-13900
▁greatly	-13901
urteilung	-13902
▁Äg	-13903
erts	-13904
▁Beweg	-13905
▁Kabel	-13906
▁Cho	-13907
▁desk	-13908
▁spoke	-13909
bereichen	-13910
▁weitgehend	-13911
Im	-13912
ässig	-13913
liehen	-13914
▁Treib	-13915
▁stolz	-13916
▁specified	-13917
▁Unternehmer	-13918
He	-13919
scale	-13920
▁grav	-13921
ieller	-13922
▁song	-13923
afrika	-13924
▁Orient	-13925
▁Sterne	-13926
▁hyp	-13927
endar	-13928
ultane	-13929
▁scene	-13930
wiegend	-13931
▁vulnerable	-13932
▁publication	-13933
DER	-13934
▁Festpl	-13935
▁standing	-13936
▁zukünftigen	-13937
ni	-13938
▁lit	-13939
▁infr	-13940
▁exports	-13941
ordnungen	-13942
▁enabling	-13943
▁philosophy	-13944
▁Job	-13945
läuft	-13946
▁bridge	-13947
1-	-13948
▁64	-13949
▁shap	-13950
▁Metro	-13951
▁doors	-13952
▁murder	-13953
▁deutsch	-13954
▁Übrigen	-13955
▁preventing	-13956
amo	-13957
ESCO	-13958
▁Aqu	-13959
▁roof	-13960
▁anbel	-13961
▁könnt	-13962
▁paint	-13963
▁Common	-13964
▁panoram	-13965
▁stammen	-13966
▁genannte	-13967
▁herrscht	-13968
▁complement	-13969
▁countryside	-13970
▁BMW	-13971
▁Pen	-13972
▁Having	-13973
▁municip	-13974
▁verfügbaren	-13975
übt	-13976
▁ou	-13977
▁Darum	-13978
▁tritt	-13979
rechter	-13980
▁Mittag	-13981
▁narrow	-13982
▁twenty	-13983
▁resource	-13984
BC	-13985
▁poly	-13986
▁2005,	-13987
▁colours	-13988
▁packaging	-13989
▁suggested	-13990
arr	-13991
▁SAP	-13992
▁Attra	-13993
öffnung	-13994
▁wohnen	-13995
▁delicious	-13996
▁Agriculture	-13997
▁bereitgestellt	-13998
oles	-13999
aders	-14000
▁Ergän	-14001
▁cells	-14002
▁obser	-14003
▁Konkurr	-14004
▁religion	-14005
▁anbelangt	-14006
▁representation	-14007
hört	-14008
▁Cub	-14009
▁Bege	-14010
advant	-14011
▁Ankunft	-14012
utet	-14013
ärkt	-14014
▁cul	-14015
äusern	-14016
Beifall	-14017
lication	-14018
▁patient	-14019
▁französische	-14020
▁Pil	-14021
▁gründ	-14022
▁Wählen	-14023
▁permitted	-14024
▁voluntary	-14025
▁lift	-14026
▁Finland	-14027
▁Fahrzeuge	-14028
▁inklusive	-14029
то	-14030
▁EM	-14031
▁Pfe	-14032
▁Rio	-14033
ränkung	-14034
▁banking	-14035
▁bekommt	-14036
▁Übersetz	-14037
▁investieren	-14038
üst	-14039
▁Amt	-14040
▁Edit	-14041
▁Made	-14042
▁Güter	-14043
▁federal	-14044
▁personen	-14045
ulous	-14046
spartei	-14047
▁farming	-14048
▁mittleren	-14049
▁intelligent	-14050
ín	-14051
▁leaves	-14052
▁indirect	-14053
sa	-14054
▁Sn	-14055
▁scre	-14056
ounted	-14057
termin	-14058
▁stellte	-14059
▁betreiben	-14060
rog	-14061
▁destroyed	-14062
yan	-14063
rome	-14064
geschichte	-14065
▁Gehminuten	-14066
hlung	-14067
▁Schon	-14068
▁Quellen	-14069
▁übersch	-14070
▁Potenzial	-14071
▁Verarbeitung	-14072
▁instructions	-14073
▁Überlegungen	-14074
COM	-14075
▁Bett	-14076
▁Image	-14077
▁Geträn	-14078
▁Gerechtigkeit	-14079
▁Plus	-14080
▁none	-14081
▁manip	-14082
▁Schulen	-14083
▁obliged	-14084
▁Einkommen	-14085
▁einzigart	-14086
Qu	-14087
▁MA	-14088
ords	-14089
derung	-14090
niveau	-14091
▁movie	-14092
asbourg	-14093
figuration	-14094
▁Mitgliedschaft	-14095
friendly	-14096
▁Kontakte	-14097
▁disabled	-14098
ixel	-14099
▁bla	-14100
alerie	-14101
anning	-14102
folgung	-14103
▁Sonntag	-14104
▁Brasilien	-14105
▁Gleichstellung	-14106
:5	-14107
rein	-14108
ipher	-14109
▁Travel	-14110
▁manual	-14111
▁forests	-14112
▁Addition	-14113
▁langfristige	-14114
orse	-14115
▁filter	-14116
▁renowned	-14117
▁durchschnitt	-14118
iza	-14119
van	-14120
äßt	-14121
▁Luxus	-14122
▁Textil	-14123
bildungs	-14124
▁realistic	-14125
▁Zusch	-14126
▁Sloven	-14127
▁gained	-14128
▁looked	-14129
▁festival	-14130
▁gefallen	-14131
▁disadvant	-14132
anne	-14133
ktors	-14134
lager	-14135
▁Space	-14136
▁Klasse	-14137
▁aktive	-14138
▁missing	-14139
▁erwähnen	-14140
▁cooperate	-14141
herstellung	-14142
▁entwickelte	-14143
ski	-14144
▁Nein	-14145
▁Sche	-14146
▁Still	-14147
▁Anstieg	-14148
laut	-14149
▁ende	-14150
sbuffet	-14151
▁Wissens	-14152
▁mitteilen	-14153
bestimmungen	-14154
jpg	-14155
stal	-14156
▁10%	-14157
achts	-14158
▁Next	-14159
▁trips	-14160
▁wiederholt	-14161
▁Tätigkeiten	-14162
▁Schönheit	-14163
▁anschließend	-14164
eten	-14165
etic	-14166
zepte	-14167
▁Präsent	-14168
▁constitute	-14169
▁PSE	-14170
▁videos	-14171
Software	-14172
▁kilomet	-14173
mot	-14174
laim	-14175
▁Gerade	-14176
▁Praktiken	-14177
▁umfassend	-14178
▁bedeutende	-14179
▁forthcoming	-14180
▁Haushaltsplan	-14181
gner	-14182
pfung	-14183
▁Jung	-14184
opolit	-14185
auspiel	-14186
▁neighb	-14187
▁gelingt	-14188
▁Beschwer	-14189
▁revision	-14190
▁einbezogen	-14191
▁Katastrophe	-14192
▁hilf	-14193
ricted	-14194
▁mussten	-14195
▁appearance	-14196
▁beeinträcht	-14197
ami	-14198
knüp	-14199
▁schwe	-14200
▁Gottes	-14201
▁invited	-14202
▁prosperity	-14203
ötz	-14204
orrig	-14205
ruppe	-14206
▁Fein	-14207
▁breach	-14208
▁Meister	-14209
▁verteidigen	-14210
▁Tw	-14211
Pres	-14212
▁burn	-14213
▁insist	-14214
▁Mountain	-14215
▁versichern	-14216
▁vorgesehenen	-14217
erb	-14218
baus	-14219
kultur	-14220
▁Leiden	-14221
▁killed	-14222
▁module	-14223
▁passion	-14224
▁Ablehnung	-14225
▁characters	-14226
▁reservations	-14227
andt	-14228
Über	-14229
▁Perspektive	-14230
4)	-14231
▁pas	-14232
riebe	-14233
▁Catal	-14234
▁Domin	-14235
▁Porto	-14236
poration	-14237
▁Hardware	-14238
▁Trotzdem	-14239
made	-14240
▁empfohlen	-14241
▁movements	-14242
▁Grünen	-14243
▁Sachen	-14244
▁Schiffe	-14245
▁imports	-14246
▁radical	-14247
weisungen	-14248
▁Vorhaben	-14249
▁ersetzen	-14250
mitglieder	-14251
▁complicated	-14252
▁Zürich	-14253
▁tranqu	-14254
▁geraten	-14255
▁remained	-14256
▁welcoming	-14257
▁Korruption	-14258
▁comparison	-14259
▁hes	-14260
▁glück	-14261
lements	-14262
▁Latein	-14263
▁Arzneimittel	-14264
▁significance	-14265
78	-14266
ESS	-14267
▁tend	-14268
weilen	-14269
▁inmitten	-14270
▁suffered	-14271
▁85	-14272
▁fans	-14273
▁hill	-14274
wahlen	-14275
iensten	-14276
▁Francis	-14277
▁ähnlich	-14278
▁freedoms	-14279
▁Übernachtung	-14280
dy	-14281
onie	-14282
recher	-14283
▁tennis	-14284
▁Schwimm	-14285
▁enabled	-14286
▁sharing	-14287
▁contributed	-14288
▁proceedings	-14289
fernen	-14290
▁Quality	-14291
▁reaction	-14292
verwaltung	-14293
▁societies	-14294
▁negotiating	-14295
ulse	-14296
▁Wal	-14297
asion	-14298
▁Saison	-14299
▁Umsatz	-14300
▁deserv	-14301
▁Eingang	-14302
▁directory	-14303
zuschließen	-14304
▁vorzulegen	-14305
oul	-14306
rim	-14307
Rooms	-14308
Server	-14309
▁rising	-14310
▁Plattform	-14311
▁ansprechen	-14312
▁unterscheiden	-14313
▁Ägyp	-14314
drückt	-14315
ureich	-14316
▁horse	-14317
▁upper	-14318
▁unterstreichen	-14319
▁vorgeschlagene	-14320
iale	-14321
ichtung	-14322
▁dependent	-14323
▁Reduzierung	-14324
▁spezifische	-14325
▁harmonisation	-14326
tty	-14327
▁gehe	-14328
▁Stoffe	-14329
▁manche	-14330
▁sought	-14331
▁overview	-14332
▁reduziert	-14333
▁homes	-14334
▁erstre	-14335
zusammen	-14336
▁Medizin	-14337
▁gebrauch	-14338
▁Situationen	-14339
zenten	-14340
▁Herbst	-14341
▁Lounge	-14342
▁attrib	-14343
▁surely	-14344
▁cancell	-14345
▁Strasbourg	-14346
▁hervorgehoben	-14347
äne	-14348
outique	-14349
▁checks	-14350
▁konkret	-14351
▁Atlantic	-14352
▁optimale	-14353
▁welcomes	-14354
isa	-14355
endo	-14356
▁NGOs	-14357
▁surve	-14358
▁UNESCO	-14359
▁Schnell	-14360
▁Aufsichts	-14361
▁konfrontiert	-14362
ijk	-14363
tung	-14364
▁Tennis	-14365
▁skiing	-14366
▁Entfern	-14367
▁museums	-14368
▁Ausflüge	-14369
▁specialist	-14370
greg	-14371
open	-14372
night	-14373
rifft	-14374
utral	-14375
▁juris	-14376
▁excurs	-14377
▁confirmation	-14378
▁unabhängigen	-14379
zesse	-14380
▁Game	-14381
▁tables	-14382
▁Urlaubs	-14383
▁Veränderung	-14384
LAF	-14385
▁Dres	-14386
▁info	-14387
▁Playa	-14388
▁clubs	-14389
▁Depart	-14390
▁hinweg	-14391
▁Thailand	-14392
▁ergänzen	-14393
▁gestattet	-14394
▁Stockholm	-14395
▁politically	-14396
Ben	-14397
ypen	-14398
▁Sky	-14399
cribe	-14400
▁shar	-14401
▁japan	-14402
▁teile	-14403
iversary	-14404
▁Culture	-14405
▁wireless	-14406
▁justified	-14407
▁unterzeichnet	-14408
ugoslaw	-14409
▁ausgeb	-14410
▁paying	-14411
▁compact	-14412
▁führende	-14413
▁Vizepräsident	-14414
▁refers	-14415
▁vollen	-14416
▁Australia	-14417
▁behaupten	-14418
▁ju	-14419
----	-14420
▁hast	-14421
▁Alger	-14422
cession	-14423
▁offene	-14424
▁experim	-14425
effizienz	-14426
▁Education	-14427
itale	-14428
▁edge	-14429
▁elector	-14430
▁welcomed	-14431
66	-14432
drich	-14433
▁Dikt	-14434
annter	-14435
▁allzu	-14436
▁compe	-14437
auschen	-14438
instrument	-14439
▁Socialist	-14440
▁continuous	-14441
▁einzusetzen	-14442
DI	-14443
ätzt	-14444
▁tree	-14445
immers	-14446
▁Based	-14447
▁Zeitung	-14448
▁legally	-14449
▁konzentriert	-14450
▁Ruf	-14451
▁fan	-14452
ärten	-14453
▁anzub	-14454
▁Tourism	-14455
▁Resolution	-14456
▁bisherigen	-14457
das	-14458
▁vessels	-14459
▁Auditors	-14460
abs	-14461
pay	-14462
▁asp	-14463
▁cuts	-14464
▁lunch	-14465
▁hardly	-14466
▁größeres	-14467
▁abstimmen	-14468
▁enthaltenen	-14469
▁Geburt	-14470
▁Prozesse	-14471
▁Abendessen	-14472
▁unn	-14473
mbuds	-14474
▁angekünd	-14475
▁directed	-14476
▁erstmals	-14477
cu	-14478
▁CR	-14479
▁CAP	-14480
Datei	-14481
▁Ebenen	-14482
ianischen	-14483
technologie	-14484
▁entreprene	-14485
▁finanziert	-14486
emit	-14487
illed	-14488
▁pharm	-14489
▁Existenz	-14490
usch	-14491
▁Joseph	-14492
▁genere	-14493
▁wellness	-14494
▁ere	-14495
▁spons	-14496
systems	-14497
▁hervorragenden	-14498
▁Full	-14499
uverän	-14500
▁begeg	-14501
▁blind	-14502
▁Situated	-14503
▁Vorgehens	-14504
plans	-14505
▁warn	-14506
▁Fahrt	-14507
▁freundlich	-14508
▁referendum	-14509
cul	-14510
▁Rod	-14511
▁Saturday	-14512
▁deswegen	-14513
▁Vereinfach	-14514
TH	-14515
▁mi	-14516
leute	-14517
grenze	-14518
▁Pläne	-14519
▁lieber	-14520
▁künftige	-14521
▁amenities	-14522
▁Nachhaltigkeit	-14523
Me	-14524
▁Emb	-14525
▁Wed	-14526
▁Allianz	-14527
▁illegalen	-14528
▁recognized	-14529
▁eingegangen	-14530
run	-14531
luss	-14532
▁eat	-14533
osing	-14534
▁geprägt	-14535
▁menschliche	-14536
▁programming	-14537
▁Klaus	-14538
▁ergibt	-14539
▁showed	-14540
▁modules	-14541
▁Sammlung	-14542
▁unzureich	-14543
ubl	-14544
outs	-14545
betten	-14546
▁Marke	-14547
▁splend	-14548
▁internen	-14549
▁bedeutend	-14550
▁hospitality	-14551
hot	-14552
zahlen	-14553
▁Artik	-14554
▁Philipp	-14555
▁besonderer	-14556
werts	-14557
▁hierbei	-14558
▁Passwort	-14559
▁begrenzt	-14560
▁democrat	-14561
▁introducing	-14562
▁ine	-14563
▁Norm	-14564
▁Serbia	-14565
ophistic	-14566
oubtedly	-14567
sprachen	-14568
▁Jos	-14569
▁Börse	-14570
iziente	-14571
▁Venice	-14572
▁Spitzen	-14573
▁beendet	-14574
▁Consumer	-14575
▁sustainability	-14576
ranche	-14577
▁judge	-14578
▁Belgien	-14579
▁Stability	-14580
▁allocated	-14581
osa	-14582
▁EX	-14583
lers	-14584
▁EZB	-14585
Daten	-14586
nimmt	-14587
using	-14588
▁Place	-14589
▁Montag	-14590
▁beings	-14591
▁Reserve	-14592
politische	-14593
▁Erinnerung	-14594
ency	-14595
utor	-14596
▁getragen	-14597
▁sections	-14598
▁LateRooms	-14599
▁Secretary	-14600
▁Stuttgart	-14601
reche	-14602
▁kreat	-14603
▁saved	-14604
▁Metall	-14605
▁errors	-14606
▁Modelle	-14607
yll	-14608
seite	-14609
unruh	-14610
▁Armee	-14611
▁Konto	-14612
▁Stoff	-14613
ugoslav	-14614
▁female	-14615
▁stocks	-14616
▁tested	-14617
▁Erlebnis	-14618
▁habit	-14619
▁voran	-14620
▁Meines	-14621
▁turning	-14622
▁Weiteren	-14623
▁aufgebaut	-14624
▁everybody	-14625
▁explained	-14626
▁strategische	-14627
▁Moroc	-14628
▁Betten	-14629
ügigkeit	-14630
irs	-14631
▁cam	-14632
▁roll	-14633
staatlichen	-14634
▁vereinbart	-14635
▁Widerspruch	-14636
▁Bevölkerungs	-14637
▁Sob	-14638
▁studio	-14639
▁transmission	-14640
Mitgliedstaaten	-14641
▁zivil	-14642
▁Gefäng	-14643
▁penalty	-14644
▁football	-14645
▁Lernen	-14646
▁vorliegende	-14647
obody	-14648
▁Beste	-14649
▁eignet	-14650
▁behoben	-14651
▁classes	-14652
▁hearing	-14653
▁Planeten	-14654
▁exclusion	-14655
▁praktische	-14656
▁productivity	-14657
▁universities	-14658
▁(*	-14659
emark	-14660
▁boot	-14661
▁config	-14662
▁retail	-14663
▁trends	-14664
führungs	-14665
▁satisfy	-14666
▁Customer	-14667
▁Befugnisse	-14668
▁kontaktieren	-14669
atin	-14670
▁incred	-14671
tch	-14672
▁Erm	-14673
itate	-14674
▁1991	-14675
▁accurate	-14676
▁künstler	-14677
▁Entspannung	-14678
▁Ken	-14679
entliche	-14680
mitglied	-14681
▁combine	-14682
Pal	-14683
abet	-14684
uage	-14685
burgh	-14686
▁Spann	-14687
▁wirtschaftlich	-14688
roc	-14689
▁CF	-14690
▁sequ	-14691
▁Gross	-14692
▁Abfall	-14693
▁Volkes	-14694
▁Eurozone	-14695
▁Nachbarn	-14696
▁Ursachen	-14697
▁ausgehen	-14698
▁reflected	-14699
▁parameters	-14700
▁Volksgesundheit	-14701
unge	-14702
▁Cond	-14703
ammelt	-14704
▁absor	-14705
▁anhand	-14706
▁Corporate	-14707
▁verdienen	-14708
▁functionality	-14709
ugang	-14710
garten	-14711
▁rechten	-14712
ungssystem	-14713
▁festzulegen	-14714
weich	-14715
eschäd	-14716
▁realise	-14717
▁calm	-14718
▁2004,	-14719
▁collected	-14720
▁violations	-14721
CA	-14722
▁Oste	-14723
▁rück	-14724
▁recover	-14725
.“	-14726
aka	-14727
eping	-14728
▁1960	-14729
istischer	-14730
▁relative	-14731
▁umsetzen	-14732
▁simultane	-14733
▁dargestellt	-14734
▁supervision	-14735
▁herunterladen	-14736
card	-14737
jahres	-14738
▁repair	-14739
▁acknowled	-14740
▁(10	-14741
▁Por	-14742
▁united	-14743
eitigung	-14744
▁dankbar	-14745
▁Widerstand	-14746
▁personenbezogen	-14747
esis	-14748
usive	-14749
grunde	-14750
▁endeav	-14751
▁grosse	-14752
▁Rechten	-14753
▁aggress	-14754
▁consulting	-14755
bul	-14756
nisses	-14757
▁Kreis	-14758
izieren	-14759
▁Suiten	-14760
Bar	-14761
thand	-14762
pat	-14763
▁fla	-14764
▁Conf	-14765
▁Does	-14766
▁Poly	-14767
▁fleet	-14768
▁remarks	-14769
37	-14770
zell	-14771
▁Valen	-14772
▁angest	-14773
▁Meeting	-14774
▁adapted	-14775
▁Rückkehr	-14776
▁angewendet	-14777
▁sogenannten	-14778
▁Miß	-14779
▁Euch	-14780
▁Vort	-14781
smoking	-14782
▁ausser	-14783
▁hochwertige	-14784
88	-14785
order	-14786
▁Distr	-14787
▁firmly	-14788
▁ingred	-14789
▁vorbei	-14790
ifferenz	-14791
[...]
