<unk>	0
<s>	0
</s>	0
<pad>	0
en	-0
er	-1
▁d	-2
ch	-3
ei	-4
un	-5
ie	-6
▁a	-7
▁s	-8
▁i	-9
▁w	-10
▁die	-11
es	-12
▁un	-13
ich	-14
ein	-15
▁b	-16
▁v	-17
st	-18
ung	-19
▁m	-20
on	-21
▁g	-22
▁der	-23
sch	-24
▁da	-25
▁z	-26
ti	-27
an	-28
▁f	-29
▁h	-30
▁ein	-31
▁und	-32
ss	-33
te	-34
▁k	-35
or	-36
▁au	-37
▁n	-38
ten	-39
▁zu	-40
ll	-41
▁in	-42
in	-43
ra	-44
em	-45
it	-46
gen	-47
den	-48
ir	-49
ur	-50
ge	-51
▁p	-52
hr	-53
der	-54
ar	-55
eit	-56
▁wir	-57
lich	-58
▁ver	-59
al	-60
men	-61
ür	-62
icht	-63
re	-64
▁e	-65
▁den	-66
▁an	-67
▁er	-68
▁be	-69
▁ge	-70
isch	-71
▁l	-72
▁dies	-73
ter	-74
ber	-75
de	-76
tz	-77
om	-78
▁ha	-79
▁auf	-80
ben	-81
▁mit	-82
▁ich	-83
▁für	-84
▁das	-85
▁von	-86
▁ist	-87
ro	-88
ier	-89
um	-90
op	-91
la	-92
▁so	-93
tion	-94
▁des	-95
ion	-96
▁eur	-97
ent	-98
▁vor	-99
▁es	-100
▁nicht	-101
ach	-102
ft	-103
▁t	-104
▁dass	-105
▁europ	-106
ol	-107
iss	-108
ig	-109
ungen	-110
än	-111
über	-112
▁wer	-113
el	-114
▁im	-115
ischen	-116
▁aus	-117
▁re	-118
▁sch	-119
▁j	-120
▁eine	-121
▁werden	-122
is	-123
eich	-124
▁ber	-125
▁kom	-126
▁st	-127
▁um	-128
ck	-129
▁über	-130
at	-131
▁sich	-132
▁her	-133
▁sie	-134
sp	-135
le	-136
▁dem	-137
nen	-138
ff	-139
▁europä	-140
rä	-141
sa	-142
▁uns	-143
▁auch	-144
eh	-145
▁bes	-146
kt	-147
us	-148
▁ges	-149
and	-150
eu	-151
▁ent	-152
ehr	-153
scha	-154
▁komm	-155
lle	-156
lie	-157
ind	-158
ls	-159
▁unter	-160
be	-161
tig	-162
▁o	-163
etz	-164
si	-165
llen	-166
och	-167
▁wie	-168
ssen	-169
▁ab	-170
▁bei	-171
ungs	-172
▁herr	-173
▁kommiss	-174
ri	-175
hal	-176
▁wird	-177
▁r	-178
schaft	-179
zu	-180
▁fra	-181
ahr	-182
ation	-183
ges	-184
ah	-185
cht	-186
▁haben	-187
▁hat	-188
▁sind	-189
▁als	-190
as	-191
iti	-192
mm	-193
▁mö	-194
uss	-195
ien	-196
▁ihr	-197
gt	-198
eil	-199
chte	-200
▁zur	-201
ste	-202
▁ra	-203
il	-204
▁europäischen	-205
heit	-206
▁gr	-207
▁kommission	-208
▁par	-209
▁ar	-210
räsi	-211
ment	-212
ger	-213
räsiden	-214
wei	-215
ver	-216
▁pro	-217
änder	-218
ische	-219
▁-	-220
rei	-221
schen	-222
enn	-223
sten	-224
lichen	-225
▁sein	-226
▁nach	-227
iel	-228
▁diese	-229
▁daß	-230
end	-231
▁mein	-232
oliti	-233
au	-234
sam	-235
ann	-236
aten	-237
är	-238
ön	-239
und	-240
beit	-241
ne	-242
▁präsiden	-243
▁unser	-244
▁kon	-245
hen	-246
keit	-247
chen	-248
▁parla	-249
urch	-250
se	-251
▁einer	-252
sen	-253
anz	-254
▁parlament	-255
▁kön	-256
▁dar	-257
sta	-258
ru	-259
▁mü	-260
for	-261
tw	-262
fü	-263
tra	-264
▁bericht	-265
ern	-266
▁durch	-267
glie	-268
▁all	-269
ort	-270
▁union	-271
▁gem	-272
mit	-273
▁dieser	-274
▁wenn	-275
ommen	-276
▁ste	-277
liche	-278
ht	-279
▁ko	-280
onder	-281
▁müssen	-282
▁einen	-283
▁mitglie	-284
ün	-285
eiten	-286
ffen	-287
▁soll	-288
fen	-289
igen	-290
ick	-291
▁präsident	-292
ät	-293
ang	-294
ör	-295
tiv	-296
ken	-297
▁hin	-298
bl	-299
▁möchte	-300
▁aber	-301
ierung	-302
▁2	-303
00	-304
rit	-305
▁je	-306
▁sp	-307
▁wur	-308
glich	-309
zi	-310
▁noch	-311
▁1	-312
▁zum	-313
▁mitglied	-314
nah	-315
▁rat	-316
wer	-317
ab	-318
▁ander	-319
tschaft	-320
▁gegen	-321
ord	-322
lt	-323
ktion	-324
eiter	-325
ut	-326
mer	-327
▁zw	-328
rau	-329
fa	-330
▁gemein	-331
▁können	-332
▁bet	-333
▁nur	-334
▁verb	-335
staaten	-336
▁diesem	-337
tet	-338
▁jahr	-339
ück	-340
▁arbeit	-341
▁kann	-342
▁reg	-343
her	-344
gr	-345
▁frau	-346
▁ma	-347
▁kein	-348
ande	-349
ütz	-350
▁dan	-351
▁was	-352
▁mehr	-353
▁gew	-354
lo	-355
▁wo	-356
uß	-357
am	-358
▁europäische	-359
▁inter	-360
tel	-361
pf	-362
tigen	-363
alen	-364
ehmen	-365
▁men	-366
▁eu	-367
ichtig	-368
▁sehr	-369
▁fin	-370
ähr	-371
▁oder	-372
lung	-373
▁entsch	-374
▁(	-375
▁recht	-376
che	-377
sammen	-378
ok	-379
▁entw	-380
aus	-381
▁politi	-382
leich	-383
elt	-384
führ	-385
eren	-386
ieren	-387
▁war	-388
▁neu	-389
▁mitgliedstaaten	-390
reich	-391
bar	-392
lei	-393
rie	-394
▁zusammen	-395
ließ	-396
ität	-397
est	-398
bt	-399
utz	-400
▁gen	-401
▁unterst	-402
▁man	-403
me	-404
▁vorsch	-405
ess	-406
etzt	-407
▁dieses	-408
ige	-409
▁sicher	-410
▁for	-411
▁menschen	-412
▁weiter	-413
▁en	-414
▁le	-415
▁entwick	-416
rin	-417
kommen	-418
▁grund	-419
▁kl	-420
timm	-421
lä	-422
gra	-423
▁hier	-424
▁unterstütz	-425
trag	-426
vor	-427
he	-428
▁ihre	-429
▁einem	-430
▁europa	-431
halt	-432
▁besch	-433
hl	-434
▁we	-435
lin	-436
änd	-437
nung	-438
▁muss	-439
ürger	-440
fahr	-441
▁ger	-442
▁zwei	-443
▁ih	-444
teil	-445
▁wirtschaft	-446
wir	-447
iert	-448
geb	-449
blem	-450
sti	-451
ahl	-452
▁wurde	-453
ag	-454
ner	-455
▁am	-456
ehen	-457
ul	-458
ist	-459
ik	-460
wie	-461
gie	-462
llt	-463
gan	-464
▁alle	-465
dem	-466
tige	-467
ßen	-468
▁fa	-469
halb	-470
ran	-471
▁bürger	-472
nahmen	-473
▁gi	-474
igkeit	-475
▁gesch	-476
▁gro	-477
▁bereit	-478
▁kolle	-479
▁änder	-480
sche	-481
forder	-482
halten	-483
fol	-484
▁problem	-485
legen	-486
zie	-487
▁maß	-488
▁heu	-489
▁viel	-490
äch	-491
lan	-492
du	-493
ing	-494
nehmen	-495
enz	-496
▁land	-497
ill	-498
itu	-499
erst	-500
▁la	-501
kte	-502
▁zwischen	-503
▁damit	-504
oll	-505
mal	-506
▁möglich	-507
▁haus	-508
▁länder	-509
lau	-510
▁sta	-511
bei	-512
▁finanz	-513
▁sa	-514
▁de	-515
sicht	-516
▁wichtig	-517
▁jed	-518
▁unsere	-519
innen	-520
▁ho	-521
▁diesen	-522
▁eines	-523
olitik	-524
▁sozi	-525
für	-526
▁ins	-527
▁habe	-528
lag	-529
▁erw	-530
issen	-531
▁ö	-532
äm	-533
iz	-534
▁geb	-535
▁gleich	-536
rü	-537
▁zeit	-538
▁denn	-539
pro	-540
ritt	-541
ale	-542
ften	-543
okra	-544
alt	-545
▁gibt	-546
eigen	-547
arbeit	-548
form	-549
▁ganz	-550
unkt	-551
▁frage	-552
äh	-553
▁eben	-554
▁mich	-555
▁sonder	-556
schie	-557
qu	-558
ungsan	-559
▁keine	-560
land	-561
▁wür	-562
ke	-563
▁aussch	-564
dern	-565
ßer	-566
ga	-567
▁heute	-568
bes	-569
eid	-570
fe	-571
ert	-572
bst	-573
▁jedoch	-574
▁ange	-575
▁bed	-576
▁wieder	-577
ischer	-578
▁200	-579
▁beste	-580
▁bede	-581
acht	-582
▁verh	-583
▁kommissar	-584
gel	-585
setz	-586
▁ihnen	-587
ers	-588
▁meine	-589
▁bereich	-590
▁sondern	-591
arkt	-592
wo	-593
▁sol	-594
tre	-595
iele	-596
ma	-597
ekt	-598
det	-599
achen	-600
▁ob	-601
▁richt	-602
▁bis	-603
▁dann	-604
rechen	-605
fra	-606
▁sel	-607
ständ	-608
▁verein	-609
gung	-610
▁herrn	-611
▁beh	-612
▁no	-613
itz	-614
tin	-615
▁wirk	-616
▁sollte	-617
▁anderen	-618
▁maßnahmen	-619
stellen	-620
▁hande	-621
ionen	-622
▁stra	-623
weise	-624
▁sollten	-625
stem	-626
ationen	-627
▁"	-628
▁fest	-629
ats	-630
erung	-631
ystem	-632
hem	-633
hmen	-634
tt	-635
fahren	-636
kl	-637
ze	-638
▁te	-639
▁entwicklung	-640
▁schw	-641
stimm	-642
nis	-643
gem	-644
▁sowie	-645
gesch	-646
ell	-647
▁wei	-648
twort	-649
su	-650
▁bereits	-651
▁immer	-652
ühr	-653
▁selbst	-654
▁parlaments	-655
ffe	-656
▁mittel	-657
ktiv	-658
▁vorschlag	-659
trä	-660
zeu	-661
ordnung	-662
isse	-663
▁beit	-664
▁weil	-665
▁nat	-666
▁abge	-667
▁teil	-668
▁lie	-669
kehr	-670
gramm	-671
▁inst	-672
ondere	-673
▁ihrer	-674
▁leben	-675
▁dafür	-676
▁dazu	-677
eut	-678
▁fol	-679
ffent	-680
▁bin	-681
▁ch	-682
▁frei	-683
ationalen	-684
satz	-685
▁jetzt	-686
▁sicherheit	-687
▁eigen	-688
rauf	-689
▁–	-690
▁darauf	-691
tro	-692
tens	-693
▁gemeinschaft	-694
▁wurden	-695
tionen	-696
llung	-697
▁unserer	-698
ätz	-699
▁demokra	-700
▁doch	-701
▁änderungsan	-702
ftig	-703
▁wor	-704
og	-705
gend	-706
mittel	-707
▁po	-708
gehen	-709
nahme	-710
▁daher	-711
iger	-712
▁vom	-713
▁denen	-714
▁bek	-715
▁gel	-716
▁c	-717
fall	-718
▁rahmen	-719
linie	-720
ativ	-721
▁haushalt	-722
richt	-723
▁intern	-724
welt	-725
▁sagen	-726
ße	-727
ha	-728
▁wissen	-729
▁deshalb	-730
▁scha	-731
isk	-732
▁auss	-733
▁them	-734
erstat	-735
pt	-736
twend	-737
▁wel	-738
geben	-739
▁geht	-740
lagen	-741
▁mir	-742
▁notwend	-743
ere	-744
äre	-745
ug	-746
▁einz	-747
hne	-748
▁führ	-749
▁klar	-750
keiten	-751
organ	-752
tik	-753
besondere	-754
▁veran	-755
▁insbesondere	-756
erstatter	-757
▁welt	-758
▁beg	-759
▁kollegen	-760
▁umwelt	-761
pp	-762
ös	-763
▁würde	-764
▁beisp	-765
▁glau	-766
inder	-767
▁lei	-768
▁wen	-769
tieren	-770
▁aller	-771
klär	-772
essen	-773
▁etw	-774
di	-775
chn	-776
▁verw	-777
▁disk	-778
▁währ	-779
▁rechts	-780
▁letz	-781
▁di	-782
licher	-783
▁gemeinsam	-784
chten	-785
▁neuen	-786
▁begr	-787
id	-788
nisse	-789
▁einige	-790
we	-791
▁ener	-792
▁unternehmen	-793
▁ro	-794
▁muß	-795
heiten	-796
wohl	-797
▁inform	-798
▁nun	-799
▁ziel	-800
▁ausge	-801
stimmung	-802
▁meiner	-803
▁ern	-804
fin	-805
bil	-806
ho	-807
recht	-808
genommen	-809
rauch	-810
art	-811
▁darüber	-812
fft	-813
lage	-814
▁könn	-815
igung	-816
lossen	-817
▁ohne	-818
lungen	-819
min	-820
▁na	-821
▁natür	-822
▁erreich	-823
▁öffent	-824
▁gef	-825
kun	-826
tern	-827
zei	-828
mus	-829
▁bestimm	-830
derung	-831
▁zusammenarbeit	-832
rechte	-833
▁mo	-834
▁außer	-835
▁allem	-836
fass	-837
▁wollen	-838
▁pa	-839
▁deut	-840
99	-841
zeich	-842
▁arbeits	-843
politik	-844
▁verbess	-845
▁me	-846
inn	-847
▁fort	-848
tischen	-849
▁machen	-850
▁fraktion	-851
gang	-852
▁ausschuss	-853
▁verst	-854
kunft	-855
dung	-856
hör	-857
ruck	-858
bewer	-859
öl	-860
▁politik	-861
ringen	-862
▁seine	-863
ds	-864
ordne	-865
▁unterstützung	-866
▁allen	-867
▁%	-868
▁andere	-869
▁fragen	-870
▁neue	-871
rache	-872
luss	-873
hin	-874
▁tun	-875
ktur	-876
mmen	-877
att	-878
▁tats	-879
kon	-880
▁anges	-881
gangen	-882
länder	-883
▁u	-884
ster	-885
tie	-886
▁natürlich	-887
▁al	-888
so	-889
▁ex	-890
schließ	-891
zug	-892
▁för	-893
punkt	-894
tellt	-895
▁fall	-896
mö	-897
▁part	-898
isierung	-899
ismus	-900
▁wäre	-901
▁jahren	-902
äß	-903
setzung	-904
▁richtlinie	-905
licht	-906
sich	-907
▁nie	-908
▁viele	-909
▁energie	-910
ding	-911
▁besonder	-912
▁voll	-913
ache	-914
▁em	-915
▁verantwort	-916
▁se	-917
ruktur	-918
▁tran	-919
▁ihren	-920
markt	-921
zeit	-922
▁erfol	-923
▁zahl	-924
▁bem	-925
▁dien	-926
▁schon	-927
▁aussp	-928
▁erklär	-929
▁sozial	-930
▁beschä	-931
träge	-932
▁gu	-933
ttbewer	-934
▁wes	-935
▁grö	-936
unden	-937
▁komp	-938
▁einmal	-939
äng	-940
▁thema	-941
eiden	-942
▁namen	-943
▁bedeut	-944
▁entscheid	-945
grund	-946
hungen	-947
eicht	-948
enden	-949
ttbewerb	-950
ellen	-951
▁pers	-952
▁qu	-953
▁einf	-954
▁entschließ	-955
▁posi	-956
spro	-957
organis	-958
os	-959
▁also	-960
samen	-961
▁abgeordne	-962
▁stär	-963
▁erforder	-964
▁ja	-965
legt	-966
undheit	-967
▁region	-968
▁hal	-969
kungen	-970
▁ländern	-971
ts	-972
ris	-973
▁wich	-974
▁präsidentin	-975
▁ä	-976
ichts	-977
▁wirklich	-978
▁wettbewerb	-979
▁regierung	-980
spolitik	-981
hn	-982
fer	-983
agt	-984
gleich	-985
rag	-986
▁3	-987
▁ersten	-988
▁pri	-989
führt	-990
▁zun	-991
wirtschaft	-992
sätz	-993
▁bess	-994
ölk	-995
dien	-996
rifft	-997
ünf	-998
▁stand	-999
lungs	-1000
zü	-1001
ituation	-1002
▁schutz	-1003
ilfe	-1004
▁verbrauch	-1005
▁entsp	-1006
▁sei	-1007
▁vertrag	-1008
pa	-1009
▁politischen	-1010
stand	-1011
▁meinung	-1012
▁euro	-1013
kten	-1014
▁etwas	-1015
▁bedeutung	-1016
▁frauen	-1017
▁zukunft	-1018
▁letzten	-1019
tisch	-1020
rak	-1021
▁ta	-1022
▁lassen	-1023
iv	-1024
neh	-1025
stellung	-1026
▁gewähr	-1027
vorsch	-1028
timmt	-1029
gemein	-1030
tiert	-1031
▁lage	-1032
hang	-1033
schieden	-1034
rän	-1035
ßt	-1036
▁worden	-1037
▁anw	-1038
▁kommen	-1039
▁dabei	-1040
▁geben	-1041
▁unterstützen	-1042
▁rates	-1043
alität	-1044
riften	-1045
▁gesam	-1046
hä	-1047
▁besteht	-1048
ot	-1049
▁lös	-1050
führung	-1051
▁strate	-1052
uf	-1053
fri	-1054
▁20	-1055
▁zurück	-1056
▁beschäftig	-1057
onen	-1058
beiten	-1059
▁op	-1060
▁institu	-1061
falls	-1062
▁stellen	-1063
▁vorschlä	-1064
bat	-1065
orgen	-1066
▁begrü	-1067
▁staaten	-1068
▁mill	-1069
▁offen	-1070
▁gemeinsamen	-1071
▁ka	-1072
▁gebie	-1073
▁zwar	-1074
▁kontro	-1075
▁produ	-1076
▁nutz	-1077
▁probleme	-1078
lü	-1079
▁gut	-1080
▁gesetz	-1081
▁bezie	-1082
andel	-1083
▁situation	-1084
net	-1085
ult	-1086
▁einzel	-1087
ren	-1088
gar	-1089
druck	-1090
▁wi	-1091
▁gest	-1092
▁stehen	-1093
▁brau	-1094
▁li	-1095
bau	-1096
▁mon	-1097
▁programm	-1098
▁seit	-1099
treten	-1100
▁zusammenhang	-1101
▁bew	-1102
sf	-1103
▁handel	-1104
▁bedeu	-1105
▁bil	-1106
erk	-1107
etzen	-1108
▁betrifft	-1109
▁grün	-1110
▁gesagt	-1111
▁kolleg	-1112
▁rolle	-1113
von	-1114
▁aussprache	-1115
ragen	-1116
▁bezug	-1117
▁gesundheit	-1118
▁während	-1119
fassung	-1120
▁verfü	-1121
▁statt	-1122
▁seiner	-1123
uer	-1124
glichen	-1125
reffen	-1126
dr	-1127
igten	-1128
▁drei	-1129
▁waren	-1130
▁ergeb	-1131
itiativ	-1132
▁debat	-1133
anden	-1134
altung	-1135
▁glaube	-1136
rieden	-1137
▁einge	-1138
▁grenz	-1139
kre	-1140
ämlich	-1141
▁nämlich	-1142
▁ter	-1143
ziel	-1144
strie	-1145
▁hö	-1146
▁kur	-1147
▁best	-1148
▁ak	-1149
▁system	-1150
▁rei	-1151
▁199	-1152
▁su	-1153
▁regel	-1154
ätig	-1155
▁ir	-1156
lichkeit	-1157
iell	-1158
tikel	-1159
▁lebens	-1160
▁schwier	-1161
▁heraus	-1162
▁techn	-1163
staat	-1164
andlungen	-1165
▁davon	-1166
gaben	-1167
▁verpf	-1168
▁dür	-1169
sk	-1170
▁hei	-1171
igt	-1172
▁erg	-1173
zess	-1174
▁gegenüber	-1175
annt	-1176
▁unseren	-1177
ven	-1178
äten	-1179
▁weg	-1180
olk	-1181
▁klein	-1182
▁inner	-1183
weisen	-1184
▁schließ	-1185
endung	-1186
ektor	-1187
▁ne	-1188
▁verschieden	-1189
▁abstimmung	-1190
▁internationalen	-1191
▁konf	-1192
▁weise	-1193
ellschaft	-1194
fassen	-1195
▁markt	-1196
blick	-1197
▁hinsicht	-1198
▁hät	-1199
rat	-1200
ultur	-1201
ister	-1202
hö	-1203
▁folgen	-1204
▁äuß	-1205
sitz	-1206
▁verbraucher	-1207
▁hervor	-1208
▁daran	-1209
gesetzt	-1210
zen	-1211
▁könnte	-1212
ichte	-1213
▁versu	-1214
raft	-1215
esse	-1216
ritte	-1217
beh	-1218
wert	-1219
legenheit	-1220
ade	-1221
lassen	-1222
▁verfahren	-1223
▁berück	-1224
▁darf	-1225
schutz	-1226
onds	-1227
▁punkt	-1228
ander	-1229
▁transp	-1230
wär	-1231
▁volk	-1232
▁menschenrechte	-1233
iels	-1234
▁dank	-1235
▁wesent	-1236
▁vielen	-1237
▁tür	-1238
tische	-1239
gabe	-1240
▁fortsch	-1241
▁5	-1242
itäten	-1243
leist	-1244
▁europas	-1245
▁anst	-1246
häng	-1247
▁allgemein	-1248
üb	-1249
▁herren	-1250
▁haushalts	-1251
ierten	-1252
our	-1253
ächst	-1254
▁darin	-1255
▁abkommen	-1256
▁min	-1257
esen	-1258
▁besonders	-1259
verkehr	-1260
▁wahr	-1261
rise	-1262
▁fre	-1263
▁stärk	-1264
▁artikel	-1265
▁führen	-1266
▁hoffe	-1267
▁fischer	-1268
▁blei	-1269
äl	-1270
▁genau	-1271
liegen	-1272
prochen	-1273
▁sowohl	-1274
▁groß	-1275
▁gar	-1276
zip	-1277
gestellt	-1278
schaften	-1279
▁inte	-1280
▁ur	-1281
▁forsch	-1282
li	-1283
▁wahl	-1284
▁welche	-1285
▁große	-1286
▁nationalen	-1287
▁bestehen	-1288
▁empf	-1289
fte	-1290
führen	-1291
ichten	-1292
▁initiativ	-1293
geschlagen	-1294
▁gemeinsame	-1295
▁schwer	-1296
eln	-1297
▁deren	-1298
hol	-1299
ierungs	-1300
ler	-1301
▁gehör	-1302
ekte	-1303
ational	-1304
elle	-1305
▁politische	-1306
olog	-1307
sichtig	-1308
▁erst	-1309
▁vorschläge	-1310
▁erweiter	-1311
▁bit	-1312
▁form	-1313
▁damen	-1314
▁näch	-1315
▁4	-1316
▁jahre	-1317
▁entscheiden	-1318
▁gerade	-1319
▁beispiel	-1320
fiz	-1321
▁änderungsantrag	-1322
▁inv	-1323
▁ansicht	-1324
▁will	-1325
racht	-1326
gelegt	-1327
▁rechte	-1328
▁spe	-1329
auf	-1330
spräsiden	-1331
unde	-1332
▁auswir	-1333
ta	-1334
▁möglichkeit	-1335
reifen	-1336
▁kri	-1337
▁kolleginnen	-1338
▁art	-1339
▁organis	-1340
▁lösung	-1341
▁dienst	-1342
abil	-1343
leg	-1344
rift	-1345
▁debatte	-1346
zw	-1347
ums	-1348
▁kultur	-1349
▁brauchen	-1350
ange	-1351
▁großen	-1352
▁ebene	-1353
pfung	-1354
stra	-1355
▁bringen	-1356
▁umsetzung	-1357
▁rück	-1358
▁abgeordneten	-1359
örden	-1360
dings	-1361
▁ben	-1362
▁sti	-1363
gew	-1364
▁demokratie	-1365
▁allerdings	-1366
▁steht	-1367
▁vorgeschlagen	-1368
▁türk	-1369
▁bekäm	-1370
erenz	-1371
uft	-1372
▁weit	-1373
▁weiterhin	-1374
völk	-1375
teilung	-1376
los	-1377
rom	-1378
ogen	-1379
▁beteil	-1380
ffung	-1381
mente	-1382
rech	-1383
▁beim	-1384
▁.	-1385
▁wohl	-1386
▁unterschie	-1387
▁bef	-1388
▁liegt	-1389
▁spiel	-1390
▁danken	-1391
▁versch	-1392
▁dürfen	-1393
verfahren	-1394
merk	-1395
ror	-1396
▁alles	-1397
▁positiv	-1398
▁binnen	-1399
▁vert	-1400
▁struktur	-1401
ationale	-1402
len	-1403
▁fr	-1404
▁einzu	-1405
▁erhalten	-1406
affen	-1407
▁wach	-1408
▁hinaus	-1409
▁stimm	-1410
▁erreichen	-1411
dig	-1412
▁indu	-1413
▁außen	-1414
▁konkre	-1415
ielleicht	-1416
▁innerhalb	-1417
▁bemü	-1418
▁gere	-1419
▁vielleicht	-1420
▁sozialen	-1421
▁zunächst	-1422
▁millionen	-1423
▁hinblick	-1424
ähn	-1425
ierte	-1426
▁darum	-1427
▁vereinbar	-1428
stet	-1429
▁deutlich	-1430
lob	-1431
zent	-1432
rigen	-1433
setzen	-1434
▁üb	-1435
maß	-1436
▁kam	-1437
hung	-1438
sse	-1439
▁entwicklungs	-1440
▁lang	-1441
▁asp	-1442
bereich	-1443
▁end	-1444
ens	-1445
möglich	-1446
▁fischerei	-1447
ländern	-1448
nehmer	-1449
▁instru	-1450
▁landwirtschaft	-1451
rinzip	-1452
▁arbeitsp	-1453
ennt	-1454
▁solche	-1455
▁sollen	-1456
zahl	-1457
▁inves	-1458
▁star	-1459
▁gestimmt	-1460
▁denke	-1461
tragen	-1462
▁hilfe	-1463
▁ausschusses	-1464
▁macht	-1465
▁entschließung	-1466
▁verhandlungen	-1467
ak	-1468
▁außerdem	-1469
▁ziele	-1470
▁ti	-1471
io	-1472
org	-1473
unktion	-1474
vo	-1475
zeitig	-1476
▁einigen	-1477
▁glob	-1478
▁nichts	-1479
▁kurz	-1480
▁ende	-1481
oren	-1482
▁überein	-1483
▁verantwortung	-1484
dert	-1485
▁wirtschafts	-1486
▁sitz	-1487
ement	-1488
wiesen	-1489
▁angenommen	-1490
▁vergangen	-1491
▁kosten	-1492
eig	-1493
▁fl	-1494
▁wichtige	-1495
▁handelt	-1496
▁entscheidung	-1497
gegen	-1498
ierungen	-1499
▁hau	-1500
▁notwendig	-1501
▁verkehr	-1502
▁terror	-1503
▁schne	-1504
▁verordnung	-1505
ende	-1506
ka	-1507
alisierung	-1508
▁finanzie	-1509
▁verl	-1510
▁vertra	-1511
mals	-1512
▁erziel	-1513
ban	-1514
arität	-1515
züglich	-1516
▁weitere	-1517
▁strategie	-1518
isten	-1519
▁grundlage	-1520
▁schaffen	-1521
xt	-1522
fang	-1523
▁finden	-1524
lück	-1525
▁einfach	-1526
▁staat	-1527
ko	-1528
▁überw	-1529
eile	-1530
▁stabil	-1531
eits	-1532
▁beitritt	-1533
anc	-1534
▁bevölk	-1535
▁feh	-1536
▁meines	-1537
letz	-1538
▁get	-1539
schein	-1540
▁ju	-1541
sto	-1542
▁überzeu	-1543
▁schrift	-1544
▁gewährlei	-1545
▁indem	-1546
▁regionen	-1547
drück	-1548
▁lau	-1549
▁werde	-1550
▁gil	-1551
tlich	-1552
▁sprechen	-1553
rank	-1554
ktionen	-1555
▁würden	-1556
zogen	-1557
▁gleichzeitig	-1558
mäß	-1559
▁transpar	-1560
▁besser	-1561
▁industrie	-1562
▁institutionen	-1563
▁beiden	-1564
ären	-1565
sver	-1566
▁-,	-1567
▁binnenmarkt	-1568
▁diskuss	-1569
▁weiß	-1570
▁tatsache	-1571
▁unab	-1572
▁größ	-1573
▁erach	-1574
▁frieden	-1575
ast	-1576
▁gilt	-1577
chs	-1578
▁mil	-1579
verständ	-1580
▁verm	-1581
▁is	-1582
▁tro	-1583
ielsweise	-1584
unter	-1585
▁auswirkungen	-1586
▁entsprechen	-1587
prü	-1588
▁wider	-1589
▁gemacht	-1590
▁beispielsweise	-1591
▁vertre	-1592
▁ihrem	-1593
raum	-1594
fel	-1595
orden	-1596
▁angesichts	-1597
no	-1598
▁akze	-1599
▁dort	-1600
▁zugang	-1601
▁fä	-1602
▁funktion	-1603
▁aufgrund	-1604
alog	-1605
linien	-1606
▁gegenwär	-1607
ächlich	-1608
▁beding	-1609
▁gesellschaft	-1610
▁hä	-1611
schuss	-1612
▁ebenfalls	-1613
igkeiten	-1614
▁ausdruck	-1615
▁aktiv	-1616
frage	-1617
▁proj	-1618
ähigkeit	-1619
to	-1620
abon	-1621
issabon	-1622
▁wort	-1623
▁eng	-1624
heb	-1625
▁res	-1626
▁schritt	-1627
ehn	-1628
▁unterstützt	-1629
vorschriften	-1630
saus	-1631
▁gegeben	-1632
▁kommt	-1633
▁aufmerk	-1634
▁lissabon	-1635
▁beschäftigung	-1636
unkte	-1637
ass	-1638
▁aufmerksam	-1639
lex	-1640
▁stellt	-1641
▁reform	-1642
▁jeder	-1643
fern	-1644
▁informationen	-1645
▁russ	-1646
▁weniger	-1647
▁aufge	-1648
200	-1649
▁prä	-1650
▁leg	-1651
▁zent	-1652
▁verur	-1653
sor	-1654
▁keinen	-1655
▁woch	-1656
▁verpflicht	-1657
hält	-1658
▁dessen	-1659
▁nehmen	-1660
▁erweiterung	-1661
▁schließlich	-1662
reg	-1663
gesehen	-1664
▁partei	-1665
▁sehen	-1666
▁jahres	-1667
fä	-1668
▁zuständ	-1669
eg	-1670
▁nutzen	-1671
▁el	-1672
▁information	-1673
▁ratspräsiden	-1674
▁interesse	-1675
▁kinder	-1676
▁ebenso	-1677
▁eigenen	-1678
▁betra	-1679
▁förderung	-1680
▁türkei	-1681
erheit	-1682
▁erfü	-1683
deu	-1684
▁sektor	-1685
▁gute	-1686
reiten	-1687
▁seinen	-1688
▁leider	-1689
▁nachhal	-1690
▁verschiedenen	-1691
▁tages	-1692
äu	-1693
▁umfassen	-1694
▁pf	-1695
▁partner	-1696
▁bedeutet	-1697
▁behörden	-1698
pu	-1699
▁beziehungen	-1700
finden	-1701
▁hatte	-1702
▁vereinigten	-1703
kom	-1704
▁unterschied	-1705
lätz	-1706
anischen	-1707
▁geld	-1708
▁pol	-1709
uen	-1710
▁kommissarin	-1711
ald	-1712
▁prior	-1713
durch	-1714
indern	-1715
zustellen	-1716
▁anerk	-1717
eitung	-1718
oten	-1719
▁hinsichtlich	-1720
▁kli	-1721
einander	-1722
prä	-1723
▁unabhäng	-1724
rupp	-1725
andlung	-1726
ffiz	-1727
▁steuer	-1728
▁schaffung	-1729
▁erachtens	-1730
▁interessen	-1731
▁erste	-1732
fraktion	-1733
fs	-1734
gerung	-1735
orten	-1736
▁antwort	-1737
llig	-1738
▁stimme	-1739
▁sogar	-1740
▁dialog	-1741
jen	-1742
ina	-1743
▁verfol	-1744
▁schnell	-1745
▁prü	-1746
ffizien	-1747
forderungen	-1748
▁forschung	-1749
per	-1750
▁anzu	-1751
fung	-1752
▁öffentlichen	-1753
▁erforderlich	-1754
denken	-1755
▁trotz	-1756
ähl	-1757
ob	-1758
▁mar	-1759
▁hätte	-1760
▁beitrag	-1761
▁könnten	-1762
▁erhö	-1763
▁berücksichtig	-1764
ordin	-1765
haltung	-1766
merik	-1767
▁hoch	-1768
▁prot	-1769
splan	-1770
▁standpunkt	-1771
▁6	-1772
▁äußerst	-1773
stum	-1774
ichtet	-1775
▁komprom	-1776
▁notwendigkeit	-1777
weis	-1778
sion	-1779
▁nächsten	-1780
▁drin	-1781
des	-1782
rieben	-1783
stimmen	-1784
▁obwohl	-1785
▁meinen	-1786
▁investi	-1787
▁bedingungen	-1788
arbeiten	-1789
▁konn	-1790
ruch	-1791
▁prak	-1792
▁bi	-1793
▁tag	-1794
▁geschä	-1795
▁gebiet	-1796
▁dir	-1797
▁fern	-1798
▁klima	-1799
▁koordin	-1800
▁arbeitsplätz	-1801
hil	-1802
▁gehen	-1803
indest	-1804
pl	-1805
▁bekämpfung	-1806
▁gewalt	-1807
▁hinter	-1808
jenigen	-1809
▁stellung	-1810
▁zweitens	-1811
▁mehrheit	-1812
▁bisher	-1813
▁bevölkerung	-1814
mmt	-1815
alien	-1816
reis	-1817
fordert	-1818
▁arbeiten	-1819
alten	-1820
▁frü	-1821
▁wün	-1822
gern	-1823
teilen	-1824
▁empfeh	-1825
▁absch	-1826
▁drit	-1827
▁jeden	-1828
urop	-1829
▁dienstleist	-1830
▁daten	-1831
▁angem	-1832
▁aufgabe	-1833
▁veränder	-1834
stell	-1835
gungen	-1836
▁anwendung	-1837
fragen	-1838
inst	-1839
▁wenig	-1840
▁solid	-1841
chtig	-1842
▁flug	-1843
zeug	-1844
luß	-1845
uch	-1846
▁kor	-1847
▁haupt	-1848
▁einzelnen	-1849
▁betro	-1850
frist	-1851
andelt	-1852
▁zentra	-1853
ssystem	-1854
reichen	-1855
▁abschließ	-1856
▁soziale	-1857
▁vö	-1858
grenz	-1859
▁verbesserung	-1860
▁priv	-1861
▁liber	-1862
▁verstär	-1863
äd	-1864
▁seiten	-1865
entw	-1866
▁betroffen	-1867
▁schriftlich	-1868
▁heißt	-1869
-0	-1870
▁reihe	-1871
▁ernst	-1872
▁sorgen	-1873
mitt	-1874
▁disku	-1875
voll	-1876
▁erreicht	-1877
▁befür	-1878
struktur	-1879
▁wichtigen	-1880
pe	-1881
▁agra	-1882
▁präsidentschaft	-1883
auss	-1884
▁krise	-1885
▁politisch	-1886
▁gefähr	-1887
▁berichts	-1888
▁fortschritte	-1889
bericht	-1890
mitteln	-1891
ktor	-1892
▁tatsächlich	-1893
▁schul	-1894
▁zie	-1895
▁stimmen	-1896
unehmen	-1897
▁morgen	-1898
▁bie	-1899
▁verteid	-1900
programm	-1901
▁tagesordnung	-1902
arten	-1903
oku	-1904
▁gener	-1905
usetzen	-1906
plan	-1907
nissen	-1908
bilität	-1909
▁ihm	-1910
▁eindeu	-1911
▁einheit	-1912
▁erfolg	-1913
▁personen	-1914
maßnahmen	-1915
▁8	-1916
▁vier	-1917
▁übrigen	-1918
▁richtig	-1919
▁kraft	-1920
▁bo	-1921
▁derzeit	-1922
ember	-1923
▁usa	-1924
▁201	-1925
cken	-1926
die	-1927
tis	-1928
▁auszu	-1929
▁7	-1930
▁gelten	-1931
▁din	-1932
▁grundsätz	-1933
▁bar	-1934
anken	-1935
▁untersu	-1936
▁ergebnis	-1937
▁tätig	-1938
▁einw	-1939
▁kontrolle	-1940
mon	-1941
reiben	-1942
▁gemeinschafts	-1943
gliche	-1944
▁akzep	-1945
▁begrüße	-1946
▁unver	-1947
▁vorliegen	-1948
▁fünf	-1949
▁unbe	-1950
▁gehört	-1951
annten	-1952
▁europäischer	-1953
▁halten	-1954
da	-1955
sab	-1956
sei	-1957
immt	-1958
▁richtung	-1959
▁bereichen	-1960
▁halte	-1961
▁fördern	-1962
▁arbeitnehmer	-1963
gien	-1964
▁angemessen	-1965
euer	-1966
frei	-1967
riter	-1968
▁ihn	-1969
zunehmen	-1970
okoll	-1971
▁stabilität	-1972
▁gelegenheit	-1973
▁abzu	-1974
bezie	-1975
▁forder	-1976
▁ehr	-1977
▁bitte	-1978
▁geschäft	-1979
▁jen	-1980
arbei	-1981
▁erstens	-1982
▁vern	-1983
pfel	-1984
richtung	-1985
▁grundlegen	-1986
tur	-1987
fonds	-1988
ssel	-1989
▁sag	-1990
gri	-1991
▁agrar	-1992
▁mal	-1993
▁minister	-1994
▁treffen	-1995
▁auffassung	-1996
▁zusätz	-1997
gelung	-1998
vention	-1999
▁wirksam	-2000
▁ziv	-2001
▁hel	-2002
läss	-2003
ände	-2004
▁har	-2005
itär	-2006
▁nor	-2007
▁integra	-2008
sol	-2009
wegen	-2010
▁diskussion	-2011
▁meinem	-2012
▁bedau	-2013
▁mär	-2014
gu	-2015
▁verab	-2016
▁text	-2017
▁wettbewerbsf	-2018
teilt	-2019
atten	-2020
lass	-2021
▁initiative	-2022
legenheiten	-2023
verständlich	-2024
▁garan	-2025
urf	-2026
▁bürgerinnen	-2027
all	-2028
ürz	-2029
000	-2030
scht	-2031
▁schein	-2032
▁sinn	-2033
▁warum	-2034
▁mitglieder	-2035
▁sen	-2036
▁sü	-2037
stellt	-2038
sst	-2039
▁mei	-2040
▁bleiben	-2041
erstatterin	-2042
ali	-2043
▁as	-2044
▁völlig	-2045
▁vorgesehen	-2046
▁erwähn	-2047
▁gesamten	-2048
▁fam	-2049
▁kampf	-2050
baren	-2051
tien	-2052
▁weiteren	-2053
▁erklärung	-2054
▁größer	-2055
wür	-2056
▁„	-2057
rechts	-2058
▁oft	-2059
bel	-2060
▁transparenz	-2061
yp	-2062
▁regierungen	-2063
20	-2064
▁lin	-2065
▁som	-2066
▁hand	-2067
achung	-2068
angen	-2069
▁bürgern	-2070
▁solidarität	-2071
▁ide	-2072
▁nah	-2073
astro	-2074
▁sicherheits	-2075
kung	-2076
▁gestellt	-2077
pfen	-2078
▁enthalten	-2079
▁wissenschaft	-2080
▁geschlossen	-2081
▁it	-2082
hilfe	-2083
▁staats	-2084
▁dritt	-2085
▁acht	-2086
▁aktion	-2087
▁gewährleisten	-2088
▁fes	-2089
usst	-2090
▁bevor	-2091
▁einführung	-2092
mut	-2093
▁19	-2094
▁chanc	-2095
rimin	-2096
stehen	-2097
▁bas	-2098
eck	-2099
▁möglichkeiten	-2100
▁aut	-2101
▁national	-2102
stung	-2103
möglichen	-2104
▁wert	-2105
▁bekannt	-2106
▁verfügung	-2107
▁9	-2108
▁qualität	-2109
▁vorschriften	-2110
liches	-2111
▁etwa	-2112
endet	-2113
▁integration	-2114
▁sicht	-2115
ennung	-2116
agement	-2117
/200	-2118
▁doku	-2119
▁wirtschaftliche	-2120
▁sitzung	-2121
gs	-2122
▁russland	-2123
im	-2124
▁effe	-2125
▁rede	-2126
▁verbind	-2127
astrop	-2128
atastrop	-2129
asst	-2130
▁rich	-2131
eichen	-2132
et	-2133
▁persön	-2134
mitglie	-2135
▁ph	-2136
▁to	-2137
formen	-2138
▁erheb	-2139
handel	-2140
▁seite	-2141
chter	-2142
▁internationale	-2143
▁abschließend	-2144
▁italien	-2145
▁ansp	-2146
▁überprü	-2147
▁freu	-2148
eigt	-2149
▁einger	-2150
mu	-2151
▁verbessern	-2152
bringen	-2153
▁entscheidungen	-2154
▁wachstum	-2155
grupp	-2156
▁bildung	-2157
haus	-2158
icherheit	-2159
▁einsch	-2160
bildung	-2161
isches	-2162
▁ged	-2163
▁prozess	-2164
svor	-2165
▁themen	-2166
▁danke	-2167
▁nieder	-2168
ktive	-2169
▁mi	-2170
▁akt	-2171
nov	-2172
ourc	-2173
strate	-2174
essourc	-2175
leben	-2176
▁geführt	-2177
▁luft	-2178
▁10	-2179
cher	-2180
▁institution	-2181
heben	-2182
▁zivil	-2183
▁unserem	-2184
▁innov	-2185
▁setzen	-2186
▁ansatz	-2187
riterien	-2188
▁hatten	-2189
▁vorzu	-2190
▁prinzip	-2191
▁handels	-2192
bare	-2193
▁allein	-2194
ünftig	-2195
▁begrüßen	-2196
▁unterb	-2197
▁vorber	-2198
uman	-2199
▁voran	-2200
▁regeln	-2201
▁handeln	-2202
▁dennoch	-2203
rem	-2204
▁freiheit	-2205
rael	-2206
▁miss	-2207
▁bedeuten	-2208
istischen	-2209
▁verk	-2210
konf	-2211
▁mensch	-2212
▁bel	-2213
gentur	-2214
gere	-2215
▁stu	-2216
▁fahr	-2217
erseits	-2218
▁ris	-2219
▁vorsitz	-2220
▁tat	-2221
ate	-2222
▁angelegenheit	-2223
▁bezüglich	-2224
▁grie	-2225
▁defin	-2226
folge	-2227
▁fordern	-2228
▁geschäfts	-2229
▁15	-2230
▁gebracht	-2231
gest	-2232
▁konzent	-2233
▁stelle	-2234
legung	-2235
mehr	-2236
iff	-2237
▁ausschuß	-2238
▁gründen	-2239
▁protokoll	-2240
hend	-2241
▁tra	-2242
▁dadurch	-2243
▁finanzierung	-2244
▁wobei	-2245
▁unseres	-2246
▁israel	-2247
zept	-2248
▁san	-2249
ösen	-2250
▁gefahr	-2251
▁terrorismus	-2252
▁vorauss	-2253
▁gelei	-2254
▁ergebnisse	-2255
▁rech	-2256
▁nationen	-2257
langen	-2258
hilfen	-2259
▁minder	-2260
▁völk	-2261
▁bzw	-2262
▁beitragen	-2263
▁kommun	-2264
tem	-2265
▁seinem	-2266
ieht	-2267
▁augen	-2268
arbeitet	-2269
▁bestimmungen	-2270
ennen	-2271
▁bri	-2272
▁punkte	-2273
▁schluss	-2274
▁bemühungen	-2275
tigt	-2276
aupt	-2277
▁gemäß	-2278
▁findet	-2279
beding	-2280
inne	-2281
aler	-2282
▁effizien	-2283
▁armut	-2284
▁wiederhol	-2285
lexi	-2286
tifiz	-2287
▁sagte	-2288
eist	-2289
fre	-2290
sichtigen	-2291
essourcen	-2292
▁anstren	-2293
▁bl	-2294
▁eigentlich	-2295
▁höch	-2296
chan	-2297
▁großer	-2298
nern	-2299
▁getan	-2300
▁verz	-2301
▁zeitpunkt	-2302
▁betreffen	-2303
oma	-2304
▁aufzu	-2305
▁aufmerksamkeit	-2306
▁dro	-2307
gü	-2308
lleg	-2309
verb	-2310
nommen	-2311
ron	-2312
▁vertrags	-2313
▁angelegenheiten	-2314
minister	-2315
▁bean	-2316
diglich	-2317
▁solchen	-2318
ket	-2319
▁gru	-2320
▁pal	-2321
▁lediglich	-2322
▁instrument	-2323
▁human	-2324
▁leisten	-2325
▁dinge	-2326
▁mitgliedstaat	-2327
▁ru	-2328
tho	-2329
zeichnet	-2330
▁aktu	-2331
ieden	-2332
kennen	-2333
▁grupp	-2334
werk	-2335
▁tragen	-2336
▁meisten	-2337
▁krie	-2338
ützen	-2339
blik	-2340
▁kompromiss	-2341
▁präsidenten	-2342
▁liegen	-2343
▁demokratischen	-2344
äst	-2345
▁vergangenen	-2346
▁vertreter	-2347
bur	-2348
▁ermöglichen	-2349
▁kontroll	-2350
komm	-2351
ffnung	-2352
sorgung	-2353
▁per	-2354
arf	-2355
▁hohen	-2356
tier	-2357
▁militär	-2358
hof	-2359
▁eindeutig	-2360
sausschuss	-2361
▁män	-2362
▁angeb	-2363
tiver	-2364
▁landes	-2365
produ	-2366
kraft	-2367
▁erster	-2368
▁lange	-2369
troffen	-2370
▁berücksichtigt	-2371
▁interess	-2372
▁12	-2373
▁spezie	-2374
▁hinzu	-2375
▁illeg	-2376
andels	-2377
ine	-2378
▁bleibt	-2379
▁vorgelegt	-2380
▁wegen	-2381
▁änderung	-2382
▁finanziellen	-2383
▁widersp	-2384
▁zweite	-2385
▁flexi	-2386
trägen	-2387
▁allgemeinen	-2388
▁hil	-2389
änger	-2390
▁bestimmte	-2391
amt	-2392
haft	-2393
rieren	-2394
▁erfahr	-2395
asser	-2396
zif	-2397
▁zuge	-2398
spr	-2399
▁erk	-2400
alis	-2401
teile	-2402
▁ausführ	-2403
▁hinweisen	-2404
sehen	-2405
▁kennt	-2406
▁flü	-2407
▁plan	-2408
publik	-2409
▁vertrauen	-2410
lückw	-2411
▁arbeitsplätze	-2412
ingt	-2413
▁schwe	-2414
▁investitionen	-2415
▁wichtiger	-2416
olo	-2417
▁vertreten	-2418
▁erfolgr	-2419
▁beruf	-2420
svorsitz	-2421
tworten	-2422
zige	-2423
▁hätten	-2424
ungsantrag	-2425
▁helfen	-2426
▁vollständ	-2427
▁stark	-2428
strategie	-2429
▁at	-2430
▁china	-2431
▁sub	-2432
▁vorgehen	-2433
lativ	-2434
▁sache	-2435
▁vorge	-2436
▁grenzen	-2437
ehm	-2438
▁aspekte	-2439
▁gerichts	-2440
▁000	-2441
mo	-2442
▁amerik	-2443
▁werte	-2444
▁durchge	-2445
▁genommen	-2446
▁zudem	-2447
▁dringend	-2448
▁verfassung	-2449
▁us	-2450
▁uhr	-2451
▁kap	-2452
▁anstrengungen	-2453
▁verrin	-2454
▁2000	-2455
▁diskrimin	-2456
▁annahme	-2457
menten	-2458
nehm	-2459
gerungen	-2460
▁afri	-2461
▁urspr	-2462
innern	-2463
▁zeigt	-2464
▁einschließ	-2465
tliche	-2466
arbeitung	-2467
sabkommen	-2468
gessen	-2469
▁ei	-2470
▁verfass	-2471
ive	-2472
▁angesprochen	-2473
1.	-2474
ahn	-2475
▁volks	-2476
▁befürw	-2477
rang	-2478
▁diejenigen	-2479
▁versuchen	-2480
▁getroffen	-2481
ünst	-2482
tell	-2483
iges	-2484
▁erinnern	-2485
geln	-2486
sprogramm	-2487
geschlossen	-2488
sektor	-2489
▁druck	-2490
▁les	-2491
▁verpflichtungen	-2492
▁ausreich	-2493
▁öffentlichkeit	-2494
orte	-2495
ikation	-2496
po	-2497
▁harmon	-2498
▁voraus	-2499
▁beschrän	-2500
▁möchten	-2501
▁schle	-2502
▁vergessen	-2503
gebung	-2504
▁geschaffen	-2505
▁ergreifen	-2506
▁führt	-2507
ont	-2508
ordn	-2509
▁prof	-2510
▁völker	-2511
▁änderungen	-2512
opp	-2513
sprozess	-2514
losigkeit	-2515
▁mitteilung	-2516
▁ferner	-2517
▁verpflich	-2518
▁nr	-2519
▁zweck	-2520
ünftigen	-2521
▁produktion	-2522
▁verabschie	-2523
drücklich	-2524
bedingungen	-2525
hnt	-2526
▁länd	-2527
jahr	-2528
▁schwierigkeiten	-2529
▁eingehen	-2530
▁paläst	-2531
▁berücksichtigen	-2532
▁bewusst	-2533
zeichne	-2534
▁verwaltung	-2535
oper	-2536
gebie	-2537
frieden	-2538
▁antrag	-2539
▁verständ	-2540
▁jün	-2541
haupt	-2542
▁port	-2543
system	-2544
▁opfer	-2545
ehrte	-2546
▁beschlossen	-2547
▁woche	-2548
ologie	-2549
▁abgeordnete	-2550
▁voraussetz	-2551
standen	-2552
▁del	-2553
reise	-2554
ium	-2555
▁verbunden	-2556
▁zweifel	-2557
▁zeigen	-2558
▁gesundheits	-2559
ards	-2560
▁nachbar	-2561
▁weder	-2562
richtlinie	-2563
▁zug	-2564
▁beru	-2565
bürger	-2566
▁darstellt	-2567
▁spra	-2568
aly	-2569
auft	-2570
▁behandelt	-2571
▁somit	-2572
erweise	-2573
▁grundsatz	-2574
burg	-2575
onnen	-2576
▁ratsvorsitz	-2577
ital	-2578
spart	-2579
▁verletz	-2580
▁aufgenommen	-2581
▁straf	-2582
▁keiner	-2583
▁verhindern	-2584
▁kern	-2585
▁konst	-2586
▁zweiten	-2587
▁position	-2588
konferenz	-2589
▁erneut	-2590
wogen	-2591
ckt	-2592
tigung	-2593
▁ständ	-2594
tzu	-2595
▁währung	-2596
▁plen	-2597
ufig	-2598
▁bemer	-2599
▁folgt	-2600
▁span	-2601
▁zumindest	-2602
gesamt	-2603
rahmen	-2604
▁endlich	-2605
bung	-2606
▁ev	-2607
▁nord	-2608
reiche	-2609
zeigt	-2610
achten	-2611
▁spielen	-2612
lückwün	-2613
▁glauben	-2614
digen	-2615
sichtlich	-2616
▁untersuch	-2617
▁woll	-2618
▁derzei	-2619
▁frank	-2620
▁öffentliche	-2621
▁sor	-2622
▁gab	-2623
▁betonen	-2624
▁stärker	-2625
▁benö	-2626
demokra	-2627
▁sinne	-2628
▁insgesamt	-2629
zusetzen	-2630
▁international	-2631
ehe	-2632
▁gerecht	-2633
▁absol	-2634
▁asy	-2635
gewiesen	-2636
▁br	-2637
likt	-2638
▁anerkennung	-2639
▁guten	-2640
gesetz	-2641
▁franz	-2642
▁parteien	-2643
▁scheint	-2644
äter	-2645
▁kleinen	-2646
dlich	-2647
▁lä	-2648
▁kriterien	-2649
anderung	-2650
man	-2651
▁bessere	-2652
under	-2653
meer	-2654
ard	-2655
ekten	-2656
spoliti	-2657
▁stellungnahme	-2658
▁redu	-2659
▁gleichen	-2660
▁regierungs	-2661
▁gipfel	-2662
ktiven	-2663
ure	-2664
▁jedes	-2665
▁gesamte	-2666
▁katastrop	-2667
▁entwickeln	-2668
erungen	-2669
▁vis	-2670
ulieren	-2671
uni	-2672
▁wesentlichen	-2673
▁monaten	-2674
▁jüng	-2675
▁famil	-2676
sequ	-2677
▁fortschritt	-2678
▁republik	-2679
▁finanzielle	-2680
▁wichtigsten	-2681
▁partnerschaft	-2682
rechend	-2683
▁co	-2684
▁zehn	-2685
▁irgend	-2686
▁wahlen	-2687
gelt	-2688
tung	-2689
later	-2690
▁vereinten	-2691
▁haltung	-2692
▁bestand	-2693
▁frankreich	-2694
▁parlamentar	-2695
inden	-2696
▁irak	-2697
▁einsatz	-2698
▁ziehen	-2699
▁ga	-2700
▁ereig	-2701
latz	-2702
▁beginn	-2703
dlichen	-2704
▁projekt	-2705
▁überhaupt	-2706
▁fast	-2707
politi	-2708
▁umfang	-2709
▁lesung	-2710
▁ermöglich	-2711
bet	-2712
emen	-2713
▁andererseits	-2714
▁wünschen	-2715
▁sy	-2716
istan	-2717
▁liebe	-2718
zuführen	-2719
▁vergleich	-2720
▁anderer	-2721
▁gefordert	-2722
▁einschließlich	-2723
leh	-2724
▁forderung	-2725
▁gegenwärtig	-2726
ign	-2727
▁prioritäten	-2728
▁konferenz	-2729
▁vereinbarung	-2730
indu	-2731
kan	-2732
schreiten	-2733
▁bekommen	-2734
▁einigung	-2735
ser	-2736
▁geh	-2737
zember	-2738
▁freue	-2739
▁einzige	-2740
▁langfrist	-2741
▁mitt	-2742
uropä	-2743
inner	-2744
▁dezember	-2745
▁technolog	-2746
siv	-2747
▁vielf	-2748
hoben	-2749
▁deutsch	-2750
ünftige	-2751
ant	-2752
▁fällen	-2753
▁sicherzustellen	-2754
▁höher	-2755
▁kürz	-2756
weil	-2757
▁konsequ	-2758
▁gesprochen	-2759
▁inhalt	-2760
rieb	-2761
präsiden	-2762
▁erwähnt	-2763
ausch	-2764
bank	-2765
▁organ	-2766
▁person	-2767
▁ihres	-2768
▁lok	-2769
▁lo	-2770
▁landwir	-2771
▁programme	-2772
▁kre	-2773
▁versich	-2774
▁ind	-2775
gesellschaft	-2776
▁jugend	-2777
ia	-2778
dner	-2779
▁'	-2780
▁bestimmten	-2781
rägt	-2782
legten	-2783
one	-2784
ält	-2785
onst	-2786
▁bitten	-2787
▁stren	-2788
▁sicherlich	-2789
kontro	-2790
chtlin	-2791
▁justi	-2792
▁fal	-2793
▁25	-2794
▁umgesetzt	-2795
▁erfolgreich	-2796
▁erzielt	-2797
▁raum	-2798
▁anfrage	-2799
▁ressourcen	-2800
rax	-2801
▁vo	-2802
▁entschieden	-2803
▁enthält	-2804
▁mul	-2805
ffi	-2806
ator	-2807
▁reformen	-2808
▁akzeptieren	-2809
▁unterstütze	-2810
andeln	-2811
▁familien	-2812
▁ausgewogen	-2813
▁könig	-2814
▁weltw	-2815
▁konkrete	-2816
▁preis	-2817
wand	-2818
part	-2819
ase	-2820
raxis	-2821
▁reduz	-2822
▁berichte	-2823
▁altern	-2824
▁bür	-2825
ungsverfahren	-2826
▁gewesen	-2827
▁initiativen	-2828
▁festgelegt	-2829
schließen	-2830
▁unge	-2831
▁erwarten	-2832
spe	-2833
▁sto	-2834
▁leit	-2835
ission	-2836
räfte	-2837
industrie	-2838
▁anpa	-2839
gi	-2840
▁neben	-2841
län	-2842
greifen	-2843
▁agentur	-2844
▁hoffen	-2845
▁schützen	-2846
▁lu	-2847
▁jede	-2848
wertung	-2849
▁pass	-2850
▁zunehmen	-2851
änden	-2852
mitte	-2853
▁bau	-2854
▁neuer	-2855
▁kommissions	-2856
ativen	-2857
▁uner	-2858
dell	-2859
▁verwir	-2860
▁grenzüber	-2861
ration	-2862
ulierung	-2863
▁konnte	-2864
dingt	-2865
▁regelung	-2866
forderung	-2867
▁exp	-2868
▁überzeugt	-2869
▁ermöglicht	-2870
entwick	-2871
frastruktur	-2872
▁betroffenen	-2873
öst	-2874
ringt	-2875
istische	-2876
▁versucht	-2877
weg	-2878
▁jedem	-2879
▁richtlinien	-2880
häsion	-2881
iko	-2882
..	-2883
iar	-2884
/9	-2885
▁erzeu	-2886
▁zustimmung	-2887
▁verwendung	-2888
▁anfang	-2889
▁brü	-2890
chtet	-2891
▁sieht	-2892
▁früher	-2893
▁prüfen	-2894
gül	-2895
▁willen	-2896
▁genannten	-2897
vorschlag	-2898
▁nationale	-2899
▁französ	-2900
▁geleistet	-2901
▁untersch	-2902
▁achtung	-2903
▁flüchtlin	-2904
▁14	-2905
▁beglückwün	-2906
▁kohäsion	-2907
▁grat	-2908
inens	-2909
weit	-2910
▁gegensei	-2911
▁geworden	-2912
nit	-2913
▁verstehen	-2914
▁besitz	-2915
mitglied	-2916
▁kenntnis	-2917
▁unbedingt	-2918
zeichnung	-2919
▁aufgaben	-2920
utzt	-2921
▁deleg	-2922
▁entschlossen	-2923
▁vereinf	-2924
▁herz	-2925
▁durchführung	-2926
dienst	-2927
▁wochen	-2928
haben	-2929
lastung	-2930
▁koso	-2931
▁spezif	-2932
▁richtige	-2933
▁ratspräsident	-2934
▁absatz	-2935
▁milliar	-2936
▁rea	-2937
▁ele	-2938
▁analy	-2939
▁ratifiz	-2940
lu	-2941
▁ganze	-2942
▁bedarf	-2943
▁beob	-2944
▁erinner	-2945
bezogen	-2946
▁hingewiesen	-2947
andid	-2948
▁kü	-2949
▁wto	-2950
▁bedenken	-2951
▁verhalten	-2952
ative	-2953
▁beein	-2954
▁gesamt	-2955
▁kontin	-2956
▁stärkung	-2957
▁diskutieren	-2958
▁zentral	-2959
▁erschein	-2960
▁zufrieden	-2961
▁verhält	-2962
▁deswegen	-2963
▁konflikt	-2964
▁et	-2965
▁bereiche	-2966
▁reag	-2967
▁hohe	-2968
▁ausgaben	-2969
▁bestehenden	-2970
▁gebieten	-2971
▁klimaw	-2972
▁heutigen	-2973
▁palästinens	-2974
ches	-2975
▁netz	-2976
genda	-2977
▁nega	-2978
▁erfüllen	-2979
age	-2980
tert	-2981
▁säm	-2982
ssung	-2983
▁instrumente	-2984
orien	-2985
mäßig	-2986
▁irland	-2987
.)	-2988
▁umst	-2989
▁klare	-2990
rist	-2991
eben	-2992
▁beihilfen	-2993
▁festzu	-2994
lig	-2995
▁inten	-2996
▁größere	-2997
▁aufbau	-2998
▁durchgeführt	-2999
verkehrs	-3000
▁bedür	-3001
▁ganzen	-3002
▁vorher	-3003
riffen	-3004
▁linie	-3005
do	-3006
▁bedro	-3007
▁nutzung	-3008
▁stärken	-3009
▁königreich	-3010
iere	-3011
▁gesprä	-3012
▁strateg	-3013
▁fisch	-3014
▁dagegen	-3015
▁praxis	-3016
▁übereinkommen	-3017
ernen	-3018
▁entgegen	-3019
▁erklärt	-3020
▁lösungen	-3021
▁aspekt	-3022
unternehmen	-3023
▁zahlen	-3024
raus	-3025
▁30	-3026
▁stat	-3027
▁jan	-3028
▁organisationen	-3029
ffentlich	-3030
▁funktionieren	-3031
▁juni	-3032
mand	-3033
▁trag	-3034
▁verurs	-3035
▁tier	-3036
▁fraktionen	-3037
echtig	-3038
▁waffen	-3039
▁sach	-3040
▁deutschland	-3041
▁sorge	-3042
▁konnten	-3043
▁negativ	-3044
▁grundrechte	-3045
▁rum	-3046
gert	-3047
▁poten	-3048
▁entsprechend	-3049
▁kosovo	-3050
fälle	-3051
will	-3052
▁brüssel	-3053
haushalt	-3054
▁feststellen	-3055
▁13	-3056
bek	-3057
▁vorrang	-3058
gehend	-3059
▁kooper	-3060
ützt	-3061
▁erzielen	-3062
▁schen	-3063
▁medien	-3064
▁krimin	-3065
▁abw	-3066
▁natur	-3067
▁geschehen	-3068
▁ändern	-3069
bend	-3070
äuß	-3071
▁vorh	-3072
▁ök	-3073
kur	-3074
▁lösen	-3075
▁wesentlich	-3076
▁ausgezeichne	-3077
unsch	-3078
▁diesbe	-3079
▁lebensmittel	-3080
▁engagement	-3081
▁griechen	-3082
▁wasser	-3083
besch	-3084
▁einver	-3085
▁begrenz	-3086
▁pe	-3087
▁ser	-3088
▁humanit	-3089
▁elekt	-3090
▁entsprechenden	-3091
▁sechs	-3092
▁geschichte	-3093
schau	-3094
▁vorliegenden	-3095
issionen	-3096
▁vergangenheit	-3097
▁ähn	-3098
▁notwendigen	-3099
vertrag	-3100
▁teile	-3101
▁menschenrecht	-3102
setzt	-3103
▁fonds	-3104
▁abschluss	-3105
ören	-3106
▁glaub	-3107
▁gehören	-3108
▁krank	-3109
▁rumän	-3110
▁verteidigung	-3111
laufen	-3112
stausch	-3113
geschrän	-3114
▁relig	-3115
jähr	-3116
▁justiz	-3117
gebracht	-3118
▁derar	-3119
▁geeig	-3120
▁mut	-3121
▁drogen	-3122
▁erklärungen	-3123
▁besei	-3124
▁besten	-3125
▁2007	-3126
▁befinden	-3127
▁ort	-3128
▁bietet	-3129
▁iran	-3130
▁verpflichtet	-3131
▁übergang	-3132
▁legis	-3133
▁liberalisierung	-3134
▁mus	-3135
▁ursprün	-3136
▁überwachung	-3137
▁vorgeschlagenen	-3138
▁vorhanden	-3139
▁letzte	-3140
handels	-3141
örde	-3142
itution	-3143
▁besorg	-3144
▁koordinierung	-3145
▁zuk	-3146
▁gezeigt	-3147
▁besondere	-3148
▁bal	-3149
teten	-3150
▁offensichtlich	-3151
▁anders	-3152
abkommen	-3153
▁produkte	-3154
▁gleiche	-3155
▁beschluss	-3156
▁med	-3157
▁ersch	-3158
abel	-3159
▁antworten	-3160
▁entwurf	-3161
▁nahr	-3162
▁bieten	-3163
▁sign	-3164
▁positive	-3165
vis	-3166
▁bald	-3167
▁behinder	-3168
▁folge	-3169
▁eher	-3170
▁mai	-3171
▁direkt	-3172
▁einhaltung	-3173
▁drittens	-3174
▁priorität	-3175
▁erlau	-3176
▁dauer	-3177
zeichnen	-3178
best	-3179
▁verkehrs	-3180
co	-3181
▁innovation	-3182
▁blo	-3183
spa	-3184
▁ban	-3185
▁griechenland	-3186
▁häufig	-3187
▁behandlung	-3188
ftigen	-3189
vi	-3190
▁tradi	-3191
▁gra	-3192
▁wiederauf	-3193
▁darstellen	-3194
olu	-3195
ählt	-3196
sterreich	-3197
kra	-3198
uhr	-3199
▁später	-3200
barkeit	-3201
▁gesetzgebung	-3202
▁steu	-3203
▁gesehen	-3204
richtungen	-3205
▁eingesetzt	-3206
reten	-3207
▁beide	-3208
ingen	-3209
▁übernehmen	-3210
▁wettbewerbs	-3211
yn	-3212
dt	-3213
▁gek	-3214
▁größten	-3215
▁tätigkeit	-3216
▁mün	-3217
▁einbezie	-3218
▁projekte	-3219
▁metho	-3220
tigkeit	-3221
are	-3222
▁aktivitäten	-3223
dliche	-3224
iveau	-3225
äher	-3226
▁österreich	-3227
langt	-3228
▁beginnen	-3229
▁kommenden	-3230
nor	-3231
▁heim	-3232
▁gü	-3233
▁milliarden	-3234
▁dokument	-3235
fr	-3236
▁verfügen	-3237
▁fü	-3238
▁verpflichtung	-3239
▁janu	-3240
wahl	-3241
▁gerne	-3242
chnungs	-3243
▁konstru	-3244
▁argu	-3245
zehn	-3246
▁regelungen	-3247
▁beschäftigungs	-3248
geber	-3249
▁nimmt	-3250
▁erleich	-3251
▁tsche	-3252
▁verantwortlich	-3253
izei	-3254
▁stets	-3255
▁schwierig	-3256
ari	-3257
ub	-3258
▁gestern	-3259
fallen	-3260
▁europäer	-3261
hlen	-3262
▁teilen	-3263
res	-3264
achtet	-3265
▁durchaus	-3266
▁haushaltsplan	-3267
▁zahlreiche	-3268
▁wären	-3269
▁moment	-3270
ziehen	-3271
▁konzentrieren	-3272
▁einrichtung	-3273
union	-3274
▁kollege	-3275
▁minderheiten	-3276
lüsse	-3277
▁strukturfonds	-3278
▁schritte	-3279
▁januar	-3280
▁aufnahme	-3281
ritten	-3282
▁trans	-3283
▁genug	-3284
findet	-3285
▁ausschließ	-3286
▁möglicherweise	-3287
▁fair	-3288
▁diskriminierung	-3289
sel	-3290
arta	-3291
▁kop	-3292
▁erzeug	-3293
▁worte	-3294
▁arbeitsmarkt	-3295
▁ableh	-3296
gestimmt	-3297
▁gekommen	-3298
ellschaften	-3299
folgerungen	-3300
▁unternommen	-3301
▁krieg	-3302
▁beteiligung	-3303
kla	-3304
▁stattfinden	-3305
▁abhäng	-3306
pft	-3307
▁verö	-3308
▁bestätig	-3309
▁chance	-3310
▁falle	-3311
zeß	-3312
go	-3313
▁ad	-3314
▁ren	-3315
▁asyl	-3316
▁frem	-3317
▁mittelmeer	-3318
unkten	-3319
▁weltweit	-3320
▁denken	-3321
indes	-3322
▁gegenwärtigen	-3323
tlichen	-3324
▁1.	-3325
▁gewiss	-3326
▁einwanderung	-3327
▁verwirk	-3328
▁verbessert	-3329
▁niemand	-3330
▁mor	-3331
schul	-3332
▁forderungen	-3333
iken	-3334
▁blick	-3335
▁geist	-3336
▁bewer	-3337
▁ergän	-3338
tierung	-3339
▁nahrungs	-3340
▁reden	-3341
mär	-3342
▁bein	-3343
reit	-3344
rich	-3345
▁gefunden	-3346
▁genehm	-3347
▁außerhalb	-3348
▁bringt	-3349
).	-3350
seits	-3351
na	-3352
sweise	-3353
lauf	-3354
instru	-3355
züg	-3356
würd	-3357
low	-3358
▁zustimmen	-3359
▁verbrechen	-3360
▁verschiedene	-3361
▁50	-3362
▁sofor	-3363
▁endgül	-3364
▁einiger	-3365
ünde	-3366
▁versp	-3367
ober	-3368
grundlage	-3369
▁integr	-3370
griff	-3371
ärm	-3372
▁persönlich	-3373
▁wähl	-3374
▁fehler	-3375
▁erforderlichen	-3376
▁rechnungs	-3377
▁tie	-3378
▁mehrere	-3379
llos	-3380
▁verfolgen	-3381
pag	-3382
▁polizei	-3383
istor	-3384
scheid	-3385
▁freien	-3386
ssicherheit	-3387
▁märz	-3388
▁letzt	-3389
▁künftig	-3390
▁gesetzt	-3391
▁koh	-3392
▁enor	-3393
schw	-3394
▁2004	-3395
▁dimen	-3396
lange	-3397
▁leitlinien	-3398
▁demokratische	-3399
annte	-3400
tete	-3401
▁erör	-3402
▁verwalt	-3403
▁infrastruktur	-3404
▁erfüllt	-3405
▁bewertung	-3406
▁empfehlungen	-3407
iens	-3408
▁globalisierung	-3409
▁grunde	-3410
nimmt	-3411
▁maße	-3412
techn	-3413
▁unmittel	-3414
gruppe	-3415
riff	-3416
▁ukra	-3417
freiheit	-3418
agen	-3419
▁ergriffen	-3420
problem	-3421
wach	-3422
schuß	-3423
▁todes	-3424
anzen	-3425
▁betre	-3426
▁verfolgt	-3427
ition	-3428
▁histor	-3429
▁besorgnis	-3430
▁vermeiden	-3431
▁west	-3432
andidaten	-3433
▁verehrte	-3434
bo	-3435
▁mig	-3436
ortet	-3437
tischer	-3438
▁nachdem	-3439
eht	-3440
eten	-3441
han	-3442
samm	-3443
ute	-3444
▁mitte	-3445
▁18	-3446
zur	-3447
▁kapital	-3448
sition	-3449
bahn	-3450
▁gern	-3451
erungs	-3452
buch	-3453
▁anderem	-3454
▁entsprechende	-3455
indung	-3456
▁lässt	-3457
länd	-3458
▁1999	-3459
▁agrarpolitik	-3460
▁agenda	-3461
aut	-3462
▁osten	-3463
▁landwirte	-3464
▁absolut	-3465
▁erneuer	-3466
▁slow	-3467
▁wahrschein	-3468
▁beträ	-3469
ogra	-3470
reck	-3471
lehnt	-3472
▁internet	-3473
▁befassen	-3474
▁worten	-3475
▁amtieren	-3476
▁vielmehr	-3477
▁sprache	-3478
▁gegenteil	-3479
▁chancen	-3480
▁schlü	-3481
▁ungar	-3482
▁mindest	-3483
▁verbindung	-3484
▁bild	-3485
▁he	-3486
▁neues	-3487
▁mitteln	-3488
▁jähr	-3489
limm	-3490
fellos	-3491
▁zweifellos	-3492
▁gewährleistet	-3493
ufen	-3494
▁politischer	-3495
▁vers	-3496
gesundheit	-3497
▁sport	-3498
tember	-3499
▁forschungs	-3500
ierter	-3501
▁nochmals	-3502
▁sage	-3503
▁laufen	-3504
▁einsetzen	-3505
licherweise	-3506
krise	-3507
▁jene	-3508
tiger	-3509
5-0	-3510
▁ziels	-3511
aren	-3512
▁nov	-3513
▁grundsätze	-3514
gewicht	-3515
▁nationaler	-3516
▁ost	-3517
▁möglichst	-3518
▁mechan	-3519
▁straßen	-3520
▁außerorden	-3521
▁zerst	-3522
▁angeht	-3523
▁betont	-3524
▁höhe	-3525
fordern	-3526
▁wunsch	-3527
▁konzept	-3528
gei	-3529
▁währungs	-3530
organisationen	-3531
▁kritik	-3532
lation	-3533
▁sep	-3534
organisation	-3535
▁nennen	-3536
ordnungs	-3537
konom	-3538
▁2006	-3539
▁festgestellt	-3540
dam	-3541
▁erwar	-3542
▁zeitraum	-3543
▁entspricht	-3544
▁september	-3545
▁kooperation	-3546
▁kleine	-3547
▁17	-3548
äss	-3549
▁derzeitigen	-3550
▁konsu	-3551
▁bürokra	-3552
▁bedauer	-3553
▁app	-3554
▁kompl	-3555
▁weshalb	-3556
▁2009	-3557
▁diskutiert	-3558
ph	-3559
▁rechnung	-3560
▁geänder	-3561
▁eigene	-3562
▁nachhaltige	-3563
▁dra	-3564
▁cha	-3565
leiten	-3566
anten	-3567
▁kris	-3568
ek	-3569
maßen	-3570
▁problemen	-3571
▁real	-3572
auftrag	-3573
▁entwickelt	-3574
▁ausb	-3575
▁ländlichen	-3576
▁2010	-3577
leisch	-3578
tes	-3579
▁abstimm	-3580
▁drittländern	-3581
▁ausbildung	-3582
▁einerseits	-3583
▁harmonisierung	-3584
uten	-3585
▁leiden	-3586
▁ober	-3587
▁sicherstellen	-3588
▁ehrgei	-3589
▁fordere	-3590
▁hindern	-3591
losen	-3592
ähig	-3593
▁beglückwünschen	-3594
▁sanktionen	-3595
▁erfahrungen	-3596
bie	-3597
läge	-3598
trem	-3599
gruppen	-3600
▁ausreichend	-3601
▁regionalen	-3602
▁extrem	-3603
ätigen	-3604
▁einverstanden	-3605
▁organisation	-3606
▁legislativ	-3607
pek	-3608
▁maßnahme	-3609
▁betrachtet	-3610
hafte	-3611
▁vielfalt	-3612
▁gratulieren	-3613
hören	-3614
schung	-3615
▁zyp	-3616
ängt	-3617
ismen	-3618
▁uni	-3619
pri	-3620
ial	-3621
▁bill	-3622
▁gründe	-3623
▁erhöhen	-3624
▁hervorheben	-3625
ce	-3626
vent	-3627
▁bedürf	-3628
▁wollte	-3629
ausschuss	-3630
achtung	-3631
▁leu	-3632
▁befug	-3633
▁finde	-3634
▁grü	-3635
ünd	-3636
▁2005	-3637
▁jung	-3638
▁dienen	-3639
▁daraus	-3640
▁botschaft	-3641
zial	-3642
▁einfluss	-3643
wesen	-3644
▁respek	-3645
▁erklären	-3646
▁empfehlung	-3647
▁allgemeine	-3648
▁festge	-3649
▁go	-3650
▁eg	-3651
▁braucht	-3652
▁quali	-3653
▁überprüfung	-3654
▁fremden	-3655
▁gebiete	-3656
▁eindruck	-3657
▁jüngsten	-3658
▁dimension	-3659
▁informations	-3660
üben	-3661
ängen	-3662
▁absicht	-3663
▁konkreten	-3664
▁zoll	-3665
▁gelin	-3666
▁hervorge	-3667
▁hauses	-3668
▁vermitt	-3669
▁kenn	-3670
richten	-3671
▁erfolgen	-3672
▁bewäl	-3673
▁flexibilität	-3674
▁sozialdemokra	-3675
zer	-3676
▁ausges	-3677
▁globalen	-3678
▁auseinander	-3679
▁herausforderung	-3680
▁delegation	-3681
▁verd	-3682
▁früh	-3683
▁legiti	-3684
▁fordert	-3685
▁bu	-3686
▁sonst	-3687
▁erfre	-3688
▁verwendet	-3689
▁subsi	-3690
▁verfassungs	-3691
▁meinungs	-3692
▁beteiligt	-3693
▁ausdrücklich	-3694
▁16	-3695
▁unein	-3696
▁abend	-3697
▁ökolog	-3698
ffend	-3699
bauen	-3700
aup	-3701
▁plenum	-3702
▁veränderungen	-3703
▁mittl	-3704
▁aktionen	-3705
▁realität	-3706
▁meer	-3707
▁eingeführt	-3708
▁do	-3709
▁wege	-3710
läu	-3711
▁erkennen	-3712
▁subsidi	-3713
▁november	-3714
fg	-3715
▁risiko	-3716
behörden	-3717
▁britischen	-3718
bestimm	-3719
▁nö	-3720
▁rechtsstaat	-3721
▁liste	-3722
▁länger	-3723
▁pflicht	-3724
sausschusses	-3725
▁2008	-3726
▁iden	-3727
▁effektiv	-3728
▁tradition	-3729
swert	-3730
▁positiven	-3731
▁idee	-3732
tere	-3733
▁vorschlägen	-3734
▁regional	-3735
▁geschieht	-3736
xu	-3737
▁besonderen	-3738
▁erhöhung	-3739
▁zusätzliche	-3740
▁ass	-3741
▁basis	-3742
▁zuständigkeit	-3743
▁seitens	-3744
▁unabhängigkeit	-3745
lechter	-3746
lik	-3747
▁para	-3748
▁wichtiges	-3749
▁privat	-3750
▁festlegung	-3751
▁2003	-3752
▁besseren	-3753
▁ziff	-3754
wirken	-3755
eder	-3756
stoff	-3757
▁konvent	-3758
▁vorschlags	-3759
▁redner	-3760
▁sagt	-3761
spartei	-3762
▁nu	-3763
▁jem	-3764
▁ungleich	-3765
▁müs	-3766
▁rein	-3767
sichten	-3768
werte	-3769
▁kommunikation	-3770
▁ukraine	-3771
sagen	-3772
▁tagen	-3773
▁ec	-3774
▁technischen	-3775
leitet	-3776
▁entwicklungen	-3777
▁amster	-3778
enzen	-3779
▁11	-3780
eim	-3781
▁erö	-3782
▁behaup	-3783
▁berichten	-3784
▁beteiligten	-3785
reben	-3786
▁akte	-3787
tiken	-3788
▁klimawandel	-3789
▁2002	-3790
▁kaum	-3791
stoffe	-3792
▁okt	-3793
▁intensiv	-3794
▁verhältnis	-3795
klang	-3796
isieren	-3797
▁bemühen	-3798
unsten	-3799
▁sinnvoll	-3800
position	-3801
▁menschenrechts	-3802
uropäischen	-3803
▁ehem	-3804
nü	-3805
▁anforderungen	-3806
▁glück	-3807
▁untersuchung	-3808
▁afg	-3809
▁spanien	-3810
▁schaden	-3811
▁trotzdem	-3812
▁tex	-3813
▁korre	-3814
glichkeit	-3815
▁freiwill	-3816
▁konta	-3817
▁gestatten	-3818
▁deta	-3819
ördert	-3820
▁verantwortungs	-3821
punkte	-3822
▁erd	-3823
▁anderes	-3824
▁reaktion	-3825
▁oktober	-3826
ore	-3827
▁hoffnung	-3828
▁kmu	-3829
▁anliegen	-3830
▁jahrh	-3831
▁anti	-3832
don	-3833
zeuge	-3834
grenzen	-3835
▁abgelehnt	-3836
▁aktionsplan	-3837
-,	-3838
▁erwä	-3839
▁subsidiarität	-3840
▁vollständig	-3841
▁beitritts	-3842
▁schlüssel	-3843
sens	-3844
▁diskussionen	-3845
ktoren	-3846
entwurf	-3847
möglichkeiten	-3848
▁zusammenhalt	-3849
fasst	-3850
ote	-3851
uver	-3852
vers	-3853
▁anzahl	-3854
▁wahrscheinlich	-3855
▁anwes	-3856
▁pr	-3857
fügen	-3858
▁künftigen	-3859
▁eisen	-3860
äum	-3861
▁vorteile	-3862
eitet	-3863
▁abgeschlossen	-3864
▁wesentliche	-3865
je	-3866
▁dän	-3867
▁beur	-3868
▁fälle	-3869
▁tagung	-3870
▁gerichtshof	-3871
weiten	-3872
▁klaren	-3873
lang	-3874
▁gebe	-3875
ugal	-3876
rechten	-3877
fi	-3878
▁kompeten	-3879
▁multi	-3880
▁jeweil	-3881
▁überzeugung	-3882
paz	-3883
▁miß	-3884
▁käm	-3885
finanz	-3886
▁gelungen	-3887
ad	-3888
emente	-3889
iode	-3890
▁sensi	-3891
▁ehemal	-3892
▁see	-3893
▁afrika	-3894
▁ausführungen	-3895
▁benötigen	-3896
▁gewissen	-3897
bekäm	-3898
ulgar	-3899
feld	-3900
▁solcher	-3901
▁schengen	-3902
▁ersu	-3903
▁betrachten	-3904
▁einstimm	-3905
za	-3906
▁einig	-3907
ark	-3908
reitet	-3909
▁hintergrund	-3910
bs	-3911
weist	-3912
stag	-3913
grammen	-3914
▁portugal	-3915
beauftrag	-3916
▁einklang	-3917
▁entstehen	-3918
rakter	-3919
▁geäuß	-3920
▁hören	-3921
▁hause	-3922
▁frie	-3923
▁bekrä	-3924
▁fehlen	-3925
▁investition	-3926
▁bulgar	-3927
▁genutzt	-3928
tag	-3929
▁gewisse	-3930
▁politiken	-3931
▁keines	-3932
▁arbeitsplätzen	-3933
ime	-3934
▁vollkommen	-3935
legungen	-3936
▁vorlegen	-3937
▁verabschiedet	-3938
▁kompliz	-3939
▁fer	-3940
▁verträge	-3941
▁dritten	-3942
chischen	-3943
▁städ	-3944
handlungen	-3945
wenden	-3946
▁kindern	-3947
▁gruppe	-3948
▁schwierigen	-3949
▁höchst	-3950
▁programms	-3951
▁mio	-3952
▁bekämpfen	-3953
▁beige	-3954
▁größte	-3955
▁bemerkungen	-3956
▁exist	-3957
▁tab	-3958
▁genü	-3959
▁reagieren	-3960
▁behandeln	-3961
ielt	-3962
undert	-3963
▁stimmt	-3964
▁beab	-3965
▁sehe	-3966
▁anpassung	-3967
zah	-3968
mechan	-3969
▁appell	-3970
▁gruppen	-3971
▁weiterer	-3972
▁sämtliche	-3973
▁2001	-3974
▁unabhängig	-3975
▁hervorragen	-3976
▁rasch	-3977
▁bemerk	-3978
leistung	-3979
▁betrieb	-3980
▁voraussetzungen	-3981
▁monate	-3982
▁versuch	-3983
▁anspruch	-3984
▁miteinander	-3985
▁ausger	-3986
▁zugleich	-3987
▁27	-3988
▁einbeziehung	-3989
ritor	-3990
▁begrün	-3991
▁finn	-3992
▁mand	-3993
mittag	-3994
▁freiheiten	-3995
sicherheit	-3996
nei	-3997
▁fund	-3998
▁trägt	-3999
eb	-4000
▁europäisches	-4001
spakt	-4002
▁internationaler	-4003
▁rechtsgrundlage	-4004
rö	-4005
behalten	-4006
▁standards	-4007
▁wünsche	-4008
▁glaubwürd	-4009
fäl	-4010
▁betru	-4011
▁konsens	-4012
▁legen	-4013
utzung	-4014
▁fallen	-4015
▁umfassende	-4016
angt	-4017
▁beweis	-4018
▁aussprechen	-4019
läne	-4020
▁verbot	-4021
▁verwaltungs	-4022
▁lehr	-4023
effizien	-4024
▁ergeben	-4025
etzung	-4026
▁aufgefordert	-4027
▁verhinder	-4028
istisch	-4029
itieren	-4030
eller	-4031
▁chin	-4032
kosten	-4033
▁gefördert	-4034
▁verlei	-4035
räu	-4036
riebe	-4037
▁mindes	-4038
▁übrigens	-4039
▁ermu	-4040
▁entscheidend	-4041
uli	-4042
▁barro	-4043
bekämpfung	-4044
▁leist	-4045
▁schlimm	-4046
▁zielen	-4047
▁abkommens	-4048
sph	-4049
zügigkeit	-4050
▁anerkannt	-4051
▁van	-4052
▁alten	-4053
▁bru	-4054
▁mehrwert	-4055
▁bestätigt	-4056
täu	-4057
ffizie	-4058
▁umweltschutz	-4059
▁sorg	-4060
▁usw	-4061
▁zypern	-4062
▁abscha	-4063
▁mitarbeit	-4064
letzt	-4065
▁anteil	-4066
▁bilden	-4067
orgt	-4068
▁erläu	-4069
liegt	-4070
▁nächste	-4071
rup	-4072
fahrt	-4073
▁zuletzt	-4074
▁bra	-4075
sammlung	-4076
▁prüfung	-4077
▁zugunsten	-4078
▁vorbereitung	-4079
▁jetz	-4080
▁keinerlei	-4081
▁40	-4082
▁erwäh	-4083
▁schwei	-4084
▁erwart	-4085
stellungen	-4086
▁bemerkung	-4087
▁wichtigste	-4088
▁aufrech	-4089
▁charta	-4090
▁grundlegenden	-4091
▁gerin	-4092
bed	-4093
▁erle	-4094
▁oper	-4095
▁schluß	-4096
▁effizienz	-4097
▁schwed	-4098
▁umzusetzen	-4099
reib	-4100
amerik	-4101
▁2020	-4102
▁verständnis	-4103
nehmern	-4104
▁speziell	-4105
▁juli	-4106
▁verzö	-4107
▁ereignisse	-4108
▁urs	-4109
hebung	-4110
▁ans	-4111
▁unterschiede	-4112
▁näher	-4113
ätzung	-4114
cker	-4115
▁dienste	-4116
▁verstärkt	-4117
▁lernen	-4118
iß	-4119
▁krisen	-4120
▁enttäu	-4121
▁anstatt	-4122
▁bilater	-4123
▁schweden	-4124
▁echte	-4125
▁kollegin	-4126
▁sprach	-4127
▁beizu	-4128
ssektor	-4129
▁uneingeschrän	-4130
▁definition	-4131
volle	-4132
▁gedanken	-4133
▁rumänien	-4134
▁zuständigen	-4135
lose	-4136
stelle	-4137
fühl	-4138
▁ziffer	-4139
tent	-4140
▁stati	-4141
▁erfordert	-4142
dau	-4143
reitung	-4144
▁annehmen	-4145
4-0	-4146
▁diesel	-4147
▁sofort	-4148
by	-4149
▁erm	-4150
▁rest	-4151
▁heimat	-4152
rig	-4153
▁element	-4154
▁zahlreichen	-4155
▁benach	-4156
▁geeigne	-4157
atik	-4158
zone	-4159
▁märkte	-4160
▁anbel	-4161
▁afghan	-4162
▁hoffentlich	-4163
▁begriff	-4164
▁sprachen	-4165
▁charakter	-4166
▁akzeptiert	-4167
▁verfüg	-4168
▁ständig	-4169
▁größeren	-4170
▁akp	-4171
rates	-4172
▁anbelangt	-4173
▁mitgliedern	-4174
▁haft	-4175
ilie	-4176
elten	-4177
▁solange	-4178
▁nunmehr	-4179
▁polen	-4180
▁äußern	-4181
▁betreffenden	-4182
▁mag	-4183
▁falsch	-4184
tellten	-4185
▁ordnungs	-4186
),	-4187
ungsbereich	-4188
▁regionale	-4189
▁technologien	-4190
▁einheitlichen	-4191
prinzip	-4192
▁technische	-4193
beifall	-4194
behörde	-4195
ierenden	-4196
▁vorausschau	-4197
▁jeweiligen	-4198
▁berat	-4199
▁alter	-4200
▁einkommen	-4201
▁beträcht	-4202
▁eingegangen	-4203
zwungen	-4204
▁gelangen	-4205
▁verringerung	-4206
tim	-4207
▁log	-4208
▁gering	-4209
ventionen	-4210
▁beschlüsse	-4211
▁nachhaltigen	-4212
führten	-4213
erkennen	-4214
▁leicht	-4215
▁gleichstellung	-4216
▁niedr	-4217
▁offizie	-4218
▁territor	-4219
tit	-4220
barer	-4221
▁balkan	-4222
.00	-4223
steuer	-4224
▁bezieht	-4225
▁voraussetzung	-4226
▁systems	-4227
uverän	-4228
izin	-4229
▁mobilität	-4230
▁eisenbahn	-4231
▁entlastung	-4232
▁belar	-4233
▁ausgesprochen	-4234
▁wohlstand	-4235
▁möglichen	-4236
▁konsult	-4237
präsident	-4238
andlungs	-4239
▁einschrän	-4240
▁französischen	-4241
ergie	-4242
▁paten	-4243
▁kontinent	-4244
▁aktuellen	-4245
▁hält	-4246
▁schi	-4247
▁straß	-4248
▁gelöst	-4249
▁don	-4250
uropa	-4251
dienste	-4252
▁diesbezüglich	-4253
▁arz	-4254
▁phase	-4255
teren	-4256
orfen	-4257
▁schiff	-4258
▁verloren	-4259
netz	-4260
▁nein	-4261
▁öl	-4262
▁darunter	-4263
▁seien	-4264
▁komplex	-4265
▁gesetze	-4266
kle	-4267
▁normal	-4268
▁übereinstimmung	-4269
▁ansch	-4270
▁punkten	-4271
▁vorhaben	-4272
ize	-4273
üsse	-4274
▁elektron	-4275
▁gebühr	-4276
▁erfahrung	-4277
▁geändert	-4278
uren	-4279
versorgung	-4280
▁mu	-4281
altet	-4282
leistungen	-4283
ritann	-4284
▁kandidaten	-4285
▁imp	-4286
▁normen	-4287
▁betreffend	-4288
▁presse	-4289
▁großb	-4290
▁apri	-4291
▁serb	-4292
▁anmer	-4293
▁konflik	-4294
▁erfahren	-4295
▁außerordentlich	-4296
▁kontrollen	-4297
dient	-4298
▁zuver	-4299
minist	-4300
▁freizügigkeit	-4301
räge	-4302
▁kennen	-4303
▁volksgesundheit	-4304
▁zuzu	-4305
▁1998	-4306
▁herzlich	-4307
▁großbritann	-4308
▁geplan	-4309
▁ausschließlich	-4310
▁kro	-4311
▁kan	-4312
▁tut	-4313
spunkt	-4314
▁begrüßt	-4315
▁notwendige	-4316
▁lux	-4317
▁ehrgeiz	-4318
sfonds	-4319
▁april	-4320
▁fach	-4321
▁arten	-4322
öhn	-4323
▁11.	-4324
▁einwander	-4325
▁treten	-4326
▁vorzulegen	-4327
gef	-4328
▁nahen	-4329
olz	-4330
hofs	-4331
ließen	-4332
▁ordnung	-4333
▁zerstör	-4334
▁problems	-4335
▁kürzlich	-4336
kräfte	-4337
▁reich	-4338
▁dopp	-4339
▁letztendlich	-4340
▁ung	-4341
▁taus	-4342
ika	-4343
▁sk	-4344
▁nato	-4345
reisen	-4346
▁vereinbarungen	-4347
▁opposition	-4348
▁aufzunehmen	-4349
ieg	-4350
mittels	-4351
▁außenpolitik	-4352
▁rand	-4353
haften	-4354
▁herkunft	-4355
▁verfahrens	-4356
leun	-4357
▁gestalten	-4358
▁kulturellen	-4359
ozi	-4360
▁reicht	-4361
▁zufolge	-4362
▁personal	-4363
▁formul	-4364
▁souverän	-4365
▁grundlegende	-4366
strafe	-4367
▁modern	-4368
▁not	-4369
kommt	-4370
▁dipl	-4371
▁mitglieds	-4372
▁status	-4373
▁roma	-4374
▁strategien	-4375
▁starke	-4376
▁spielt	-4377
lam	-4378
▁tele	-4379
▁vertrau	-4380
berechtig	-4381
▁damals	-4382
▁gleichgewicht	-4383
regel	-4384
▁analyse	-4385
▁politiker	-4386
▁zust	-4387
▁beschleun	-4388
▁eingereicht	-4389
gipfel	-4390
▁verschw	-4391
proj	-4392
▁angemessene	-4393
ip	-4394
▁1,	-4395
▁vize	-4396
▁tabak	-4397
lichung	-4398
ssysteme	-4399
▁lautet	-4400
▁angriff	-4401
▁amerikan	-4402
zwischen	-4403
reche	-4404
▁modell	-4405
▁du	-4406
ungsf	-4407
▁signal	-4408
▁perspe	-4409
schnit	-4410
▁warten	-4411
▁th	-4412
▁elemente	-4413
bef	-4414
▁nütz	-4415
▁setzt	-4416
▁vorgeschlagene	-4417
ender	-4418
▁nahe	-4419
standards	-4420
igte	-4421
▁auswär	-4422
▁abstimmen	-4423
▁moder	-4424
▁gutes	-4425
▁manch	-4426
olution	-4427
eine	-4428
▁akzept	-4429
▁produkt	-4430
▁zurückge	-4431
▁risiken	-4432
▁friedens	-4433
attet	-4434
eitern	-4435
selben	-4436
▁sektoren	-4437
gende	-4438
▁entfern	-4439
▁,	-4440
▁binnenmarktes	-4441
lassung	-4442
▁verurteilt	-4443
▁wiederholen	-4444
steller	-4445
▁vorgenommen	-4446
▁verlangen	-4447
▁halb	-4448
sent	-4449
▁achten	-4450
▁transport	-4451
▁zentralbank	-4452
faßt	-4453
▁zwang	-4454
▁mindestens	-4455
▁komme	-4456
anen	-4457
▁100	-4458
▁genannt	-4459
▁barroso	-4460
▁tour	-4461
chtigkeit	-4462
▁beziehen	-4463
räum	-4464
▁anwesend	-4465
▁anwend	-4466
▁the	-4467
omen	-4468
schefs	-4469
▁eingehalten	-4470
▁richtigen	-4471
▁inso	-4472
▁zuw	-4473
▁funktioniert	-4474
ruh	-4475
▁glaubwürdigkeit	-4476
▁sym	-4477
▁amsterdam	-4478
hagen	-4479
erstatters	-4480
▁dahin	-4481
▁missb	-4482
▁teilweise	-4483
halte	-4484
kret	-4485
▁wirklichkeit	-4486
▁korrup	-4487
▁nachdrücklich	-4488
▁afghanistan	-4489
▁voranzu	-4490
ermaßen	-4491
▁genaus	-4492
▁umständen	-4493
▁unterstreichen	-4494
effizienz	-4495
▁lokalen	-4496
ätigkeit	-4497
öder	-4498
▁seines	-4499
gemeinschaft	-4500
▁haupts	-4501
▁ergänz	-4502
tisierung	-4503
terung	-4504
▁abziel	-4505
▁genauso	-4506
▁welchen	-4507
mitgliedstaaten	-4508
ählen	-4509
▁sexu	-4510
tten	-4511
fällen	-4512
▁illegalen	-4513
▁richten	-4514
▁uno	-4515
▁befugnisse	-4516
▁freie	-4517
▁folgende	-4518
daten	-4519
▁beam	-4520
▁banken	-4521
▁fällt	-4522
stums	-4523
ose	-4524
▁verbesserungen	-4525
▁übernommen	-4526
bild	-4527
▁grünen	-4528
▁eigent	-4529
▁mangel	-4530
▁danach	-4531
▁schätz	-4532
tierten	-4533
▁formen	-4534
ktiver	-4535
▁mater	-4536
▁familie	-4537
beziehungen	-4538
▁bestandteil	-4539
haf	-4540
▁großes	-4541
▁hervorgehoben	-4542
▁bewe	-4543
seh	-4544
▁bemüht	-4545
chsel	-4546
text	-4547
▁schlecht	-4548
▁praktisch	-4549
▁überlegungen	-4550
▁gefahren	-4551
▁erfolgt	-4552
▁verlieren	-4553
▁nahrungsmittel	-4554
griffen	-4555
▁kriminalität	-4556
▁anrei	-4557
▁ausnahme	-4558
rum	-4559
▁ii	-4560
▁armen	-4561
▁abschaffung	-4562
▁förder	-4563
▁geprü	-4564
ynam	-4565
dium	-4566
▁fehl	-4567
▁suchen	-4568
▁vorteil	-4569
▁eröff	-4570
▁zeichen	-4571
weite	-4572
inter	-4573
▁tief	-4574
ehrten	-4575
ckung	-4576
▁verstärken	-4577
▁ordnungsgem	-4578
eils	-4579
▁gesp	-4580
▁weiteres	-4581
▁schließen	-4582
▁konfron	-4583
▁letztlich	-4584
▁hilf	-4585
▁mehreren	-4586
sein	-4587
sätze	-4588
sorge	-4589
esischen	-4590
▁ausgezeichneten	-4591
rachen	-4592
räften	-4593
▁nachzu	-4594
initiativ	-4595
▁entscheidender	-4596
lägt	-4597
▁einbezogen	-4598
▁mitge	-4599
▁derartige	-4600
▁prinzipien	-4601
▁spricht	-4602
▁einzigen	-4603
▁falls	-4604
ituationen	-4605
▁luxem	-4606
▁medizin	-4607
▁wachsen	-4608
▁geltenden	-4609
krie	-4610
▁tiere	-4611
enhagen	-4612
▁verfügt	-4613
▁len	-4614
hnen	-4615
sverletz	-4616
▁umfassenden	-4617
▁bürgerbeauftrag	-4618
▁ppe	-4619
▁zer	-4620
änge	-4621
▁assozi	-4622
▁zurückzu	-4623
riert	-4624
▁subst	-4625
▁erhebliche	-4626
▁kopenhagen	-4627
▁übertragen	-4628
tte	-4629
undes	-4630
rochen	-4631
▁bank	-4632
▁gezogen	-4633
dge	-4634
▁1997	-4635
▁dritte	-4636
sper	-4637
gesellschaften	-4638
▁entscheidende	-4639
▁erscheint	-4640
▁arbeitsplatz	-4641
▁auftrag	-4642
▁übergangs	-4643
zusammen	-4644
▁krankheiten	-4645
nach	-4646
ile	-4647
▁migration	-4648
▁benachteil	-4649
das	-4650
▁massen	-4651
▁mass	-4652
sprinzip	-4653
▁bedauern	-4654
rige	-4655
▁kroa	-4656
pier	-4657
▁arznei	-4658
▁informiert	-4659
ust	-4660
▁siehe	-4661
▁humanitäre	-4662
▁erzeugnisse	-4663
▁oste	-4664
kontrolle	-4665
▁liberalen	-4666
▁großbritannien	-4667
teg	-4668
▁mitent	-4669
▁general	-4670
▁ten	-4671
▁künftige	-4672
regeln	-4673
▁block	-4674
▁heran	-4675
▁gesetzes	-4676
▁bestimmt	-4677
ock	-4678
isiert	-4679
▁–,	-4680
▁versichern	-4681
gendes	-4682
▁konkret	-4683
▁manchmal	-4684
▁welcher	-4685
▁atom	-4686
▁jungen	-4687
▁ging	-4688
▁regime	-4689
äumt	-4690
▁gas	-4691
▁vieler	-4692
spräsident	-4693
▁platz	-4694
last	-4695
▁abgestimmt	-4696
▁anschließen	-4697
▁deutschen	-4698
spar	-4699
▁gericht	-4700
▁profitieren	-4701
eugen	-4702
ba	-4703
▁folglich	-4704
-00	-4705
qualität	-4706
▁inzwischen	-4707
▁begonnen	-4708
▁ernsthaft	-4709
▁ausgesetzt	-4710
▁ecu	-4711
▁erheblich	-4712
tienten	-4713
▁infolge	-4714
▁ausw	-4715
▁befindet	-4716
▁kämpfen	-4717
klärung	-4718
▁wenigen	-4719
▁rechtlichen	-4720
bew	-4721
▁überall	-4722
▁dynam	-4723
▁rechten	-4724
▁parlamente	-4725
▁verdient	-4726
ährung	-4727
▁geprüft	-4728
ans	-4729
▁vorliegende	-4730
▁kritis	-4731
▁ag	-4732
▁verschär	-4733
▁bestimmter	-4734
▁gespräche	-4735
▁jetzigen	-4736
▁durchzuführen	-4737
▁vorange	-4738
▁austausch	-4739
▁spanischen	-4740
nö	-4741
▁tä	-4742
schm	-4743
rab	-4744
laus	-4745
istenz	-4746
▁sogen	-4747
ire	-4748
▁beabsichtig	-4749
▁erwartungen	-4750
▁jur	-4751
▁zeiten	-4752
▁männern	-4753
▁katastrophen	-4754
metho	-4755
▁insofern	-4756
▁vereinfachung	-4757
▁chem	-4758
▁präz	-4759
▁umweltfragen	-4760
erten	-4761
▁beteiligen	-4762
institution	-4763
▁rechnungshof	-4764
ap	-4765
▁relativ	-4766
▁steuern	-4767
ou	-4768
▁konkur	-4769
politischen	-4770
▁wann	-4771
ugie	-4772
▁geäußert	-4773
unruh	-4774
viel	-4775
dio	-4776
▁verleihen	-4777
▁sichern	-4778
▁beunruh	-4779
ament	-4780
modell	-4781
▁mobil	-4782
entwicklung	-4783
gebiet	-4784
skrise	-4785
▁portugie	-4786
akzept	-4787
▁energien	-4788
spolitischen	-4789
dessen	-4790
▁mögliche	-4791
▁regierungschefs	-4792
law	-4793
ordnungen	-4794
ssp	-4795
stat	-4796
▁einrichtungen	-4797
ärkt	-4798
▁exper	-4799
▁schwerpunkt	-4800
▁mitentscheid	-4801
rück	-4802
▁männer	-4803
▁ablehnung	-4804
▁transparen	-4805
grenzung	-4806
▁straßburg	-4807
▁flüchtlinge	-4808
▁korruption	-4809
▁unmittelbar	-4810
▁wiederher	-4811
örper	-4812
quellen	-4813
äden	-4814
▁bir	-4815
▁folgenden	-4816
▁bislang	-4817
märkte	-4818
▁bewegen	-4819
▁katastrophe	-4820
▁verhandlungs	-4821
raums	-4822
ic	-4823
▁georg	-4824
▁belarus	-4825
staatlichen	-4826
▁boden	-4827
▁dankbar	-4828
▁wirtschaftswach	-4829
▁rie	-4830
hnung	-4831
▁verfasser	-4832
legte	-4833
▁konsequenzen	-4834
▁herzen	-4835
▁wenige	-4836
▁verlangt	-4837
oler	-4838
▁übersch	-4839
▁auffordern	-4840
▁wodurch	-4841
tiges	-4842
▁sorgfäl	-4843
▁erwähnen	-4844
▁qualifiz	-4845
▁praktiken	-4846
▁informieren	-4847
▁öffentlich	-4848
ral	-4849
▁ig	-4850
▁erkennt	-4851
▁niemals	-4852
▁todesstrafe	-4853
▁vorgesehenen	-4854
▁rechtfer	-4855
atoren	-4856
▁kurzem	-4857
▁festzulegen	-4858
▁ratifizierung	-4859
▁lit	-4860
▁präsen	-4861
▁entweder	-4862
steht	-4863
ebru	-4864
lös	-4865
kanischen	-4866
▁febru	-4867
fuhr	-4868
sauf	-4869
erstattern	-4870
▁mittelpunkt	-4871
dit	-4872
tto	-4873
▁mann	-4874
prozess	-4875
▁vorbeh	-4876
▁verteidigen	-4877
▁rund	-4878
regelung	-4879
▁peti	-4880
▁februar	-4881
▁bewuß	-4882
▁stell	-4883
sausschuß	-4884
▁veröffent	-4885
▁anhör	-4886
▁dienstleistungs	-4887
wegs	-4888
▁sozialer	-4889
iums	-4890
▁laut	-4891
▁wahrheit	-4892
▁zuerst	-4893
▁führung	-4894
tritt	-4895
▁patienten	-4896
partner	-4897
▁leute	-4898
▁widerspruch	-4899
sko	-4900
▁unzu	-4901
▁gezwungen	-4902
alit	-4903
▁hierbei	-4904
▁garantieren	-4905
zus	-4906
künd	-4907
▁tri	-4908
▁beschwer	-4909
▁einheitliche	-4910
▁beschäftigen	-4911
▁äl	-4912
▁marktes	-4913
▁23	-4914
genden	-4915
▁verstanden	-4916
laub	-4917
▁zuvor	-4918
▁tatsäch	-4919
▁anfragen	-4920
▁schlägt	-4921
▁spreche	-4922
roh	-4923
ve	-4924
▁orien	-4925
▁indien	-4926
ku	-4927
vollen	-4928
▁beschluß	-4929
▁gewährleistung	-4930
▁auftreten	-4931
▁systeme	-4932
▁kons	-4933
▁müß	-4934
▁organe	-4935
▁heutige	-4936
auen	-4937
esten	-4938
▁sod	-4939
▁grei	-4940
ante	-4941
tschaften	-4942
▁mittleren	-4943
zahlen	-4944
▁alternative	-4945
einkommen	-4946
ierende	-4947
▁ethn	-4948
▁niveau	-4949
▁reisen	-4950
pan	-4951
▁ann	-4952
▁allzu	-4953
▁eingeb	-4954
▁dialogs	-4955
mel	-4956
▁meeres	-4957
dik	-4958
uchen	-4959
▁einzur	-4960
▁unzur	-4961
jährigen	-4962
vorschläge	-4963
▁jahrzehn	-4964
▁währungsunion	-4965
solid	-4966
▁sieben	-4967
▁spät	-4968
▁hauptsächlich	-4969
▁solches	-4970
▁beigetragen	-4971
▁fundament	-4972
▁vernünftig	-4973
ucht	-4974
▁beeinträ	-4975
▁gefangen	-4976
mann	-4977
▁islam	-4978
mittelsicherheit	-4979
ograf	-4980
▁unions	-4981
▁amerikanischen	-4982
▁stei	-4983
▁paar	-4984
ökonom	-4985
▁leich	-4986
freund	-4987
▁gehalten	-4988
ranken	-4989
▁gewähl	-4990
th	-4991
▁entz	-4992
▁erleichtern	-4993
bald	-4994
mlich	-4995
▁multilater	-4996
▁reduzierung	-4997
▁gewährt	-4998
▁welch	-4999
▁welches	-5000
ugos	-5001
▁nukle	-5002
▁verringern	-5003
▁prozent	-5004
▁aufrechter	-5005
blen	-5006
▁zusatz	-5007
▁ausgang	-5008
▁angaben	-5009
onom	-5010
ugoslaw	-5011
▁alban	-5012
▁jenen	-5013
▁wirksame	-5014
▁stehenden	-5015
machen	-5016
▁gap	-5017
▁ausgleich	-5018
▁ländliche	-5019
▁beschäftigt	-5020
▁einzuführen	-5021
▁angewand	-5022
▁dikt	-5023
▁haup	-5024
▁erhöht	-5025
richen	-5026
▁freund	-5027
▁slowak	-5028
▁ca	-5029
nungen	-5030
▁inakzept	-5031
▁rass	-5032
bereiche	-5033
▁letzter	-5034
".	-5035
met	-5036
▁60	-5037
macht	-5038
▁monat	-5039
▁ky	-5040
▁debatten	-5041
achsen	-5042
▁erneu	-5043
aufen	-5044
waffen	-5045
sien	-5046
▁exter	-5047
▁abfall	-5048
▁geschützt	-5049
verfol	-5050
▁schien	-5051
▁erwartet	-5052
utter	-5053
▁ursprünglichen	-5054
▁junge	-5055
▁gegensatz	-5056
▁bulgarien	-5057
▁wollten	-5058
▁finanziert	-5059
▁portugies	-5060
▁grundsätzlich	-5061
▁geboten	-5062
▁luxemburg	-5063
▁jedenfalls	-5064
▁kar	-5065
staats	-5066
▁guter	-5067
▁vorschlagen	-5068
▁engag	-5069
▁jemand	-5070
see	-5071
ite	-5072
▁post	-5073
▁reise	-5074
▁echten	-5075
▁wiederaufbau	-5076
▁drama	-5077
▁demokratisch	-5078
▁schwar	-5079
▁globale	-5080
▁moral	-5081
▁wein	-5082
▁teilnehmen	-5083
▁ausmaß	-5084
▁univers	-5085
▁britische	-5086
▁finanziell	-5087
▁besorgt	-5088
▁volkspartei	-5089
▁24	-5090
ierend	-5091
ater	-5092
▁unzureich	-5093
schaffen	-5094
▁soweit	-5095
▁amt	-5096
▁1996	-5097
▁gelegt	-5098
▁strukturen	-5099
▁vorgelegten	-5100
▁event	-5101
vision	-5102
▁vollen	-5103
aum	-5104
▁offenbar	-5105
behandlung	-5106
produktion	-5107
▁verlassen	-5108
gas	-5109
▁technologie	-5110
▁ignor	-5111
▁betracht	-5112
erte	-5113
▁emission	-5114
▁irischen	-5115
uerung	-5116
dex	-5117
lässlich	-5118
▁schafft	-5119
▁beispiele	-5120
geg	-5121
▁prodi	-5122
ffizi	-5123
schlagen	-5124
emissionen	-5125
▁bereitschaft	-5126
/0	-5127
▁refer	-5128
▁trifft	-5129
▁streit	-5130
rungen	-5131
▁abgesehen	-5132
▁nötig	-5133
▁wiederum	-5134
rien	-5135
deten	-5136
▁mandat	-5137
▁sobald	-5138
▁gesicht	-5139
▁eventu	-5140
▁soeben	-5141
▁beraten	-5142
übt	-5143
regionen	-5144
blei	-5145
▁ang	-5146
▁starken	-5147
▁unterzeichnet	-5148
2-	-5149
▁volle	-5150
grenze	-5151
▁gewählt	-5152
zwei	-5153
räumen	-5154
ziele	-5155
instrument	-5156
▁arbeitnehmern	-5157
zeugen	-5158
▁jugoslaw	-5159
fizit	-5160
▁resp	-5161
▁ansichten	-5162
wel	-5163
reite	-5164
▁ol	-5165
▁langen	-5166
▁beinhal	-5167
ffizient	-5168
atlan	-5169
▁gegenstand	-5170
▁illegale	-5171
▁unternehmer	-5172
▁nachbarschaft	-5173
▁humanitären	-5174
▁preise	-5175
▁gestärkt	-5176
etzungen	-5177
▁wirkung	-5178
twortet	-5179
ps	-5180
mittelt	-5181
hört	-5182
änglich	-5183
wahlen	-5184
oto	-5185
programms	-5186
▁religion	-5187
▁wiederholt	-5188
▁überprüfen	-5189
▁bestätigen	-5190
▁21.	-5191
tracht	-5192
omm	-5193
▁kateg	-5194
▁einzusetzen	-5195
▁bewahr	-5196
▁wirtschaftlich	-5197
zahlt	-5198
▁paket	-5199
▁versorgung	-5200
▁anh	-5201
▁fehlt	-5202
▁verhindert	-5203
▁erleben	-5204
opol	-5205
sicherung	-5206
▁freude	-5207
▁steigen	-5208
▁22	-5209
▁abhängig	-5210
▁unmöglich	-5211
▁froh	-5212
▁bestre	-5213
▁menschlichen	-5214
▁respekt	-5215
▁lam	-5216
▁gewinnen	-5217
▁stärkere	-5218
▁bundes	-5219
▁staatlichen	-5220
▁spezifischen	-5221
▁bedanken	-5222
▁80	-5223
eidung	-5224
▁erhält	-5225
tität	-5226
▁erlauben	-5227
sil	-5228
▁merk	-5229
▁erwer	-5230
▁privaten	-5231
ona	-5232
▁erzeuger	-5233
▁zusammenge	-5234
▁bio	-5235
▁italienischen	-5236
▁gerechtigkeit	-5237
▁milch	-5238
▁bedürfnisse	-5239
▁konfrontiert	-5240
▁rev	-5241
▁zü	-5242
▁umsetzen	-5243
▁versto	-5244
▁gerichtet	-5245
▁derzeitige	-5246
▁einzig	-5247
ourn	-5248
sieht	-5249
▁schick	-5250
▁stadt	-5251
▁gewerk	-5252
katastrop	-5253
▁schatten	-5254
uld	-5255
▁ungere	-5256
▁religi	-5257
▁renten	-5258
▁buch	-5259
fleisch	-5260
▁gelder	-5261
▁unterdrück	-5262
gleichheit	-5263
▁wähler	-5264
spiel	-5265
▁erfreut	-5266
▁stoffe	-5267
gebaut	-5268
▁zusätzlichen	-5269
▁tage	-5270
▁schäd	-5271
▁studie	-5272
▁überra	-5273
▁überzeugen	-5274
▁verhandlung	-5275
fach	-5276
▁verwenden	-5277
▁fremdenverkehr	-5278
▁198	-5279
▁hor	-5280
hörigen	-5281
▁ziemlich	-5282
▁verank	-5283
▁ansprechen	-5284
▁schulden	-5285
▁dringlichkeit	-5286
rd	-5287
▁gebeten	-5288
▁wenigsten	-5289
▁beinhaltet	-5290
▁durchführen	-5291
lligen	-5292
▁ermutigen	-5293
▁won	-5294
▁indi	-5295
▁hinzufügen	-5296
lichten	-5297
vergen	-5298
▁systema	-5299
stoffen	-5300
▁bestra	-5301
30	-5302
▁referend	-5303
▁kräfte	-5304
▁finanzierungs	-5305
▁zusammenzu	-5306
▁bereitstellung	-5307
fangen	-5308
▁erinnert	-5309
▁zulassen	-5310
▁herrscht	-5311
▁vorre	-5312
sprozesses	-5313
▁wonach	-5314
zb	-5315
lieben	-5316
▁verwirklichung	-5317
niveau	-5318
▁0	-5319
▁leid	-5320
emm	-5321
▁untersuchungen	-5322
itel	-5323
▁beruht	-5324
geht	-5325
▁pak	-5326
▁berechtig	-5327
▁kurzfrist	-5328
▁fang	-5329
▁festgelegten	-5330
herr	-5331
▁häl	-5332
▁anbe	-5333
spartner	-5334
▁unverzüglich	-5335
▁befürworten	-5336
▁aufsicht	-5337
▁är	-5338
▁fuß	-5339
risten	-5340
▁verstehe	-5341
▁zusätzlich	-5342
alter	-5343
▁leh	-5344
▁gang	-5345
grün	-5346
▁gegebenen	-5347
hner	-5348
▁wachstums	-5349
mäßigen	-5350
▁betrug	-5351
▁zuständig	-5352
▁konsultation	-5353
▁gebäu	-5354
▁dürfte	-5355
▁beschränken	-5356
▁lat	-5357
▁zeitplan	-5358
▁teilnahme	-5359
▁ausarbeitung	-5360
▁hälfte	-5361
ebene	-5362
▁alli	-5363
▁bus	-5364
▁pl	-5365
▁methoden	-5366
schreitenden	-5367
▁russischen	-5368
▁inkraft	-5369
grunde	-5370
▁prozeß	-5371
sproblem	-5372
afft	-5373
▁ausnah	-5374
▁zugrunde	-5375
▁zunehmend	-5376
▁tr	-5377
▁langfristig	-5378
lanzen	-5379
▁jährlich	-5380
▁beseitigung	-5381
als	-5382
ischem	-5383
▁prem	-5384
geschrieben	-5385
▁durchschnit	-5386
ks	-5387
▁besuch	-5388
▁speziellen	-5389
▁sim	-5390
chische	-5391
▁verurteilen	-5392
ungsmaßnahmen	-5393
▁umstruktur	-5394
ance	-5395
▁denjenigen	-5396
sur	-5397
▁wohn	-5398
▁ungarn	-5399
▁verlän	-5400
▁eingebracht	-5401
▁strategischen	-5402
ournal	-5403
▁küsten	-5404
▁faktoren	-5405
einamerik	-5406
tzei	-5407
▁öffnung	-5408
kam	-5409
▁anbetracht	-5410
▁bos	-5411
▁methode	-5412
preise	-5413
▁taten	-5414
▁staates	-5415
▁mitteilen	-5416
verw	-5417
▁schwerwie	-5418
uung	-5419
▁verursacht	-5420
▁rechtzei	-5421
fähigkeit	-5422
paket	-5423
würdig	-5424
▁bedrohung	-5425
▁amts	-5426
▁sodass	-5427
▁zahlungs	-5428
▁fähigkeit	-5429
spf	-5430
▁anbie	-5431
vidu	-5432
utzen	-5433
▁dient	-5434
▁güter	-5435
▁individu	-5436
kund	-5437
▁früheren	-5438
strä	-5439
▁donner	-5440
▁verstö	-5441
▁ideen	-5442
▁einstellung	-5443
ome	-5444
▁mangeln	-5445
▁volkes	-5446
▁investieren	-5447
▁sichergestellt	-5448
▁europol	-5449
▁bestehende	-5450
esti	-5451
▁imm	-5452
region	-5453
geordne	-5454
örderung	-5455
stechn	-5456
▁ehemaligen	-5457
▁hindernisse	-5458
lands	-5459
▁bevölkerungs	-5460
male	-5461
▁geehrte	-5462
201	-5463
▁erb	-5464
ologischen	-5465
▁arme	-5466
▁sofern	-5467
verein	-5468
▁schreiben	-5469
▁steuerzahl	-5470
▁beeinf	-5471
▁entstanden	-5472
napp	-5473
/2001	-5474
denkt	-5475
▁gewün	-5476
bene	-5477
▁revision	-5478
▁mechanismen	-5479
fert	-5480
▁innen	-5481
▁texti	-5482
▁konvention	-5483
▁angenommenen	-5484
▁ärm	-5485
▁premier	-5486
kohol	-5487
▁eth	-5488
▁einfuhr	-5489
▁bedauerlich	-5490
▁journal	-5491
▁geregelt	-5492
▁türkischen	-5493
ländischen	-5494
▁bekräftig	-5495
▁anzunehmen	-5496
▁schuld	-5497
▁beabsichtigt	-5498
nl	-5499
werten	-5500
▁föder	-5501
▁regulierung	-5502
atur	-5503
▁bse	-5504
▁mrd	-5505
▁laufe	-5506
▁entfernt	-5507
▁abgesch	-5508
▁demokraten	-5509
zusammenarbeit	-5510
▁einzelne	-5511
äßt	-5512
antwort	-5513
alisiert	-5514
▁bevorstehen	-5515
▁versammlung	-5516
▁geschlechter	-5517
lev	-5518
▁gleichberechtig	-5519
▁läßt	-5520
▁beiträge	-5521
normen	-5522
▁gewähren	-5523
▁weitgehend	-5524
50	-5525
▁lob	-5526
▁hart	-5527
ranten	-5528
vergenz	-5529
▁grenze	-5530
▁kohär	-5531
▁auswärtige	-5532
▁gegenwärtige	-5533
▁handlungs	-5534
▁ausgezeichnete	-5535
▁menge	-5536
▁gefährdet	-5537
▁effizient	-5538
▁umfassend	-5539
erzeu	-5540
▁offenen	-5541
▁ster	-5542
▁umgang	-5543
bestimmungen	-5544
ide	-5545
▁süd	-5546
rachten	-5547
sprogramme	-5548
▁genehmigung	-5549
▁zentrale	-5550
mitglieder	-5551
▁verbrauchern	-5552
deut	-5553
▁stolz	-5554
▁generell	-5555
▁festzustellen	-5556
▁hinweis	-5557
▁einm	-5558
▁ursachen	-5559
▁verletzung	-5560
▁höhere	-5561
▁kontext	-5562
▁senkung	-5563
anger	-5564
▁schön	-5565
▁überwinden	-5566
▁politisches	-5567
",	-5568
▁bürokratie	-5569
bol	-5570
▁diff	-5571
▁kol	-5572
▁verla	-5573
fertigt	-5574
▁aufnehmen	-5575
deckt	-5576
▁betrieben	-5577
pers	-5578
▁sektors	-5579
▁verweisen	-5580
ungsanträge	-5581
▁einsei	-5582
▁donnerstag	-5583
▁mutter	-5584
▁nro	-5585
schutzes	-5586
▁regul	-5587
kommun	-5588
▁wirkliche	-5589
cel	-5590
▁angesehen	-5591
▁kulturelle	-5592
▁eta	-5593
▁benötigt	-5594
▁nachdruck	-5595
ziellen	-5596
▁erhaltung	-5597
):	-5598
▁gipf	-5599
raucht	-5600
bin	-5601
▁augenblick	-5602
▁unternehmens	-5603
pagne	-5604
▁schwierige	-5605
▁optim	-5606
treiben	-5607
▁bewältigen	-5608
▁bereitgestellt	-5609
▁geraten	-5610
▁reichen	-5611
mas	-5612
erenzen	-5613
▁bezeichnet	-5614
▁rechtliche	-5615
▁vertretern	-5616
▁marok	-5617
dan	-5618
▁schu	-5619
▁zuverläss	-5620
▁eingeleitet	-5621
▁intervention	-5622
▁erlebt	-5623
cc	-5624
sprozeß	-5625
▁angebracht	-5626
▁fei	-5627
recken	-5628
▁jegliche	-5629
serv	-5630
▁ablehnen	-5631
▁ref	-5632
▁ruß	-5633
▁vorlage	-5634
▁alternativen	-5635
▁lateinamerik	-5636
institu	-5637
▁weltweiten	-5638
lecht	-5639
▁drittstaaten	-5640
▁treib	-5641
sv	-5642
▁anlass	-5643
▁zwangs	-5644
izza	-5645
▁dringen	-5646
▁schiffe	-5647
▁anerkennen	-5648
▁ausgrenzung	-5649
▁sau	-5650
▁stri	-5651
▁wissens	-5652
▁getragen	-5653
vern	-5654
reibung	-5655
tor	-5656
▁jo	-5657
▁zucker	-5658
▁niedrig	-5659
kas	-5660
▁dingen	-5661
▁schreck	-5662
▁still	-5663
▁abgeordneter	-5664
sverletzungen	-5665
mäßige	-5666
▁obje	-5667
▁tisch	-5668
▁beschränkt	-5669
▁nachhaltigkeit	-5670
tierte	-5671
▁kontakt	-5672
▁passiert	-5673
▁situationen	-5674
bruch	-5675
▁japan	-5676
▁großem	-5677
▁folgendes	-5678
▁zurückzuführen	-5679
▁vermittlung	-5680
▁schwä	-5681
▁mitarbeiter	-5682
▁bewußt	-5683
▁krankheit	-5684
▁genügend	-5685
▁befürwortet	-5686
▁angew	-5687
▁begeg	-5688
▁souveränität	-5689
esenheit	-5690
▁zukünftigen	-5691
▁bro	-5692
hängen	-5693
sau	-5694
rate	-5695
▁garantie	-5696
▁argument	-5697
▁laufenden	-5698
▁jahrhunder	-5699
reibt	-5700
alismus	-5701
▁aussage	-5702
▁konflikte	-5703
▁negativen	-5704
▁zielsetzungen	-5705
▁legt	-5706
gewöhn	-5707
gefunden	-5708
▁abstimmungs	-5709
▁stabilitäts	-5710
▁frist	-5711
eltreffen	-5712
▁behaupten	-5713
orie	-5714
▁produz	-5715
▁besonderer	-5716
▁kür	-5717
▁überaus	-5718
▁nachbarn	-5719
▁nächster	-5720
aff	-5721
▁belg	-5722
schlag	-5723
▁kyoto	-5724
▁gefühl	-5725
▁hierzu	-5726
▁studien	-5727
▁allianz	-5728
▁kennzeichnung	-5729
/98	-5730
▁spezifische	-5731
▁interessiert	-5732
▁garantiert	-5733
▁transatlan	-5734
▁verabschieden	-5735
werke	-5736
▁christ	-5737
regierung	-5738
▁tätigkeiten	-5739
mar	-5740
▁prozesses	-5741
▁gefäng	-5742
▁diesbezü	-5743
▁existenz	-5744
▁vorsieht	-5745
▁ezb	-5746
▁drän	-5747
▁leistungen	-5748
▁nachdenken	-5749
▁perspektive	-5750
▁gewal	-5751
▁statisti	-5752
▁gearbeitet	-5753
frika	-5754
▁verdien	-5755
esien	-5756
▁doppel	-5757
ranche	-5758
igungen	-5759
▁freuen	-5760
▁gebill	-5761
▁angewandt	-5762
▁militärischen	-5763
▁symbol	-5764
▁stunden	-5765
▁zustande	-5766
ssystems	-5767
fragt	-5768
▁errichtung	-5769
▁schriftliche	-5770
▁betreiben	-5771
▁erfüllung	-5772
▁bosn	-5773
▁anzuwenden	-5774
▁erreichung	-5775
▁positionen	-5776
▁beantworten	-5777
▁radik	-5778
▁budge	-5779
▁reprä	-5780
▁manche	-5781
▁vertie	-5782
▁konvergenz	-5783
▁unterschiedlich	-5784
▁aufhebung	-5785
▁zählen	-5786
management	-5787
▁quoten	-5788
▁durchsetzung	-5789
hes	-5790
abstimmung	-5791
▁pläne	-5792
▁inf	-5793
▁mechanismus	-5794
▁programmen	-5795
▁gemeinsames	-5796
inen	-5797
▁veröffentlich	-5798
denz	-5799
▁gei	-5800
▁1995	-5801
▁außenminister	-5802
▁angst	-5803
▁export	-5804
▁berufs	-5805
laden	-5806
▁wesentlicher	-5807
▁breite	-5808
▁identität	-5809
▁spezielle	-5810
▁befasst	-5811
▁minuten	-5812
▁ausgeschlossen	-5813
▁übertrag	-5814
▁gelingt	-5815
▁pakistan	-5816
anw	-5817
▁öff	-5818
▁vorstellen	-5819
finanzierung	-5820
tter	-5821
pflicht	-5822
▁konsolid	-5823
▁gemeinsamer	-5824
▁ausgerichtet	-5825
▁ausgehen	-5826
▁verbundenen	-5827
▁vorsitzenden	-5828
▁präsi	-5829
▁termin	-5830
bu	-5831
▁2,	-5832
eilen	-5833
▁nizza	-5834
▁ausüben	-5835
▁wahrung	-5836
▁vorbereitet	-5837
▁tot	-5838
▁statut	-5839
▁kroatien	-5840
▁verabschiedung	-5841
▁garantien	-5842
wohner	-5843
▁alkohol	-5844
ry	-5845
▁diploma	-5846
▁ausweitung	-5847
▁norm	-5848
achter	-5849
▁ansehen	-5850
▁kontinu	-5851
▁territori	-5852
▁schwedischen	-5853
▁spür	-5854
wasser	-5855
▁grünbuch	-5856
celona	-5857
▁experten	-5858
▁straft	-5859
▁prävention	-5860
ktivität	-5861
▁mitgliedschaft	-5862
▁herkunfts	-5863
pre	-5864
▁klarheit	-5865
▁irgendein	-5866
▁gemeinschaften	-5867
wä	-5868
reiber	-5869
▁fassen	-5870
▁militärische	-5871
weisung	-5872
▁müsste	-5873
▁autonom	-5874
▁verboten	-5875
ins	-5876
▁skand	-5877
▁keineswegs	-5878
▁gipfeltreffen	-5879
▁belgien	-5880
▁beachtung	-5881
▁vollständige	-5882
▁abbau	-5883
▁beamten	-5884
▁erlassen	-5885
▁unabhängigen	-5886
▁kapitel	-5887
▁zustand	-5888
▁einstimmig	-5889
▁vorhin	-5890
▁angemessenen	-5891
preis	-5892
▁geringer	-5893
▁uneingeschränkt	-5894
hle	-5895
grö	-5896
▁hunder	-5897
▁urteil	-5898
programme	-5899
▁anmerkungen	-5900
zeiten	-5901
▁nachteil	-5902
▁emissionen	-5903
▁welthandels	-5904
▁günst	-5905
▁kapaz	-5906
sprechen	-5907
▁konserv	-5908
▁strom	-5909
▁barcelona	-5910
bas	-5911
▁aktive	-5912
ausschusses	-5913
läuft	-5914
zedon	-5915
▁dokumente	-5916
▁entscheidenden	-5917
▁gesellschaften	-5918
stabilität	-5919
▁vorredner	-5920
▁zugestimmt	-5921
▁verbreitung	-5922
ow	-5923
▁500	-5924
laf	-5925
▁faktor	-5926
▁müssten	-5927
▁sorgfältig	-5928
▁langfristige	-5929
siven	-5930
▁zö	-5931
▁auge	-5932
▁abänder	-5933
▁menschenrechten	-5934
alisieren	-5935
▁ersuchen	-5936
▁überlassen	-5937
▁wid	-5938
▁kommer	-5939
▁regionalpolitik	-5940
▁bedauere	-5941
▁genie	-5942
▁staatliche	-5943
▁finanzieren	-5944
▁entwickelten	-5945
tive	-5946
▁unnö	-5947
▁stehende	-5948
▁serbien	-5949
ehme	-5950
▁detaill	-5951
▁vertrages	-5952
fik	-5953
▁26	-5954
▁ärmsten	-5955
▁kernkraft	-5956
ruppen	-5957
▁präzis	-5958
kontroll	-5959
▁mehrfach	-5960
▁agenturen	-5961
mmern	-5962
▁90	-5963
▁plenar	-5964
kommunikation	-5965
▁sum	-5966
▁petition	-5967
artikel	-5968
▁abgegeben	-5969
tran	-5970
▁grem	-5971
▁besitzt	-5972
▁emissions	-5973
▁verordnungen	-5974
▁versprechen	-5975
fähr	-5976
▁auswirken	-5977
▁lenken	-5978
▁vertritt	-5979
ja	-5980
denk	-5981
ängst	-5982
▁hängt	-5983
wirkung	-5984
▁anschließ	-5985
▁befürworte	-5986
initiative	-5987
▁menschliche	-5988
▁inakzeptabel	-5989
▁erlaubt	-5990
▁strafrecht	-5991
▁bemerken	-5992
▁28	-5993
ales	-5994
elbe	-5995
blig	-5996
▁erteilen	-5997
▁problematik	-5998
rats	-5999
▁kub	-6000
▁bip	-6001
ollar	-6002
▁verwei	-6003
sphäre	-6004
▁begünst	-6005
▁finnland	-6006
▁potenzial	-6007
▁stattfindet	-6008
▁bedeutende	-6009
eutung	-6010
völkerung	-6011
passen	-6012
gestellten	-6013
▁erarbeitung	-6014
▁inkrafttreten	-6015
▁aufgew	-6016
▁abhängigkeit	-6017
▁mazedon	-6018
partei	-6019
▁hilfs	-6020
▁hingegen	-6021
▁äg	-6022
ca	-6023
leitung	-6024
▁regist	-6025
▁vorn	-6026
▁reduzieren	-6027
▁oben	-6028
gebiete	-6029
▁schäden	-6030
▁modernisierung	-6031
▁roh	-6032
änomen	-6033
▁aspekten	-6034
gangenen	-6035
▁partnern	-6036
rolle	-6037
griffe	-6038
▁tragö	-6039
▁kompromiß	-6040
dienstleistungen	-6041
gerufen	-6042
▁bildet	-6043
▁durchführ	-6044
▁kontrollieren	-6045
▁akteure	-6046
▁genannte	-6047
eiler	-6048
▁respektieren	-6049
istischer	-6050
199	-6051
▁beruhen	-6052
▁verletzt	-6053
▁stattgefunden	-6054
▁sommer	-6055
kehren	-6056
▁zweiter	-6057
▁dargelegt	-6058
▁sicherung	-6059
▁nachfrage	-6060
/97	-6061
bewe	-6062
▁erwiesen	-6063
▁argumente	-6064
arm	-6065
ibt	-6066
▁enger	-6067
▁zuges	-6068
▁and	-6069
▁ausbeutung	-6070
▁westlichen	-6071
enthalt	-6072
bligator	-6073
▁betriebe	-6074
▁untersuchen	-6075
achte	-6076
erzeug	-6077
fällig	-6078
▁zahlungen	-6079
▁berg	-6080
▁süda	-6081
landen	-6082
tschen	-6083
▁angewendet	-6084
ink	-6085
▁ep	-6086
▁wechsel	-6087
▁angekünd	-6088
▁arbeitgeber	-6089
▁veröffentlicht	-6090
▁rent	-6091
▁jener	-6092
▁minderheit	-6093
▁gelingen	-6094
mechanismus	-6095
▁tourismus	-6096
alu	-6097
▁mol	-6098
reiheit	-6099
▁formulierung	-6100
▁slowen	-6101
▁erwägung	-6102
▁bildungs	-6103
▁wichtigkeit	-6104
hlt	-6105
ump	-6106
mp	-6107
iszip	-6108
lächen	-6109
▁geeignet	-6110
isziplin	-6111
▁anstieg	-6112
▁strategische	-6113
▁schneller	-6114
▁afrikanischen	-6115
▁toler	-6116
▁ständigen	-6117
▁beseitigen	-6118
▁alt	-6119
häfen	-6120
▁umfassender	-6121
▁vorstellung	-6122
▁jugendlichen	-6123
▁herstellung	-6124
▁gewinn	-6125
▁anhörung	-6126
fein	-6127
oben	-6128
▁auto	-6129
▁dasselbe	-6130
▁betrag	-6131
▁y	-6132
▁umfasst	-6133
▁internen	-6134
eitungen	-6135
▁70	-6136
▁beratungen	-6137
▁lieber	-6138
lösung	-6139
▁rechtsa	-6140
▁aktuelle	-6141
▁schlagen	-6142
▁spitz	-6143
▁ergebnissen	-6144
▁schm	-6145
zeichen	-6146
verordnung	-6147
▁direkte	-6148
▁langsam	-6149
rach	-6150
▁mel	-6151
▁rom	-6152
▁rechtzeitig	-6153
spruch	-6154
▁eintreten	-6155
▁rußland	-6156
▁bekanntlich	-6157
▁premierminister	-6158
▁umge	-6159
▁körper	-6160
▁änderungs	-6161
bleiben	-6162
▁willkommen	-6163
verschm	-6164
▁eindeutige	-6165
▁pse	-6166
▁behörde	-6167
▁schutzes	-6168
▁schwere	-6169
▁abstimmungen	-6170
rechung	-6171
digt	-6172
▁eingeschrän	-6173
▁stattdessen	-6174
wirtschaftung	-6175
▁wenden	-6176
▁ausgest	-6177
▁effektiver	-6178
abt	-6179
politische	-6180
▁festlegen	-6181
atz	-6182
gerichts	-6183
▁referendum	-6184
▁hervorragende	-6185
▁zuständigkeiten	-6186
▁energ	-6187
▁georgien	-6188
schreitende	-6189
▁arbeitszeit	-6190
▁finanzkrise	-6191
verhält	-6192
▁wirklichen	-6193
▁effektive	-6194
▁gewicht	-6195
▁abschluß	-6196
▁eingereich	-6197
▁hinweg	-6198
▁praktische	-6199
▁widerstand	-6200
▁fleisch	-6201
▁erörtert	-6202
renn	-6203
gelöst	-6204
ograph	-6205
▁französische	-6206
▁12.00	-6207
▁fertig	-6208
▁verdienen	-6209
▁widerspie	-6210
▁kat	-6211
saustausch	-6212
▁verteilung	-6213
▁lohn	-6214
▁visa	-6215
▁anwenden	-6216
▁poln	-6217
timmen	-6218
üssen	-6219
▁überwachen	-6220
▁grav	-6221
▁welchem	-6222
▁arzneimittel	-6223
▁unterbreitet	-6224
▁schattenbericht	-6225
ay	-6226
▁wald	-6227
▁arbei	-6228
▁künst	-6229
▁eltern	-6230
▁verstärkte	-6231
verbrauch	-6232
▁offenheit	-6233
▁netze	-6234
▁gleichwohl	-6235
▁investitions	-6236
▁niederlanden	-6237
▁amtierender	-6238
▁institutionelle	-6239
igungs	-6240
▁scheitern	-6241
▁automa	-6242
▁beibehalten	-6243
▁vorzunehmen	-6244
▁21	-6245
▁gegenseitigen	-6246
bevölkerung	-6247
▁besteuerung	-6248
eidet	-6249
strö	-6250
▁max	-6251
▁griechischen	-6252
▁verknü	-6253
▁verändert	-6254
▁ministerrat	-6255
gten	-6256
▁erörtern	-6257
▁energiequellen	-6258
▁werten	-6259
▁ökonom	-6260
▁anträge	-6261
▁enthaltenen	-6262
mögen	-6263
▁phänomen	-6264
rung	-6265
▁bewerten	-6266
▁nachmittag	-6267
▁beschließen	-6268
▁gerechtfertigt	-6269
▁bosnien	-6270
▁wirksamkeit	-6271
▁hoff	-6272
▁wahren	-6273
gute	-6274
▁gelt	-6275
▁endgültige	-6276
wirtschaften	-6277
▁aufru	-6278
▁indust	-6279
forschung	-6280
▁dokumenten	-6281
▁fortsetzen	-6282
▁mark	-6283
▁ägyp	-6284
▁produkten	-6285
▁energiepolitik	-6286
mechanismen	-6287
▁jahrhundert	-6288
▁historischen	-6289
sekret	-6290
▁qualit	-6291
▁kranken	-6292
▁29	-6293
▁knapp	-6294
ischung	-6295
▁überleben	-6296
▁weist	-6297
▁vielzahl	-6298
▁car	-6299
▁rechen	-6300
▁geeignete	-6301
▁steuerzahler	-6302
▁...	-6303
▁mad	-6304
▁insel	-6305
))	-6306
latt	-6307
▁läuft	-6308
▁dig	-6309
reform	-6310
trieben	-6311
▁tschetschen	-6312
▁unionsbürger	-6313
flü	-6314
▁zukünftige	-6315
emark	-6316
▁vorb	-6317
ttland	-6318
bestände	-6319
▁rassismus	-6320
▁regelmäßig	-6321
ller	-6322
ürzt	-6323
▁zugangs	-6324
▁höheren	-6325
▁beitrittsver	-6326
▁tod	-6327
▁rats	-6328
▁ersetzen	-6329
ress	-6330
▁kleiner	-6331
▁gleichermaßen	-6332
▁2011	-6333
weilen	-6334
▁häfen	-6335
▁treibhaus	-6336
iten	-6337
▁eind	-6338
▁ausschüsse	-6339
▁ergänzen	-6340
▁legitim	-6341
▁schwäch	-6342
▁höchste	-6343
▁journalisten	-6344
steu	-6345
instrumente	-6346
▁amb	-6347
▁autom	-6348
vertrags	-6349
verfahrens	-6350
▁ratifiziert	-6351
▁indir	-6352
▁eingeräumt	-6353
▁sagten	-6354
▁aufenthalt	-6355
▁grundsätzen	-6356
runde	-6357
▁konzentriert	-6358
▁mussten	-6359
▁ergibt	-6360
cke	-6361
▁raums	-6362
▁schweren	-6363
▁begründung	-6364
▁durchzusetzen	-6365
▁keinem	-6366
▁dänemark	-6367
ruchs	-6368
▁zugute	-6369
▁ehrlich	-6370
wirkt	-6371
▁solch	-6372
ressourcen	-6373
freiheiten	-6374
▁vertrauens	-6375
dete	-6376
tum	-6377
▁eti	-6378
▁monopol	-6379
▁verlust	-6380
systems	-6381
▁formuliert	-6382
▁ratsvorsitzes	-6383
▁gül	-6384
▁spann	-6385
▁verehrten	-6386
▁verschlechter	-6387
rüche	-6388
▁visum	-6389
▁hersteller	-6390
bri	-6391
▁demonst	-6392
▁negative	-6393
demokraten	-6394
ologische	-6395
▁tausende	-6396
▁interessant	-6397
ira	-6398
▁obgleich	-6399
▁reagiert	-6400
▁enorme	-6401
▁selten	-6402
astricht	-6403
schi	-6404
denten	-6405
▁vereinbart	-6406
este	-6407
klärt	-6408
▁süden	-6409
▁fassung	-6410
▁definiert	-6411
puls	-6412
▁unterbrochen	-6413
isses	-6414
übung	-6415
▁papier	-6416
▁bestimmen	-6417
▁bezeichnen	-6418
▁rechenschaft	-6419
▁hung	-6420
▁mängel	-6421
▁schließe	-6422
▁vorhandenen	-6423
▁eingerichtet	-6424
unk	-6425
▁phil	-6426
▁administ	-6427
gte	-6428
▁ps	-6429
▁besitzen	-6430
▁heimatland	-6431
▁maastricht	-6432
ahme	-6433
gl	-6434
beziehen	-6435
kap	-6436
mere	-6437
▁bedroht	-6438
stete	-6439
▁herbei	-6440
▁rückkehr	-6441
▁einwanderer	-6442
▁erneuerbaren	-6443
▁textil	-6444
▁vorgehensweise	-6445
▁führer	-6446
▁obligator	-6447
▁stabilitätspakt	-6448
anke	-6449
▁gali	-6450
richtet	-6451
▁randlage	-6452
▁protokolls	-6453
sebene	-6454
▁zurzeit	-6455
▁arbeitslosen	-6456
klaus	-6457
▁hierfür	-6458
▁beziehung	-6459
▁gerichtshofs	-6460
zep	-6461
▁ank	-6462
zusehen	-6463
▁bekräftigt	-6464
absch	-6465
ergeb	-6466
scher	-6467
▁arab	-6468
▁umso	-6469
▁berlin	-6470
▁fragest	-6471
▁erarbeitet	-6472
▁vie	-6473
▁einb	-6474
▁vorder	-6475
▁basiert	-6476
▁fördert	-6477
▁ernen	-6478
."	-6479
ino	-6480
▁prote	-6481
▁gefährlich	-6482
▁klimawandels	-6483
▁ku	-6484
llel	-6485
▁erfordern	-6486
▁ausführung	-6487
▁unterbreiten	-6488
teils	-6489
▁regionaler	-6490
▁derer	-6491
▁inwie	-6492
▁opfern	-6493
▁erwähnten	-6494
▁erscheinen	-6495
▁einführen	-6496
▁neun	-6497
▁transe	-6498
▁ökologischen	-6499
▁diver	-6500
▁ersta	-6501
▁mittler	-6502
▁verändern	-6503
periode	-6504
technologie	-6505
▁endgültigen	-6506
krieg	-6507
▁fru	-6508
▁kuba	-6509
▁geste	-6510
▁nehme	-6511
▁oftmals	-6512
ppe	-6513
irmen	-6514
tation	-6515
▁verbie	-6516
▁beschäftigten	-6517
▁malt	-6518
▁evalu	-6519
▁haushaltsplans	-6520
▁gerichte	-6521
▁parallel	-6522
ätze	-6523
▁rind	-6524
▁ungeachtet	-6525
institutionen	-6526
▁com	-6527
speriode	-6528
▁konstruktive	-6529
▁persönlichen	-6530
▁mittelmeerraum	-6531
▁ganzes	-6532
▁mündlichen	-6533
übereinkommen	-6534
ysteme	-6535
▁äußerster	-6536
▁gene	-6537
ächtig	-6538
▁korrig	-6539
▁inflation	-6540
▁mak	-6541
bedarf	-6542
▁mitbürger	-6543
.-	-6544
▁bere	-6545
▁senken	-6546
▁feststellung	-6547
▁reser	-6548
▁umgehen	-6549
▁vornehmen	-6550
▁rechtsrahmen	-6551
sektors	-6552
▁kohärenz	-6553
▁generation	-6554
▁interne	-6555
▁bilateralen	-6556
iven	-6557
verhandlungen	-6558
fügt	-6559
▁kir	-6560
▁produktions	-6561
▁impuls	-6562
▁dieselben	-6563
▁tieren	-6564
▁os	-6565
▁ausbau	-6566
▁fragestunde	-6567
▁gol	-6568
glicher	-6569
▁vorliegt	-6570
▁sogenannten	-6571
▁freiwilligen	-6572
äbe	-6573
▁hafen	-6574
▁wunder	-6575
▁ausfuhr	-6576
▁erteilt	-6577
heits	-6578
▁geheim	-6579
▁flo	-6580
hu	-6581
▁ehe	-6582
▁grundlagen	-6583
▁säu	-6584
▁lesen	-6585
gebieten	-6586
▁amerika	-6587
▁ausnahmen	-6588
▁gestaltung	-6589
▁irische	-6590
▁ähnliche	-6591
zesse	-6592
nisses	-6593
bab	-6594
lern	-6595
▁cor	-6596
▁ebenen	-6597
▁gewäss	-6598
ländische	-6599
▁verschie	-6600
▁intelligen	-6601
▁zugelassen	-6602
▁haushaltsjahr	-6603
▁deutsche	-6604
▁pu	-6605
▁hoher	-6606
▁beobachten	-6607
▁respektiert	-6608
▁assoziierung	-6609
án	-6610
▁höchsten	-6611
▁entschließungen	-6612
▁bewähr	-6613
indungen	-6614
▁erstaun	-6615
▁datenschutz	-6616
disk	-6617
▁futter	-6618
präsidenten	-6619
schte	-6620
▁projekten	-6621
ests	-6622
stadt	-6623
äumen	-6624
▁bereitet	-6625
kreis	-6626
▁erhoben	-6627
▁tonnen	-6628
▁erarbeiten	-6629
▁erheblichen	-6630
▁kommissare	-6631
ton	-6632
▁autor	-6633
▁strenge	-6634
▁gesetzgeb	-6635
va	-6636
▁sah	-6637
▁geein	-6638
▁slowakei	-6639
ücken	-6640
▁mündliche	-6641
wind	-6642
▁gebrauch	-6643
▁äußerungen	-6644
par	-6645
▁lö	-6646
▁bestimmung	-6647
▁bisherigen	-6648
▁konsequent	-6649
▁or	-6650
▁ri	-6651
▁verwiesen	-6652
ew	-6653
laß	-6654
prot	-6655
▁bananen	-6656
▁kompetenzen	-6657
ähe	-6658
▁vision	-6659
▁terroristen	-6660
läufig	-6661
▁natürlichen	-6662
baus	-6663
▁mazedonien	-6664
▁unterzeichnung	-6665
▁grundlegender	-6666
▁titel	-6667
▁offene	-6668
▁umfeld	-6669
▁erwähnte	-6670
▁vernünftige	-6671
fizi	-6672
artet	-6673
▁weißbuch	-6674
▁verf	-6675
spolitiken	-6676
▁ausdrück	-6677
▁innere	-6678
▁angestre	-6679
zwe	-6680
ähigen	-6681
▁beweisen	-6682
▁autonomie	-6683
▁kompetenz	-6684
ehrt	-6685
▁erinnere	-6686
▁zugänglich	-6687
▁analys	-6688
bereichen	-6689
recher	-6690
▁ursprünglich	-6691
▁marktwirtschaft	-6692
ziehung	-6693
▁anschein	-6694
▁gesetzgeber	-6695
alte	-6696
attung	-6697
zellen	-6698
▁geprä	-6699
▁schla	-6700
umping	-6701
gegeben	-6702
▁andern	-6703
▁umweltfreund	-6704
agentur	-6705
betriebe	-6706
mäßigkeit	-6707
▁relev	-6708
▁pflanzen	-6709
▁untersucht	-6710
▁unabhängige	-6711
steten	-6712
▁stärksten	-6713
▁beantwortet	-6714
▁beizutragen	-6715
...	-6716
sprochen	-6717
▁direkten	-6718
▁abges	-6719
▁werbung	-6720
▁vormittag	-6721
bten	-6722
stein	-6723
▁drittel	-6724
▁hergestellt	-6725
▁verpflichten	-6726
ots	-6727
tiven	-6728
▁leiten	-6729
▁unzureichend	-6730
▁finanzmittel	-6731
mittlung	-6732
▁praktischen	-6733
ids	-6734
▁0,	-6735
▁blut	-6736
▁demokratischer	-6737
▁irre	-6738
▁ausland	-6739
▁erforderliche	-6740
ehl	-6741
▁begrenzt	-6742
▁deutliche	-6743
▁zuläss	-6744
anda	-6745
▁kombin	-6746
▁simbab	-6747
▁gegebenenfalls	-6748
ana	-6749
züge	-6750
▁ehre	-6751
▁ausgehend	-6752
▁mau	-6753
sträger	-6754
▁verzeichnen	-6755
▁grundfreiheiten	-6756
▁breit	-6757
fizierung	-6758
▁einhalten	-6759
öse	-6760
▁vermitteln	-6761
▁evp	-6762
▁unkl	-6763
ichert	-6764
▁digit	-6765
▁abgeben	-6766
▁hochwer	-6767
▁zah	-6768
stände	-6769
befug	-6770
▁samm	-6771
▁schulen	-6772
oni	-6773
▁bot	-6774
▁ziti	-6775
▁verschm	-6776
▁gefragt	-6777
▁ursprungs	-6778
amp	-6779
▁lasten	-6780
▁tritt	-6781
▁beendet	-6782
▁generationen	-6783
▁ordnungsgemäß	-6784
▁befrei	-6785
▁befrie	-6786
▁dau	-6787
ätzen	-6788
▁voller	-6789
zum	-6790
▁fein	-6791
▁spar	-6792
▁herangehen	-6793
▁tatsächlichen	-6794
▁hervorragenden	-6795
▁wom	-6796
▁überprüft	-6797
gä	-6798
▁überarbeitung	-6799
▁satz	-6800
▁weisen	-6801
▁schicks	-6802
▁binnenmarkts	-6803
reift	-6804
▁mittels	-6805
▁erfreu	-6806
▁planung	-6807
▁vereinigte	-6808
▁menschenhandel	-6809
ex	-6810
▁ohn	-6811
▁zunahme	-6812
▁ausgegeben	-6813
▁verkauf	-6814
mögliche	-6815
▁protektion	-6816
katastrophen	-6817
methoden	-6818
angem	-6819
▁2013	-6820
▁inneres	-6821
zielle	-6822
▁liban	-6823
▁märkten	-6824
beihilfen	-6825
▁generald	-6826
▁ernährung	-6827
▁prüf	-6828
▁genauer	-6829
▁geziel	-6830
▁verlauf	-6831
▁bewältigung	-6832
▁rü	-6833
▁licht	-6834
▁gebilligt	-6835
▁effizienter	-6836
▁einzubeziehen	-6837
▁kulturen	-6838
hei	-6839
▁wandel	-6840
▁weitaus	-6841
▁frühjahr	-6842
▁ratspräsidenten	-6843
isst	-6844
▁indik	-6845
▁gekenn	-6846
▁unglück	-6847
▁rindfleisch	-6848
▁schlage	-6849
10	-6850
▁engl	-6851
▁schwach	-6852
▁öffentlicher	-6853
forme	-6854
verschmutzung	-6855
▁ausreichende	-6856
▁musste	-6857
del	-6858
▁ernsthafte	-6859
wu	-6860
spläne	-6861
▁entschäd	-6862
▁ausnahmere	-6863
▁einschätzung	-6864
ider	-6865
sive	-6866
▁verha	-6867
▁tö	-6868
▁priva	-6869
▁bezahlen	-6870
▁kraftfahr	-6871
▁kontrolliert	-6872
▁verdeut	-6873
▁erläutern	-6874
▁tschechischen	-6875
▁einher	-6876
spolitische	-6877
▁gefährden	-6878
debat	-6879
▁präsidium	-6880
▁fortsetzung	-6881
▁persönliche	-6882
liste	-6883
tiegen	-6884
werfen	-6885
▁zwingen	-6886
ähigkeiten	-6887
▁übermitteln	-6888
▁hon	-6889
sfreiheit	-6890
▁derjenigen	-6891
lit	-6892
▁verfolgung	-6893
reicht	-6894
▁entsteht	-6895
▁langem	-6896
▁langfristigen	-6897
▁verlängerung	-6898
artige	-6899
lussen	-6900
▁aufer	-6901
onte	-6902
▁marokko	-6903
▁alte	-6904
▁beeinträchtig	-6905
zenten	-6906
▁öffnen	-6907
▁streben	-6908
▁erneuerbare	-6909
▁eingereichten	-6910
▁bedeutenden	-6911
▁hom	-6912
▁müßte	-6913
fl	-6914
▁vorg	-6915
▁veränderung	-6916
obil	-6917
nehmbar	-6918
▁scheinen	-6919
▁offenkund	-6920
▁arbeitsgruppe	-6921
▁übereinkommens	-6922
▁inhaf	-6923
gliederung	-6924
▁missbrauch	-6925
▁unterliegen	-6926
▁3.	-6927
▁zwecke	-6928
▁beschränkungen	-6929
▁fand	-6930
ball	-6931
urfs	-6932
▁bla	-6933
▁nahezu	-6934
onsten	-6935
▁multin	-6936
ört	-6937
ühren	-6938
produkte	-6939
▁alger	-6940
▁20.	-6941
kriterien	-6942
▁ansonsten	-6943
▁gegenseitige	-6944
räume	-6945
▁immun	-6946
▁anhalten	-6947
▁bevorstehenden	-6948
hm	-6949
▁wirken	-6950
▁behalten	-6951
vertre	-6952
▁auswahl	-6953
▁interpre	-6954
▁werk	-6955
▁demon	-6956
▁einfache	-6957
pol	-6958
▁2.	-6959
▁transparent	-6960
▁breiten	-6961
▁enttäuscht	-6962
▁parlamenten	-6963
ada	-6964
▁kürze	-6965
▁lon	-6966
▁arbeitet	-6967
▁geschlecht	-6968
▁mögen	-6969
▁suche	-6970
▁korrekt	-6971
cs	-6972
örder	-6973
▁liby	-6974
▁anreize	-6975
▁beiträgt	-6976
mil	-6977
▁finanzen	-6978
▁administra	-6979
bler	-6980
▁existiert	-6981
▁zentralen	-6982
gangs	-6983
▁standpunkte	-6984
lege	-6985
▁statistiken	-6986
▁veranst	-6987
▁fünfzehn	-6988
▁rahmenprogramm	-6989
har	-6990
▁rechtfertigen	-6991
▁grau	-6992
ffekt	-6993
▁fairen	-6994
junkt	-6995
▁ersetzt	-6996
▁gewonnen	-6997
lägen	-6998
▁sauber	-6999
▁akzeptabel	-7000
▁anwesenheit	-7001
▁ausführlich	-7002
▁psy	-7003
ehrter	-7004
▁vermieden	-7005
▁zukommen	-7006
-201	-7007
▁empfehlen	-7008
▁flughäfen	-7009
▁vizepräsident	-7010
▁nützlich	-7011
konvention	-7012
ble	-7013
▁leistet	-7014
▁erzielten	-7015
▁effiziente	-7016
▁hohes	-7017
▁wählen	-7018
▁erweisen	-7019
▁herrschen	-7020
▁unerlässlich	-7021
▁elektronischen	-7022
▁kurze	-7023
▁kernen	-7024
▁bauern	-7025
▁momentan	-7026
▁gewählten	-7027
▁beurteilung	-7028
▁gehe	-7029
▁beenden	-7030
▁bewiesen	-7031
▁behauptet	-7032
▁wenngleich	-7033
kore	-7034
▁davor	-7035
▁straßenverkehr	-7036
▁gewisser	-7037
▁angeboten	-7038
▁eigentums	-7039
▁grad	-7040
▁tragödie	-7041
▁zweit	-7042
rt	-7043
-200	-7044
▁gratul	-7045
▁beantra	-7046
▁informe	-7047
▁verträgen	-7048
führer	-7049
▁teilt	-7050
▁ernste	-7051
▁hauptz	-7052
▁konsul	-7053
▁widmen	-7054
▁aussagen	-7055
▁unterscheiden	-7056
▁mehrwertsteuer	-7057
falt	-7058
▁erstes	-7059
richtig	-7060
▁angehen	-7061
▁redebeit	-7062
2)	-7063
reichung	-7064
ftet	-7065
▁zivilis	-7066
rid	-7067
osen	-7068
▁anhang	-7069
▁städte	-7070
protokoll	-7071
▁aufbauen	-7072
▁kernenergie	-7073
▁verletzungen	-7074
▁35	-7075
▁pflichten	-7076
▁verhandeln	-7077
▁ausgewogenen	-7078
anst	-7079
▁rep	-7080
▁eröffnet	-7081
▁jahresbericht	-7082
▁portugiesischen	-7083
ue	-7084
▁sow	-7085
▁makro	-7086
gress	-7087
▁freut	-7088
ologien	-7089
▁konstruktiven	-7090
▁stück	-7091
▁externen	-7092
▁geschätz	-7093
▁fortgesetzt	-7094
▁denk	-7095
jahres	-7096
stands	-7097
sekretär	-7098
▁konvents	-7099
▁schrittweise	-7100
▁parlamentarier	-7101
quote	-7102
▁kredit	-7103
▁rechtsp	-7104
regierungs	-7105
fon	-7106
gut	-7107
▁rufen	-7108
▁dafürhalten	-7109
graben	-7110
uropäische	-7111
▁vermittlungs	-7112
ehren	-7113
▁vorwand	-7114
▁vertretung	-7115
▁beschleunigen	-7116
ed	-7117
ewg	-7118
brauch	-7119
oph	-7120
▁geg	-7121
▁kritisiert	-7122
▁wachstumspakt	-7123
▁wille	-7124
▁operation	-7125
▁organisierten	-7126
beschluss	-7127
▁inseln	-7128
▁erinnerung	-7129
▁falsche	-7130
▁außergewöhn	-7131
▁erfolgreichen	-7132
kets	-7133
▁züg	-7134
▁bela	-7135
▁nied	-7136
▁brenn	-7137
projekt	-7138
▁vorschlägt	-7139
▁angekündigt	-7140
▁fakten	-7141
▁konjunkt	-7142
▁organisierte	-7143
gres	-7144
▁private	-7145
verhalten	-7146
ski	-7147
▁einst	-7148
▁angebot	-7149
▁erheben	-7150
ahnen	-7151
grad	-7152
iertes	-7153
▁geograf	-7154
▁mittlere	-7155
▁fähigkeiten	-7156
bür	-7157
▁wozu	-7158
▁betrü	-7159
▁gebäude	-7160
▁gestattet	-7161
▁verschiedener	-7162
institutionellen	-7163
/2000	-7164
▁umzu	-7165
tau	-7166
▁london	-7167
▁breiter	-7168
▁kritisch	-7169
orben	-7170
digungen	-7171
gehenden	-7172
▁gelassen	-7173
▁festhalten	-7174
▁bur	-7175
▁eurozone	-7176
▁gründung	-7177
achtungs	-7178
▁folter	-7179
▁kräften	-7180
▁abzielen	-7181
▁problema	-7182
▁meinungen	-7183
▁pakt	-7184
▁begangen	-7185
▁viertens	-7186
sabkommens	-7187
▁luftfahrt	-7188
▁beobachter	-7189
kar	-7190
▁17.	-7191
liefer	-7192
▁kohären	-7193
▁großteil	-7194
▁albanien	-7195
ano	-7196
erre	-7197
▁beglückwünsche	-7198
ys	-7199
ünften	-7200
abilität	-7201
▁skandal	-7202
ec	-7203
äte	-7204
ssier	-7205
▁gvo	-7206
esische	-7207
▁automobil	-7208
▁einzuhalten	-7209
einrichtungen	-7210
▁erfolgreiche	-7211
ath	-7212
andt	-7213
mität	-7214
▁gelegen	-7215
▁nichtregierungs	-7216
kultur	-7217
▁verfügbaren	-7218
holen	-7219
▁absur	-7220
▁expor	-7221
sversorgung	-7222
▁defizit	-7223
▁präsenz	-7224
▁einzugehen	-7225
▁ac	-7226
▁risik	-7227
▁inwieweit	-7228
▁eingreifen	-7229
chtigen	-7230
▁aufzubauen	-7231
▁ausrichtung	-7232
▁subventionen	-7233
zig	-7234
▁3,	-7235
▁brut	-7236
systeme	-7237
▁beitrittsk	-7238
▁drängen	-7239
▁ausübung	-7240
▁hilfreich	-7241
renz	-7242
▁est	-7243
▁organen	-7244
▁armee	-7245
▁führungs	-7246
▁hohem	-7247
zugreifen	-7248
▁einfacher	-7249
kehrt	-7250
märkten	-7251
zusagen	-7252
▁bewegung	-7253
▁medika	-7254
▁gestaltet	-7255
▁finanzrahmen	-7256
liehen	-7257
stätigkeit	-7258
▁spanische	-7259
▁last	-7260
▁liefern	-7261
▁redezeit	-7262
▁schweigen	-7263
▁fühlen	-7264
▁freihandel	-7265
▁enormen	-7266
▁entf	-7267
▁linken	-7268
▁beitreten	-7269
läß	-7270
▁schnelle	-7271
▁straße	-7272
▁integrierten	-7273
▁gegangen	-7274
▁wiederhole	-7275
▁orden	-7276
▁fernseh	-7277
▁jüngste	-7278
▁prag	-7279
fizite	-7280
▁stärkeren	-7281
▁bekräftigen	-7282
▁außengrenzen	-7283
▁versuche	-7284
▁größter	-7285
▁bewirken	-7286
▁wirksamen	-7287
▁streng	-7288
▁historische	-7289
doku	-7290
▁resolution	-7291
▁wünschenswert	-7292
son	-7293
bestand	-7294
omin	-7295
schreiben	-7296
ohlen	-7297
regelungen	-7298
gestell	-7299
▁stützen	-7300
▁immerhin	-7301
▁berichtig	-7302
▁lateinamerika	-7303
swerte	-7304
▁angep	-7305
▁unrecht	-7306
▁verteilt	-7307
▁schicksal	-7308
tief	-7309
▁nament	-7310
▁einnahmen	-7311
ausschuß	-7312
▁beschwerden	-7313
▁hü	-7314
▁10.	-7315
▁fil	-7316
▁eigenes	-7317
▁konservativen	-7318
fter	-7319
kontrollen	-7320
anzig	-7321
▁1994	-7322
▁invest	-7323
▁einfluß	-7324
sverb	-7325
▁betriebs	-7326
por	-7327
▁festen	-7328
▁erfolge	-7329
sprache	-7330
spflicht	-7331
▁umstände	-7332
▁beschrieben	-7333
▁luftverkehr	-7334
tzusetzen	-7335
weiter	-7336
▁kauf	-7337
arbeits	-7338
▁unsicherheit	-7339
▁bewahren	-7340
▁ordnungsgemä	-7341
erer	-7342
hü	-7343
▁prov	-7344
▁sech	-7345
▁standard	-7346
▁management	-7347
▁keinesfalls	-7348
christ	-7349
▁ausgeb	-7350
▁klären	-7351
▁eigentliche	-7352
▁palästinenser	-7353
▁zählt	-7354
▁traditionellen	-7355
▁197	-7356
ations	-7357
▁asien	-7358
reformen	-7359
▁heißen	-7360
▁lokale	-7361
▁anlagen	-7362
▁sozialpolitik	-7363
▁new	-7364
annehm	-7365
▁beginnt	-7366
▁eventuell	-7367
▁verringert	-7368
zy	-7369
▁anpass	-7370
▁19.	-7371
kapaz	-7372
dungen	-7373
▁zielt	-7374
▁bedeutsam	-7375
▁konkurrenz	-7376
ley	-7377
▁allm	-7378
▁ents	-7379
▁impl	-7380
jährige	-7381
▁unannehm	-7382
verantwort	-7383
▁studenten	-7384
▁restri	-7385
▁%.	-7386
▁sal	-7387
▁gesprächen	-7388
▁erzeugung	-7389
▁amtierende	-7390
▁zusammensetzung	-7391
ost	-7392
merz	-7393
▁norden	-7394
▁profess	-7395
▁statist	-7396
▁verwirklichen	-7397
▁tschetschenien	-7398
imes	-7399
▁brie	-7400
▁mitzu	-7401
▁kanada	-7402
ahrt	-7403
mord	-7404
▁budget	-7405
▁genießen	-7406
▁erklärte	-7407
▁litauen	-7408
▁modernen	-7409
eien	-7410
▁bon	-7411
▁bilanz	-7412
▁absichten	-7413
▁bewusstsein	-7414
1999	-7415
heim	-7416
▁errungen	-7417
▁vorstellungen	-7418
itut	-7419
aussp	-7420
rüstung	-7421
▁kümmern	-7422
▁sitzungen	-7423
▁einzelheiten	-7424
ienen	-7425
▁derart	-7426
fähig	-7427
▁enge	-7428
tiefst	-7429
▁geplant	-7430
▁leichter	-7431
▁leistung	-7432
▁ungefähr	-7433
▁verstärkung	-7434
▁zumal	-7435
▁gehabt	-7436
▁dieselbe	-7437
tini	-7438
▁ostsee	-7439
▁chinesischen	-7440
ils	-7441
▁demonstra	-7442
lehnen	-7443
▁vieles	-7444
▁zutiefst	-7445
▁beträchtliche	-7446
▁begegnen	-7447
laut	-7448
raten	-7449
▁wofür	-7450
▁gefangenen	-7451
▁vorbehalte	-7452
▁aufsto	-7453
▁israelischen	-7454
▁euror	-7455
▁gedenkt	-7456
▁strafgerichts	-7457
▁unterdrückung	-7458
ammen	-7459
▁drast	-7460
▁rahmens	-7461
▁konstitution	-7462
hörige	-7463
▁hinzuweisen	-7464
▁aktionsprogramm	-7465
▁bö	-7466
lehen	-7467
▁horiz	-7468
▁radio	-7469
▁einwände	-7470
hi	-7471
lüssen	-7472
▁bereiten	-7473
▁vorbereiten	-7474
▁verhaltensko	-7475
miss	-7476
▁erh	-7477
▁mitwirkung	-7478
ökonomischen	-7479
ms	-7480
▁mer	-7481
▁ähnlich	-7482
▁gratuliere	-7483
▁jahrhunderts	-7484
▁vorangegangenen	-7485
igere	-7486
bungen	-7487
▁traur	-7488
anspruch	-7489
▁befürcht	-7490
▁jugoslawien	-7491
5-00	-7492
kräften	-7493
▁dezent	-7494
tiz	-7495
▁gue	-7496
führte	-7497
▁solidar	-7498
▁erweitert	-7499
▁freunde	-7500
▁geklärt	-7501
▁zukünftig	-7502
schten	-7503
▁substanz	-7504
▁lab	-7505
▁pil	-7506
▁ton	-7507
▁zwöl	-7508
ativer	-7509
▁ausst	-7510
▁klaus	-7511
▁simbabwe	-7512
▁amtierenden	-7513
▁legislativen	-7514
▁tur	-7515
kommission	-7516
▁reduziert	-7517
▁wa	-7518
▁auszuüben	-7519
▁immunität	-7520
▁ausgeführt	-7521
gesetzgebung	-7522
▁bü	-7523
▁direk	-7524
▁kontakte	-7525
▁zerstört	-7526
▁gekennzeichnet	-7527
▁12.	-7528
▁lokaler	-7529
▁kontinuier	-7530
▁sudan	-7531
▁vorrangig	-7532
▁isol	-7533
▁millen	-7534
▁unabding	-7535
▁kategorie	-7536
▁kopf	-7537
▁brasil	-7538
▁stammen	-7539
▁tem	-7540
▁nachge	-7541
▁führte	-7542
▁sozialpartner	-7543
aussprache	-7544
▁schwächen	-7545
ij	-7546
“.	-7547
able	-7548
ehin	-7549
▁typ	-7550
enkt	-7551
▁freit	-7552
▁benutzt	-7553
▁ohnehin	-7554
▁verstoßen	-7555
zahlungen	-7556
▁schenken	-7557
▁gefängnis	-7558
mmer	-7559
▁belastung	-7560
▁fahrzeuge	-7561
▁konflikts	-7562
▁aufgeworfen	-7563
▁dienststellen	-7564
▁abzielt	-7565
haushalts	-7566
15	-7567
▁vollem	-7568
stab	-7569
bereit	-7570
▁nation	-7571
ugt	-7572
▁differenz	-7573
▁einnehmen	-7574
▁maßgeb	-7575
▁gewerkschaften	-7576
▁stellungnahmen	-7577
siver	-7578
▁armuts	-7579
▁gebühren	-7580
▁palästina	-7581
▁bedürfnissen	-7582
▁dollar	-7583
▁klarer	-7584
▁erstellt	-7585
▁überschw	-7586
▁aufrichtig	-7587
▁gefährliche	-7588
bü	-7589
ähige	-7590
debatte	-7591
▁beifall	-7592
▁schwarz	-7593
▁gehandelt	-7594
▁verankert	-7595
▁gefährlichen	-7596
▁on	-7597
blin	-7598
▁patent	-7599
▁konjunktur	-7600
▁landwirten	-7601
▁aufforderung	-7602
▁verzögerungen	-7603
kür	-7604
▁riesi	-7605
▁bewerber	-7606
▁steigerung	-7607
▁vorzuschlagen	-7608
▁sitzungsperiode	-7609
digung	-7610
achläss	-7611
▁allmäh	-7612
▁beider	-7613
▁schlimmer	-7614
▁vernachläss	-7615
▁beeinflussen	-7616
▁konzentration	-7617
▁kurs	-7618
▁tatsachen	-7619
▁ausreichen	-7620
▁rubri	-7621
▁vordergrund	-7622
▁lebensmitteln	-7623
▁dossier	-7624
▁gipfels	-7625
verbot	-7626
▁ech	-7627
▁beruh	-7628
▁vorüber	-7629
▁ethnischen	-7630
▁doha	-7631
▁kind	-7632
▁einfachen	-7633
gehende	-7634
▁hoheits	-7635
▁handlungen	-7636
personen	-7637
/96	-7638
▁gefü	-7639
▁nachhaltig	-7640
ickt	-7641
▁hilfen	-7642
▁einleiten	-7643
▁beurteilen	-7644
▁dor	-7645
▁klarstellen	-7646
twoch	-7647
▁einzurichten	-7648
▁vereinfachen	-7649
ftung	-7650
▁2012	-7651
▁nordir	-7652
usion	-7653
▁lobby	-7654
▁abfälle	-7655
▁mission	-7656
angehörigen	-7657
altungen	-7658
sage	-7659
cy	-7660
▁schie	-7661
vereinbar	-7662
▁vorbehalt	-7663
▁technologische	-7664
▁erwachsen	-7665
▁definieren	-7666
▁spie	-7667
sparungen	-7668
rechtlichen	-7669
▁verschaffen	-7670
▁behinderungen	-7671
treffen	-7672
▁schlechter	-7673
▁meinungsäuß	-7674
▁forst	-7675
ngl	-7676
▁zin	-7677
▁indon	-7678
terin	-7679
▁geber	-7680
▁schwieriger	-7681
▁italienische	-7682
▁organisieren	-7683
sprach	-7684
▁sichere	-7685
reif	-7686
marktes	-7687
▁patten	-7688
▁unsich	-7689
▁qualitäts	-7690
▁flor	-7691
▁geschen	-7692
▁etiket	-7693
bewertung	-7694
▁gewünscht	-7695
mü	-7696
▁klär	-7697
▁mittwoch	-7698
▁beinhalten	-7699
spräsidenten	-7700
▁ve	-7701
▁gefallen	-7702
▁entscheidungs	-7703
▁infrastrukturen	-7704
▁stock	-7705
▁rechnen	-7706
las	-7707
riterium	-7708
▁%,	-7709
zufolge	-7710
▁anhand	-7711
▁anstreben	-7712
ns	-7713
▁verhe	-7714
ungslos	-7715
▁sterben	-7716
▁südlichen	-7717
▁hinein	-7718
▁minute	-7719
▁ernennung	-7720
▁positives	-7721
▁eingeschränkt	-7722
sia	-7723
fisch	-7724
▁lauf	-7725
anische	-7726
▁zustimm	-7727
isierungs	-7728
▁verursachen	-7729
▁mex	-7730
▁unw	-7731
zicht	-7732
▁zieht	-7733
▁moldau	-7734
▁repräsent	-7735
▁revolution	-7736
▁anschließend	-7737
▁wäl	-7738
▁saal	-7739
▁lehren	-7740
▁montag	-7741
▁13.	-7742
▁annäher	-7743
▁durchsetzen	-7744
▁zwölf	-7745
sproj	-7746
hafter	-7747
sphase	-7748
▁könne	-7749
▁aufsichts	-7750
▁schwedische	-7751
▁erf	-7752
weils	-7753
▁stich	-7754
▁konzep	-7755
▁betrugs	-7756
▁ungerecht	-7757
▁arbeitsweise	-7758
lande	-7759
▁scho	-7760
▁größt	-7761
▁loben	-7762
alitäten	-7763
▁fristen	-7764
▁jeweils	-7765
▁täglich	-7766
saktionen	-7767
▁erstellen	-7768
▁bom	-7769
▁gefasst	-7770
schauen	-7771
▁vorfeld	-7772
▁erleichtert	-7773
▁gäbe	-7774
▁olaf	-7775
▁erkenn	-7776
▁ägypten	-7777
▁bürgerrechte	-7778
christdemokraten	-7779
itionen	-7780
diskrimin	-7781
▁beunruhigen	-7782
aure	-7783
▁300	-7784
tungen	-7785
▁übernahme	-7786
▁gebur	-7787
▁dublin	-7788
▁ausgearbeitet	-7789
▁öst	-7790
▁begründet	-7791
sport	-7792
▁unschul	-7793
▁überlegen	-7794
▁anzupassen	-7795
▁arabischen	-7796
kw	-7797
▁alde	-7798
▁unregel	-7799
▁option	-7800
▁bedaure	-7801
▁manchen	-7802
alisierten	-7803
bestimmung	-7804
▁fernsehen	-7805
▁zeu	-7806
zahlung	-7807
▁stunde	-7808
▁horizont	-7809
▁gewährung	-7810
▁sozusagen	-7811
▁verbieten	-7812
▁einschränkung	-7813
ändler	-7814
▁identifiz	-7815
▁plä	-7816
pagnen	-7817
▁konzer	-7818
▁willkür	-7819
▁durchgesetzt	-7820
▁innovationen	-7821
beste	-7822
ringung	-7823
▁überrascht	-7824
fikation	-7825
▁lärm	-7826
öhnung	-7827
erzeugung	-7828
▁ursache	-7829
▁diesbezüglichen	-7830
▁dänischen	-7831
sprü	-7832
dnern	-7833
▁womit	-7834
probleme	-7835
▁greifen	-7836
▁dahingehend	-7837
▁geprägt	-7838
▁weiterzu	-7839
ssituation	-7840
▁angehören	-7841
▁unterstrichen	-7842
taus	-7843
aktion	-7844
▁passag	-7845
▁spannungen	-7846
▁verbindungen	-7847
ank	-7848
yer	-7849
kapital	-7850
▁brasilien	-7851
▁kompliziert	-7852
▁gelangt	-7853
▁eigentlichen	-7854
eku	-7855
wohn	-7856
ständigen	-7857
▁beantragt	-7858
▁steuerung	-7859
werks	-7860
▁gott	-7861
▁freitag	-7862
▁mitentscheidung	-7863
▁logik	-7864
▁kommissars	-7865
▁ökologische	-7866
▁einstimmigkeit	-7867
▁malta	-7868
weile	-7869
▁klass	-7870
▁wende	-7871
▁sitzen	-7872
▁beibeh	-7873
▁worauf	-7874
▁zusagen	-7875
gust	-7876
▁anbieten	-7877
▁sozialisten	-7878
▁millenn	-7879
▁realistisch	-7880
dacht	-7881
▁behaupt	-7882
▁fußball	-7883
▁herauszu	-7884
▁auslegung	-7885
▁arbeitskräfte	-7886
ini	-7887
▁4.	-7888
▁einiges	-7889
erenden	-7890
▁libanon	-7891
▁überschwemm	-7892
▁versicherungs	-7893
▁schlag	-7894
projekte	-7895
▁ausgewogene	-7896
▁vorsitzende	-7897
gibt	-7898
▁südo	-7899
planung	-7900
▁einzuleiten	-7901
▁offiziellen	-7902
▁verschwinden	-7903
▁gefä	-7904
fischer	-7905
▁nör	-7906
▁ruhe	-7907
inform	-7908
▁niger	-7909
▁ration	-7910
▁stellte	-7911
irtschaft	-7912
▁verstärkten	-7913
▁fak	-7914
abkommens	-7915
▁tunesien	-7916
▁erweitern	-7917
▁ignoriert	-7918
▁mittlerweile	-7919
▁5.	-7920
bewerber	-7921
▁zielsetzung	-7922
▁herzustellen	-7923
hton	-7924
terungen	-7925
▁andernfalls	-7926
umb	-7927
▁gespräch	-7928
ii	-7929
haber	-7930
▁säule	-7931
▁umwel	-7932
▁eröffnen	-7933
▁vorsorge	-7934
▁gegenseitig	-7935
▁vernünftigen	-7936
▁zusammenhalts	-7937
läg	-7938
▁son	-7939
▁tre	-7940
▁häuf	-7941
klausel	-7942
▁belgischen	-7943
▁verzögerung	-7944
▁anreiz	-7945
▁vermut	-7946
verteilung	-7947
▁erweiterten	-7948
uz	-7949
▁appelliere	-7950
▁friedliche	-7951
▁instrumenten	-7952
oko	-7953
wan	-7954
ildet	-7955
ac	-7956
▁birma	-7957
▁gespielt	-7958
▁kampagne	-7959
▁existieren	-7960
▁entschädigung	-7961
▁weltweite	-7962
haushaltsplan	-7963
▁kohäsionsfonds	-7964
imal	-7965
ström	-7966
methode	-7967
▁august	-7968
▁wenigstens	-7969
ötz	-7970
▁exeku	-7971
▁bewertet	-7972
▁abzulehnen	-7973
▁durchgeführten	-7974
dite	-7975
ruppe	-7976
▁speku	-7977
▁unverzicht	-7978
▁friedlichen	-7979
läuf	-7980
ührt	-7981
▁kluft	-7982
▁rasche	-7983
▁erwarte	-7984
▁rückgang	-7985
▁finanzieller	-7986
kampf	-7987
▁geehrter	-7988
cto	-7989
tiere	-7990
▁schienen	-7991
▁verheugen	-7992
▁organisiert	-7993
ündeten	-7994
bte	-7995
gesetzten	-7996
ücke	-7997
heber	-7998
▁sozio	-7999
▁anzugehen	-8000
mes	-8001
arif	-8002
▁getreten	-8003
▁empfohlen	-8004
▁jährlichen	-8005
▁zerstörung	-8006
▁inn	-8007
folgerung	-8008
leo	-8009
beitritt	-8010
▁bekämpft	-8011
▁sicheren	-8012
▁einschläg	-8013
▁geblieben	-8014
ielten	-8015
tlicher	-8016
▁mengen	-8017
▁annäherung	-8018
▁ausschüssen	-8019
▁multilateralen	-8020
▁bereitzustellen	-8021
25	-8022
▁zugest	-8023
▁beihilfe	-8024
▁genehmigt	-8025
▁zunehmende	-8026
▁motiv	-8027
▁textes	-8028
▁branche	-8029
▁dynamik	-8030
▁15.	-8031
gungs	-8032
mission	-8033
▁besatz	-8034
mittelmeer	-8035
▁wiederein	-8036
▁abgeschafft	-8037
▁fortzusetzen	-8038
▁lebensqualität	-8039
lösen	-8040
▁kamen	-8041
▁sachen	-8042
▁zentrum	-8043
▁hilft	-8044
▁städten	-8045
▁untergraben	-8046
▁zurückkommen	-8047
ting	-8048
▁völkern	-8049
▁ungleichheiten	-8050
acher	-8051
▁aufs	-8052
▁verbleiben	-8053
▁regulierungs	-8054
▁fel	-8055
geführt	-8056
ura	-8057
▁rechtlich	-8058
▁hy	-8059
▁ör	-8060
ttung	-8061
▁effektivität	-8062
▁flüchtlingen	-8063
tzut	-8064
mächtig	-8065
▁urheber	-8066
▁erstellung	-8067
▁staatsbürger	-8068
▁beherr	-8069
▁jugendliche	-8070
▁vollständigen	-8071
itä	-8072
ling	-8073
▁müsse	-8074
▁gebiets	-8075
fassungen	-8076
▁geplanten	-8077
anspruchnahme	-8078
▁anstehen	-8079
▁sad	-8080
▁verts	-8081
▁kaufen	-8082
▁kindes	-8083
▁wirksamer	-8084
▁qualitativ	-8085
▁nachzudenken	-8086
▁vorbereitungen	-8087
urs	-8088
estens	-8089
▁resul	-8090
sitzung	-8091
änderungen	-8092
gäste	-8093
▁langer	-8094
▁komment	-8095
▁schweiz	-8096
▁besonderes	-8097
▁königreichs	-8098
▁übertragung	-8099
▁koordinieren	-8100
▁luftverkehrs	-8101
▁rechtsetzung	-8102
▁arbeitsprogramm	-8103
lanz	-8104
▁klares	-8105
▁richter	-8106
▁aufstockung	-8107
▁sachverständ	-8108
▁wissenschaftler	-8109
netze	-8110
▁impor	-8111
▁rücken	-8112
▁galileo	-8113
▁schlechte	-8114
mäßigkeiten	-8115
▁verständlich	-8116
▁dienstleistung	-8117
▁8.	-8118
▁gasp	-8119
▁plötz	-8120
▁fünften	-8121
teilungen	-8122
▁begreifen	-8123
▁demzufolge	-8124
▁bewirtschaftung	-8125
arn	-8126
beschä	-8127
▁solan	-8128
tzutage	-8129
▁illegal	-8130
▁fischler	-8131
▁heutzutage	-8132
▁verzichten	-8133
▁kapazitäten	-8134
▁zuwanderung	-8135
▁fortschritts	-8136
ied	-8137
akte	-8138
▁pfeiler	-8139
▁nachvoll	-8140
▁einbringen	-8141
▁treibhausgas	-8142
tika	-8143
bedür	-8144
decken	-8145
▁deutlicher	-8146
▁eb	-8147
▁sä	-8148
ileg	-8149
▁sin	-8150
▁quan	-8151
▁stärke	-8152
▁truppen	-8153
▁privileg	-8154
erstattung	-8155
▁beunruhigt	-8156
llige	-8157
▁besagt	-8158
▁wortlaut	-8159
cos	-8160
etten	-8161
▁detail	-8162
▁unfall	-8163
▁behar	-8164
setzungen	-8165
▁ungarischen	-8166
▁erbe	-8167
▁forme	-8168
▁satell	-8169
▁vermögen	-8170
anlagen	-8171
▁betrüger	-8172
▁material	-8173
▁nähe	-8174
▁verzer	-8175
▁vorbeu	-8176
beschäftig	-8177
▁kompromisse	-8178
▁verhaltenskodex	-8179
▁größerer	-8180
▁mangelnde	-8181
▁amerikanische	-8182
▁belie	-8183
▁ashton	-8184
▁unklar	-8185
▁schmerz	-8186
▁beruflichen	-8187
off	-8188
▁7.	-8189
hängt	-8190
▁aussehen	-8191
▁sexuellen	-8192
▁grundprinzip	-8193
▁37	-8194
bewegung	-8195
wagen	-8196
uldigen	-8197
▁gründlich	-8198
▁derartigen	-8199
spo	-8200
▁compu	-8201
▁genaue	-8202
▁lehnen	-8203
▁präven	-8204
▁inneren	-8205
strukturen	-8206
▁migranten	-8207
plän	-8208
▁attra	-8209
▁aktiven	-8210
▁großzüg	-8211
▁geograph	-8212
▁wachsenden	-8213
▁interessante	-8214
▁vorsitzender	-8215
nitten	-8216
▁ergänzt	-8217
▁flächen	-8218
▁beachten	-8219
▁gleichheit	-8220
▁indikatoren	-8221
▁ausgangspunkt	-8222
korea	-8223
dlichkeit	-8224
▁anmerken	-8225
gestaltung	-8226
)).	-8227
▁kla	-8228
quoten	-8229
staatliche	-8230
▁gestiegen	-8231
▁sämtlichen	-8232
▁geltungsbereich	-8233
bem	-8234
chnet	-8235
▁solana	-8236
▁zweier	-8237
▁veranla	-8238
präsidentin	-8239
▁vorzugehen	-8240
▁generalsekretär	-8241
▁inanspruchnahme	-8242
banken	-8243
▁schauen	-8244
▁darlehen	-8245
▁führende	-8246
hafen	-8247
schüsse	-8248
▁subvention	-8249
▁fremdenfein	-8250
ors	-8251
▁ständige	-8252
▁automatisch	-8253
anforderungen	-8254
▁of	-8255
▁ärz	-8256
▁erdbe	-8257
vernance	-8258
▁hochschul	-8259
▁grundlegend	-8260
▁4,	-8261
▁plu	-8262
▁möge	-8263
▁minim	-8264
reicher	-8265
entwicklungs	-8266
▁wall	-8267
▁forum	-8268
▁bewaff	-8269
▁schock	-8270
entscheid	-8271
elfen	-8272
▁schö	-8273
▁fürchte	-8274
▁aussicht	-8275
▁türkische	-8276
▁konflikten	-8277
▁ratspräsidentin	-8278
(200	-8279
▁reib	-8280
▁libyen	-8281
▁niederlande	-8282
▁häus	-8283
▁motor	-8284
hörigkeit	-8285
▁osteuropa	-8286
▁zunehmenden	-8287
▁sozialistischen	-8288
▁richtet	-8289
▁hervorzu	-8290
versicherung	-8291
günst	-8292
▁versteht	-8293
kette	-8294
▁ersatz	-8295
▁überwacht	-8296
▁osze	-8297
▁texte	-8298
▁syrien	-8299
▁praktiz	-8300
▁folgenabsch	-8301
▁jahrzehnten	-8302
▁heil	-8303
▁betreiber	-8304
▁konsequen	-8305
ci	-8306
freie	-8307
ältigen	-8308
▁pragma	-8309
▁geeinigt	-8310
▁bescheiden	-8311
▁generaldire	-8312
▁verteidigungs	-8313
▁registr	-8314
▁starkes	-8315
▁anschluss	-8316
▁schnellst	-8317
▁wahlkreis	-8318
▁nordirland	-8319
▁beibehaltung	-8320
▁systematisch	-8321
ene	-8322
▁6.	-8323
greifende	-8324
▁schwellen	-8325
aß	-8326
“,	-8327
▁lehne	-8328
▁menschheit	-8329
▁beeinträchtigt	-8330
▁erhalt	-8331
▁fahren	-8332
republik	-8333
▁derselben	-8334
▁teilgenommen	-8335
▁fo	-8336
▁eco	-8337
holfen	-8338
rennen	-8339
fahrzeuge	-8340
▁territorialen	-8341
▁audio	-8342
▁globaler	-8343
▁anspruchs	-8344
▁ergänzung	-8345
▁rücksicht	-8346
versammlung	-8347
▁amerikaner	-8348
zeigen	-8349
lassungen	-8350
othe	-8351
-2013	-8352
▁delegationen	-8353
arma	-8354
▁bezogen	-8355
▁selbständ	-8356
▁gestrichen	-8357
▁aussprachen	-8358
/2003	-8359
▁geistigen	-8360
▁dauerhafte	-8361
▁erkannt	-8362
▁verhü	-8363
▁irgendwel	-8364
▁verhandelt	-8365
▁mitgliedstaates	-8366
visu	-8367
▁kriegs	-8368
▁genetisch	-8369
▁kritischen	-8370
▁wahrnehmen	-8371
▁koordination	-8372
▁ausde	-8373
▁größe	-8374
▁willens	-8375
▁offiziell	-8376
▁umfangreiche	-8377
▁kä	-8378
▁lag	-8379
▁erdöl	-8380
▁solide	-8381
▁erstmals	-8382
▁strenger	-8383
▁technischer	-8384
▁traditionen	-8385
dumping	-8386
zeitraum	-8387
▁religiösen	-8388
▁besorgniserre	-8389
▁beseitigt	-8390
asen	-8391
▁kunden	-8392
verse	-8393
▁versprochen	-8394
▁aufgegriffen	-8395
ón	-8396
sprachen	-8397
änderung	-8398
▁denselben	-8399
▁75	-8400
▁sar	-8401
▁normalen	-8402
▁ignorieren	-8403
▁investiert	-8404
▁9.	-8405
ernt	-8406
rägen	-8407
▁gewinne	-8408
▁legitimität	-8409
ielle	-8410
▁meist	-8411
▁verlu	-8412
▁selber	-8413
▁gewahrt	-8414
▁audiovisu	-8415
▁spielraum	-8416
▁effektiven	-8417
▁essen	-8418
windigkeit	-8419
chtern	-8420
▁alarm	-8421
▁kolumb	-8422
▁angeblich	-8423
▁drittländer	-8424
▁sozialmodell	-8425
▁letztes	-8426
▁verwirklicht	-8427
11	-8428
▁bush	-8429
iellen	-8430
▁angriffe	-8431
▁übermittelt	-8432
▁1992	-8433
▁gaza	-8434
drückt	-8435
▁rubrik	-8436
▁diversi	-8437
▁hinweise	-8438
▁schließung	-8439
▁unterstreicht	-8440
▁frag	-8441
▁prei	-8442
▁stre	-8443
▁krebs	-8444
verwaltung	-8445
verständnis	-8446
läre	-8447
▁anre	-8448
▁gebraucht	-8449
▁flüchtling	-8450
port	-8451
stoß	-8452
▁firmen	-8453
▁technik	-8454
▁fehlende	-8455
▁zulassung	-8456
▁nachkommen	-8457
▁kurzfristig	-8458
infrastruktur	-8459
▁einschränkungen	-8460
ymp	-8461
ppen	-8462
▁herbst	-8463
berichts	-8464
▁million	-8465
▁unglaub	-8466
▁einziges	-8467
interessen	-8468
▁südafrika	-8469
sprodu	-8470
▁aufsch	-8471
▁schulz	-8472
▁beträgt	-8473
▁projekts	-8474
▁mik	-8475
annter	-8476
▁defizite	-8477
▁seinerzeit	-8478
▁vertrieben	-8479
▁kritisieren	-8480
▁vorgesehene	-8481
/2	-8482
▁kurzen	-8483
▁korrektur	-8484
▁pläd	-8485
▁angewiesen	-8486
▁legislative	-8487
▁vermarkt	-8488
▁konkreter	-8489
gemäß	-8490
artigen	-8491
▁herzlichen	-8492
▁behinderten	-8493
idem	-8494
trags	-8495
▁besseres	-8496
▁falschen	-8497
▁schließt	-8498
▁schengener	-8499
▁mittelfrist	-8500
▁offenkundig	-8501
▁aids	-8502
▁herum	-8503
▁super	-8504
▁westen	-8505
funktion	-8506
▁voranzubringen	-8507
▁kab	-8508
▁hels	-8509
fertig	-8510
▁liefer	-8511
geordneten	-8512
▁trin	-8513
▁ungeh	-8514
indlichen	-8515
▁gelegenheiten	-8516
genehm	-8517
▁lager	-8518
▁gewaltt	-8519
▁ausgeübt	-8520
▁schlacht	-8521
▁verhinderung	-8522
gow	-8523
▁jahrest	-8524
▁vorsichtig	-8525
▁nachrichten	-8526
▁stellenwert	-8527
mor	-8528
▁haftbef	-8529
▁haushalte	-8530
▁getroffenen	-8531
▁vorgetragen	-8532
▁geringen	-8533
bele	-8534
größ	-8535
nahm	-8536
schu	-8537
▁müßten	-8538
▁plural	-8539
▁gedacht	-8540
▁beratung	-8541
▁gesichert	-8542
▁jeglicher	-8543
od	-8544
▁gewid	-8545
▁tibet	-8546
ährungs	-8547
▁älteren	-8548
▁kommunikations	-8549
yl	-8550
okraft	-8551
▁chemik	-8552
▁tendenz	-8553
sl	-8554
organe	-8555
▁atlan	-8556
▁gefol	-8557
▁wirkungs	-8558
▁gescheiter	-8559
▁treiben	-8560
▁absolute	-8561
▁amtszeit	-8562
▁summe	-8563
▁weiterentwick	-8564
▁überdenken	-8565
▁einbeziehen	-8566
▁freilassung	-8567
▁neutra	-8568
▁beeinträchtigen	-8569
wissen	-8570
endungen	-8571
▁stockhol	-8572
▁einwohner	-8573
▁geeigneten	-8574
▁beobachtungs	-8575
▁18.	-8576
▁vorbild	-8577
▁produktivität	-8578
ftige	-8579
sspiel	-8580
▁diplom	-8581
▁verstoß	-8582
▁ehrgeizige	-8583
heil	-8584
▁wwu	-8585
ampere	-8586
▁vermeidung	-8587
▁dauerhaften	-8588
▁mach	-8589
uropas	-8590
▁beziehe	-8591
▁ausgewogenheit	-8592
otum	-8593
▁con	-8594
seite	-8595
▁brok	-8596
gewäss	-8597
▁zwanzig	-8598
▁biokraft	-8599
▁eingebunden	-8600
▁voranzutreiben	-8601
40	-8602
elung	-8603
defizit	-8604
▁tampere	-8605
sfähigkeit	-8606
▁bilaterale	-8607
▁eingestellt	-8608
▁asylbewerber	-8609
▁festgehalten	-8610
▁katastrophal	-8611
wid	-8612
ystems	-8613
arz	-8614
dies	-8615
gast	-8616
sbereich	-8617
▁soldaten	-8618
▁behindert	-8619
▁opti	-8620
▁propag	-8621
▁christen	-8622
▁endgültig	-8623
▁aufgehoben	-8624
▁tierschutz	-8625
▁überwindung	-8626
▁zwangsläufig	-8627
▁partnerschaften	-8628
▁zitiere	-8629
▁bürgerliche	-8630
▁anzuerkennen	-8631
▁teilzunehmen	-8632
8/	-8633
pen	-8634
▁aktuell	-8635
▁einräumen	-8636
▁wass	-8637
▁wahlbe	-8638
▁lebenden	-8639
▁benachteiligten	-8640
nel	-8641
bert	-8642
eister	-8643
▁droht	-8644
läßlich	-8645
▁reaktionen	-8646
▁übereinstimmen	-8647
stellungs	-8648
▁bestraft	-8649
▁haushaltsmittel	-8650
eira	-8651
rität	-8652
▁getö	-8653
lichte	-8654
▁kürzungen	-8655
▁hoffnungen	-8656
▁angesprochenen	-8657
kal	-8658
agung	-8659
neten	-8660
arischen	-8661
fischerei	-8662
▁geachtet	-8663
▁gesamtheit	-8664
▁ereignissen	-8665
▁ausgestattet	-8666
wart	-8667
▁stamm	-8668
steuern	-8669
estizi	-8670
▁entscheidungsf	-8671
oli	-8672
rer	-8673
▁grüne	-8674
▁imper	-8675
▁beweise	-8676
▁benutzen	-8677
▁geehrten	-8678
sicherheits	-8679
▁abschließen	-8680
kter	-8681
sagt	-8682
▁eib	-8683
▁genere	-8684
▁helsink	-8685
▁mitgeteilt	-8686
▁verurteilung	-8687
card	-8688
▁unum	-8689
▁vit	-8690
▁basieren	-8691
▁eigentum	-8692
▁gleicher	-8693
▁liegenden	-8694
▁gewer	-8695
▁olymp	-8696
zentren	-8697
erklärung	-8698
▁errichten	-8699
iner	-8700
▁31.	-8701
▁vir	-8702
samkeit	-8703
▁frucht	-8704
▁konsum	-8705
▁hochrang	-8706
▁erläutert	-8707
▁passieren	-8708
▁erwägungen	-8709
▁zusammenfassen	-8710
▁az	-8711
▁wü	-8712
▁pens	-8713
iveaus	-8714
▁kongo	-8715
▁santer	-8716
setzungs	-8717
▁ehrgeizigen	-8718
▁ehren	-8719
diensten	-8720
nam	-8721
line	-8722
▁strei	-8723
▁billig	-8724
▁demnach	-8725
▁einzusch	-8726
▁erdbeben	-8727
▁optionen	-8728
▁vertrete	-8729
erzeugnisse	-8730
institutionelle	-8731
merkung	-8732
▁gremien	-8733
▁schätzen	-8734
▁abzustimmen	-8735
ity	-8736
▁insp	-8737
▁getrei	-8738
▁bezahlt	-8739
▁nuklear	-8740
▁helsinki	-8741
zegow	-8742
▁roth	-8743
▁wiederaufnahme	-8744
üt	-8745
▁1990	-8746
▁anmerkung	-8747
▁privatsphäre	-8748
▁vizepräsidentin	-8749
▁minist	-8750
▁positiver	-8751
▁abzuschließen	-8752
pran	-8753
▁beweist	-8754
▁geschafft	-8755
▁evaluierung	-8756
▁gesichtspunkt	-8757
▁quellen	-8758
▁aufgebaut	-8759
▁kommunistischen	-8760
▁unerw	-8761
liefert	-8762
arbeiteten	-8763
neiden	-8764
▁unbest	-8765
▁gebunden	-8766
▁verstöße	-8767
▁hinnehmen	-8768
▁verschärft	-8769
▁konstruktiv	-8770
▁biologischen	-8771
▁vereinbarten	-8772
▁bereitstellen	-8773
nitt	-8774
▁ecofin	-8775
▁afrikan	-8776
▁straftaten	-8777
▁pestizi	-8778
▁regimes	-8779
▁computer	-8780
▁appellieren	-8781
leit	-8782
▁berü	-8783
▁integ	-8784
▁pharma	-8785
▁geforder	-8786
▁kritische	-8787
▁weiterbildung	-8788
▁wettbewerbsver	-8789
leute	-8790
osoph	-8791
vorschrift	-8792
▁governance	-8793
▁45	-8794
▁gelesen	-8795
▁bedingung	-8796
▁verbinden	-8797
6-0	-8798
dox	-8799
endes	-8800
vesti	-8801
gebühren	-8802
▁transit	-8803
▁entlassen	-8804
▁slowenien	-8805
▁ungen	-8806
▁nachfol	-8807
wa	-8808
▁vorsicht	-8809
▁integrität	-8810
▁konsolidierung	-8811
ild	-8812
klus	-8813
werken	-8814
bereiten	-8815
▁juristischen	-8816
ometer	-8817
▁moderne	-8818
▁verdopp	-8819
▁diktatur	-8820
▁umgehend	-8821
▁abzugeben	-8822
▁aufgestellt	-8823
▁chemikalien	-8824
▁verbindliche	-8825
▁hervorzuheben	-8826
kep	-8827
mächtigungen	-8828
▁dargestellt	-8829
▁bele	-8830
indert	-8831
▁result	-8832
▁thun	-8833
▁ändert	-8834
▁vertreterin	-8835
urcht	-8836
verträ	-8837
▁legisla	-8838
▁kohle	-8839
▁wohler	-8840
▁schlechten	-8841
▁tschechische	-8842
hebt	-8843
öpfen	-8844
▁wien	-8845
▁strengen	-8846
▁kriterium	-8847
ermächtigungen	-8848
ungsverfahrens	-8849
▁ba	-8850
gener	-8851
iehen	-8852
▁paris	-8853
▁berufliche	-8854
dest	-8855
▁faire	-8856
▁hamas	-8857
konzept	-8858
▁überwach	-8859
▁dezentral	-8860
▁läch	-8861
klärungen	-8862
▁demograf	-8863
▁russische	-8864
▁rechtsprechung	-8865
produkten	-8866
▁ehemalige	-8867
▁verliehen	-8868
▁beantragen	-8869
▁freihandels	-8870
▁präzise	-8871
▁einsetzt	-8872
▁durchführungs	-8873
▁endes	-8874
▁kürzung	-8875
▁bestände	-8876
▁schiffen	-8877
berg	-8878
▁far	-8879
oppen	-8880
▁pilot	-8881
▁saddam	-8882
▁30.	-8883
gründen	-8884
▁eintritt	-8885
▁sicherstellung	-8886
▁tor	-8887
▁mess	-8888
▁komit	-8889
▁preisen	-8890
▁gewidmet	-8891
angemessen	-8892
▁umweltpolitik	-8893
zieh	-8894
▁emp	-8895
▁tai	-8896
flüss	-8897
▁israels	-8898
▁wortmel	-8899
lastungen	-8900
▁entschuld	-8901
▁transparenter	-8902
bry	-8903
▁ums	-8904
▁verpa	-8905
schläge	-8906
▁vergabe	-8907
▁behindern	-8908
geste	-8909
rauen	-8910
▁lücken	-8911
vorschlags	-8912
▁angemessener	-8913
▁perspektiven	-8914
▁".	-8915
▁sorgt	-8916
▁hundert	-8917
▁erre	-8918
enntnis	-8919
▁billigen	-8920
▁steigern	-8921
▁entschuldigen	-8922
▁russlands	-8923
▁abgehalten	-8924
arch	-8925
ferung	-8926
umwelt	-8927
▁abhängen	-8928
▁weltmarkt	-8929
▁polnischen	-8930
▁umstritten	-8931
▁eingliederung	-8932
parla	-8933
ssystemen	-8934
▁sozialfonds	-8935
▁seel	-8936
▁befaßt	-8937
▁ausgelöst	-8938
pfer	-8939
▁pre	-8940
▁kore	-8941
▁leitung	-8942
▁erzeugnissen	-8943
▁ursprüngliche	-8944
▁zusammenhängen	-8945
▁mitgliedsländer	-8946
bares	-8947
riffe	-8948
▁flughafen	-8949
▁verteidigt	-8950
▁völkerrecht	-8951
tan	-8952
▁unt	-8953
▁wälder	-8954
▁krieges	-8955
▁strengere	-8956
versu	-8957
▁impf	-8958
▁anlaß	-8959
▁brief	-8960
partnern	-8961
▁algerien	-8962
▁geholfen	-8963
▁toleranz	-8964
kopp	-8965
▁1993	-8966
▁holz	-8967
▁ermitt	-8968
▁gesetzlichen	-8969
▁stabilisierung	-8970
▁weltwirtschaft	-8971
▁kun	-8972
lager	-8973
isierten	-8974
disziplin	-8975
▁wohlergehen	-8976
▁problematisch	-8977
stu	-8978
stunde	-8979
ädchen	-8980
▁profit	-8981
zegowina	-8982
▁hervorra	-8983
▁gestellten	-8984
▁tatsächliche	-8985
euche	-8986
▁brutto	-8987
▁unverm	-8988
▁beträge	-8989
▁eröffnung	-8990
▁komitologie	-8991
▁produzenten	-8992
▁ill	-8993
ossen	-8994
charta	-8995
▁vorsehen	-8996
▁finanzmärkte	-8997
▁x	-8998
▁retten	-8999
▁ablauf	-9000
▁augenmerk	-9001
▁teilnehmer	-9002
▁zurückkehren	-9003
beam	-9004
▁vorgaben	-9005
▁engagiert	-9006
▁erreichten	-9007
▁übereinkunft	-9008
▁osteuropäischen	-9009
▁widersprü	-9010
▁ernsten	-9011
ringlich	-9012
wi	-9013
wort	-9014
dauern	-9015
rischen	-9016
▁dauern	-9017
gelungen	-9018
▁tätigen	-9019
weisungen	-9020
▁weltbank	-9021
▁übrig	-9022
▁mexiko	-9023
bezogenen	-9024
greifenden	-9025
rauchen	-9026
▁wachsende	-9027
▁ausgeglichen	-9028
cod	-9029
▁unlau	-9030
▁erkenntnisse	-9031
▁16.	-9032
wechsel	-9033
▁begeist	-9034
▁gesorgt	-9035
▁anführen	-9036
▁mithilfe	-9037
▁konsultationen	-9038
ras	-9039
▁alters	-9040
▁definiti	-9041
▁satelliten	-9042
▁normalerweise	-9043
krä	-9044
▁gewo	-9045
▁morg	-9046
▁stahl	-9047
▁gewöhn	-9048
▁überflüss	-9049
▁lan	-9050
▁gesunden	-9051
▁zuständige	-9052
▁vorankommen	-9053
▁vorgestellt	-9054
▁zuzustimmen	-9055
ork	-9056
▁bahn	-9057
▁arbeiter	-9058
▁betrachte	-9059
▁geschrieben	-9060
▁36	-9061
▁kal	-9062
▁bewegt	-9063
▁gedanke	-9064
▁schiffs	-9065
▁islamischen	-9066
rängt	-9067
zität	-9068
▁worum	-9069
▁händen	-9070
▁klärung	-9071
sprobleme	-9072
▁hauptziel	-9073
▁geleistete	-9074
▁seeverkehr	-9075
nein	-9076
▁tempo	-9077
bewusst	-9078
▁nachweis	-9079
▁bisweilen	-9080
▁berechtigt	-9081
▁diplomatischen	-9082
ib	-9083
erlich	-9084
punkten	-9085
▁soziales	-9086
ktivitäten	-9087
▁substanzen	-9088
▁schrecklichen	-9089
/2001)	-9090
▁strafen	-9091
▁gesonder	-9092
▁sensibil	-9093
▁führenden	-9094
▁veranlassen	-9095
dungs	-9096
▁furcht	-9097
▁ähnlichen	-9098
▁hinnehmbar	-9099
▁technologischen	-9100
ecken	-9101
▁direktor	-9102
▁embry	-9103
einhalb	-9104
▁unzulän	-9105
▁rechnungshofs	-9106
▁stufe	-9107
▁geringe	-9108
▁transpor	-9109
▁sogenannte	-9110
▁protektionismus	-9111
▁überwie	-9112
▁umweltsch	-9113
pfe	-9114
▁25.	-9115
leiden	-9116
tismus	-9117
zession	-9118
▁chinas	-9119
▁voneinander	-9120
▁multinationalen	-9121
▁",	-9122
▁binden	-9123
vielfalt	-9124
▁hindernis	-9125
▁angenommene	-9126
▁kohl	-9127
stande	-9128
wesens	-9129
▁ausmachen	-9130
▁korrigieren	-9131
güter	-9132
ummer	-9133
▁mädchen	-9134
▁unfälle	-9135
▁innovative	-9136
erkt	-9137
sinn	-9138
aukas	-9139
damer	-9140
quelle	-9141
▁verwende	-9142
▁verbindlich	-9143
fällt	-9144
freien	-9145
ichtete	-9146
▁monten	-9147
▁stattf	-9148
▁diesmal	-9149
▁allmählich	-9150
▁nacht	-9151
gründet	-9152
sprechend	-9153
▁griechische	-9154
1,	-9155
same	-9156
▁14.	-9157
zeichneten	-9158
▁investoren	-9159
▁vermutlich	-9160
12	-9161
▁nenn	-9162
gesprä	-9163
▁illegaler	-9164
▁vorgelegte	-9165
▁unangemessen	-9166
▁fäl	-9167
▁mcc	-9168
▁kohlen	-9169
▁ausgleichs	-9170
kop	-9171
▁23.	-9172
▁ersucht	-9173
▁hiermit	-9174
▁schuldig	-9175
▁vielfach	-9176
▁einkommens	-9177
egro	-9178
räte	-9179
dauer	-9180
bildungs	-9181
rankungen	-9182
▁befürchtungen	-9183
▁finanzminister	-9184
▁vorgeschrieben	-9185
▁plenarsa	-9186
▁unvor	-9187
▁fahrzeug	-9188
fikationen	-9189
▁umstellung	-9190
▁formulieren	-9191
▁millenniums	-9192
▁besonderheiten	-9193
▁kil	-9194
▁kinn	-9195
▁jahrel	-9196
▁kandid	-9197
▁seitdem	-9198
▁aufhören	-9199
initiativen	-9200
▁integrieren	-9201
▁weitem	-9202
▁standort	-9203
▁unternimmt	-9204
▁produzieren	-9205
san	-9206
iden	-9207
▁mittela	-9208
▁obliegt	-9209
tigkeiten	-9210
▁gerechte	-9211
▁rücküber	-9212
▁geschenkt	-9213
▁auszuarbeiten	-9214
▁kinnock	-9215
▁gedenken	-9216
▁verbreitet	-9217
▁schlimmsten	-9218
▁gewerkschaft	-9219
▁medizinische	-9220
▁haushaltslinie	-9221
▁5,	-9222
holt	-9223
holung	-9224
▁messen	-9225
▁getötet	-9226
▁einigkeit	-9227
▁abt	-9228
▁anbau	-9229
▁absurd	-9230
berichte	-9231
▁allgemeinem	-9232
▁zo	-9233
▁pan	-9234
wärts	-9235
▁einmischung	-9236
/99	-9237
ferenz	-9238
▁haiti	-9239
streben	-9240
▁bewert	-9241
▁zielvor	-9242
sausgaben	-9243
▁gewählte	-9244
▁funktionsweise	-9245
▁fischereisektor	-9246
▁themas	-9247
▁aktiver	-9248
▁angehört	-9249
amm	-9250
tial	-9251
▁misst	-9252
▁monti	-9253
befugnisse	-9254
▁angepasst	-9255
▁sensiblen	-9256
▁übernimmt	-9257
▁begrenzung	-9258
beschäftigung	-9259
ünden	-9260
nächst	-9261
belebung	-9262
▁gemeinden	-9263
▁technisch	-9264
indet	-9265
ontex	-9266
▁schü	-9267
▁gutem	-9268
orgungs	-9269
▁integrierte	-9270
▁auffassungen	-9271
▁einsparungen	-9272
14	-9273
▁pop	-9274
▁besu	-9275
untern	-9276
▁dereg	-9277
▁nutzer	-9278
▁frontex	-9279
▁enttäuschung	-9280
gno	-9281
lässt	-9282
gründe	-9283
▁zusage	-9284
▁entzieht	-9285
▁gestrigen	-9286
.,	-9287
▁gast	-9288
schend	-9289
▁quelle	-9290
parlament	-9291
reibungen	-9292
▁einander	-9293
▁philosoph	-9294
▁verhaltens	-9295
einen	-9296
▁vorherr	-9297
sparteien	-9298
▁aufgerufen	-9299
▁kontinents	-9300
▁grundsatzes	-9301
▁erneuerbarer	-9302
flo	-9303
tnam	-9304
garan	-9305
▁egal	-9306
olumen	-9307
▁ältere	-9308
▁auflagen	-9309
▁hinreich	-9310
▁demnächst	-9311
▁streichen	-9312
▁einleitung	-9313
▁bestrebungen	-9314
länen	-9315
▁fran	-9316
▁schär	-9317
▁rentner	-9318
▁steuers	-9319
▁rahmenbeschluss	-9320
2,	-9321
häl	-9322
delle	-9323
schern	-9324
▁nahm	-9325
brechen	-9326
icklung	-9327
swerten	-9328
▁aufeinander	-9329
▁besitzstand	-9330
▁widerspiegeln	-9331
ränken	-9332
▁anstelle	-9333
▁aufgreifen	-9334
▁moralische	-9335
▁erde	-9336
▁erhöh	-9337
▁würdigen	-9338
mark	-9339
▁mühe	-9340
▁verkaufen	-9341
verk	-9342
tzuer	-9343
▁zivilen	-9344
tzuerhalten	-9345
▁aufklärung	-9346
▁montenegro	-9347
▁weitergehen	-9348
chnungen	-9349
▁glückwün	-9350
▁berichtet	-9351
▁staatsanw	-9352
▁energieträ	-9353
▁integriert	-9354
jet	-9355
▁meda	-9356
▁beend	-9357
▁sichtbar	-9358
sprogrammen	-9359
▁debattieren	-9360
verantwortung	-9361
ware	-9362
▁friedensprozess	-9363
ommt	-9364
herap	-9365
▁null	-9366
▁teils	-9367
weiterung	-9368
▁intensiver	-9369
wege	-9370
zähl	-9371
▁eingest	-9372
▁vorläuf	-9373
förderung	-9374
▁mitgliedstaats	-9375
▁heuch	-9376
▁dienstes	-9377
▁enth	-9378
▁schule	-9379
▁flexibel	-9380
▁verkauft	-9381
▁vorzubereiten	-9382
▁längst	-9383
konflikt	-9384
▁jahrestag	-9385
▁beendigung	-9386
▁handelspolitik	-9387
▁jun	-9388
standard	-9389
▁gelernt	-9390
▁gemisch	-9391
▁reserve	-9392
▁gewässern	-9393
▁engagieren	-9394
ähern	-9395
▁lehn	-9396
▁spekt	-9397
▁stützt	-9398
▁bekommt	-9399
▁befürchten	-9400
▁gefährlicher	-9401
▁umweltverträ	-9402
▁privatisierung	-9403
abhäng	-9404
▁vorbei	-9405
▁natürliche	-9406
▁irgendeiner	-9407
ecd	-9408
▁inhalte	-9409
▁vietnam	-9410
▁schlicht	-9411
▁anscheinend	-9412
▁universitäten	-9413
▁unterzeichnen	-9414
▁beitrittsländer	-9415
urz	-9416
vig	-9417
spoten	-9418
▁angeführt	-9419
▁freiwillige	-9420
cns	-9421
flich	-9422
▁start	-9423
▁transn	-9424
ichteten	-9425
strategien	-9426
ju	-9427
arfs	-9428
▁bauen	-9429
tisches	-9430
▁hunger	-9431
▁elektri	-9432
▁indirekt	-9433
▁schwerer	-9434
▁2007-2013	-9435
verschieden	-9436
▁ihrerseits	-9437
▁hemm	-9438
▁stör	-9439
▁enorm	-9440
▁etabl	-9441
▁worüber	-9442
▁akteuren	-9443
▁amsterdamer	-9444
▁bezeichnung	-9445
häus	-9446
▁arch	-9447
mengen	-9448
▁psych	-9449
▁glückw	-9450
▁erneuerung	-9451
▁arzneimitteln	-9452
deleg	-9453
orter	-9454
▁heikl	-9455
▁importe	-9456
▁verlänger	-9457
▁schottland	-9458
▁vermittelt	-9459
▁einschlägigen	-9460
▁pressefreiheit	-9461
terie	-9462
▁mikro	-9463
▁östlichen	-9464
▁eingebrachten	-9465
▁teuer	-9466
▁finger	-9467
▁begleitet	-9468
▁weitreich	-9469
▁effizienten	-9470
▁einzuräumen	-9471
▁informellen	-9472
▁koordiniert	-9473
▁kofinanzierung	-9474
▁geop	-9475
▁beeindruck	-9476
▁glückwunsch	-9477
▁vorausgesetzt	-9478
▁pat	-9479
▁abweich	-9480
▁ereignis	-9481
▁zwischenzeit	-9482
▁abgew	-9483
▁estland	-9484
▁exporte	-9485
▁vertraut	-9486
▁aktionsplans	-9487
▁angleich	-9488
▁anlässlich	-9489
amo	-9490
▁getreide	-9491
▁fischbestände	-9492
ziell	-9493
▁echo	-9494
stungs	-9495
▁ausschlag	-9496
▁plötzlich	-9497
richtlinien	-9498
▁notwendiger	-9499
ktions	-9500
▁mißtra	-9501
▁spüren	-9502
▁nötigen	-9503
▁befürchte	-9504
▁beizubehalten	-9505
assten	-9506
▁blair	-9507
bezogene	-9508
ungsantrags	-9509
▁vereinfacht	-9510
▁mitarbeitern	-9511
var	-9512
russ	-9513
▁los	-9514
▁team	-9515
▁gemel	-9516
▁unabdingbar	-9517
ändert	-9518
▁sowjet	-9519
▁ausgede	-9520
prozesses	-9521
▁vertiefung	-9522
▁komplizierten	-9523
▁festgeschrieben	-9524
▁politikbereiche	-9525
wf	-9526
▁sem	-9527
▁zweif	-9528
▁rinder	-9529
▁zukommt	-9530
olutionen	-9531
▁flüchtlings	-9532
▁verschmutzung	-9533
yr	-9534
rennt	-9535
sätzen	-9536
▁inspe	-9537
handelt	-9538
vestitionen	-9539
ökonomische	-9540
▁territorium	-9541
▁übertrieben	-9542
wirk	-9543
nungs	-9544
▁huss	-9545
▁sieg	-9546
▁werfen	-9547
▁berufen	-9548
▁beantwort	-9549
mensch	-9550
vertra	-9551
▁erdgas	-9552
wirkungen	-9553
▁unvermeid	-9554
pon	-9555
▁trend	-9556
▁verschärfen	-9557
▁dur	-9558
▁gegner	-9559
führenden	-9560
▁entziehen	-9561
▁aufteilung	-9562
▁verbrechens	-9563
sselt	-9564
▁hände	-9565
▁zentrala	-9566
▁verschlimm	-9567
▁wurz	-9568
raktiken	-9569
ungsweise	-9570
▁auswärtigen	-9571
▁erleichterung	-9572
lichem	-9573
▁bedürfen	-9574
▁europäern	-9575
▁beantwortung	-9576
rad	-9577
▁verluste	-9578
▁400	-9579
pläne	-9580
sohne	-9581
ttaus	-9582
▁viertel	-9583
▁gewaltige	-9584
▁zweifelsohne	-9585
ska	-9586
fungen	-9587
▁formal	-9588
▁gekürzt	-9589
▁artikels	-9590
▁eurostat	-9591
▁dringende	-9592
▁obergrenze	-9593
▁fla	-9594
ugang	-9595
ähiger	-9596
▁pension	-9597
▁hinausgehen	-9598
cyc	-9599
flug	-9600
höre	-9601
nutzen	-9602
aukasus	-9603
prüfung	-9604
▁aufgezeigt	-9605
)0	-9606
ester	-9607
peten	-9608
▁reale	-9609
▁jemals	-9610
▁haftung	-9611
▁trennung	-9612
▁disziplin	-9613
▁schwerpunkte	-9614
rug	-9615
öff	-9616
status	-9617
▁global	-9618
▁beachtet	-9619
▁einreise	-9620
▁lettland	-9621
▁nichtsdest	-9622
▁unannehmbar	-9623
ama	-9624
▁autos	-9625
▁entsen	-9626
▁überst	-9627
▁verste	-9628
▁beschwerde	-9629
▁demokratien	-9630
▁elektrizität	-9631
flä	-9632
öpft	-9633
▁zig	-9634
▁befol	-9635
▁wirft	-9636
ständig	-9637
▁betreuung	-9638
▁offizielle	-9639
▁redebeitrag	-9640
▁33	-9641
/97)	-9642
asmus	-9643
▁syner	-9644
vorsitz	-9645
stitution	-9646
▁qualifizierte	-9647
lö	-9648
▁fi	-9649
esch	-9650
sson	-9651
itärer	-9652
▁kunst	-9653
▁junger	-9654
▁realen	-9655
handlung	-9656
▁verweise	-9657
▁verfügbar	-9658
▁vereinheit	-9659
deck	-9660
annes	-9661
▁kleineren	-9662
▁widersprüch	-9663
langes	-9664
▁hussein	-9665
diskriminierung	-9666
kons	-9667
▁sepa	-9668
▁spitze	-9669
▁bestreben	-9670
▁portugiesische	-9671
▁ew	-9672
still	-9673
▁eink	-9674
▁engen	-9675
branche	-9676
▁labour	-9677
▁präsent	-9678
▁ausgezeichnet	-9679
▁ordnungsgemäße	-9680
skam	-9681
▁test	-9682
▁perfe	-9683
▁traum	-9684
vertreter	-9685
13	-9686
rufen	-9687
rachte	-9688
isierte	-9689
▁milose	-9690
▁hunderte	-9691
▁nachricht	-9692
▁plenarsaal	-9693
▁angehörigen	-9694
▁glaubwürdig	-9695
▁etikettierung	-9696
ker	-9697
rea	-9698
▁(200	-9699
▁runde	-9700
▁komponen	-9701
▁sexuelle	-9702
▁wertvolle	-9703
▁tu	-9704
spunkte	-9705
▁ambition	-9706
▁implemen	-9707
▁ausgedrückt	-9708
▁gö	-9709
▁cot	-9710
anien	-9711
ließt	-9712
geschä	-9713
▁florenz	-9714
▁erlangen	-9715
▁föderation	-9716
▁adr	-9717
zweif	-9718
▁hong	-9719
▁verzwei	-9720
▁niedrigen	-9721
▁versetzen	-9722
▁ratifizieren	-9723
▁transparente	-9724
ala	-9725
▁ruh	-9726
afrika	-9727
schwung	-9728
▁eingangs	-9729
▁beschlusses	-9730
▁gegebenheiten	-9731
▁strukturellen	-9732
änz	-9733
▁akzeptanz	-9734
▁finnischen	-9735
▁vollendung	-9736
▁vorgebracht	-9737
▁mod	-9738
▁maur	-9739
▁asyls	-9740
▁erzeugt	-9741
▁impulse	-9742
▁rednern	-9743
▁milosevi	-9744
▁gerechter	-9745
▁analysieren	-9746
▁landwirtschafts	-9747
▁sicherer	-9748
▁empfänger	-9749
▁schwanger	-9750
funk	-9751
sklaus	-9752
▁linke	-9753
▁tarif	-9754
▁zügig	-9755
▁glaubt	-9756
▁agieren	-9757
▁empfehle	-9758
17	-9759
rände	-9760
stück	-9761
bieten	-9762
▁strikt	-9763
▁auferlegt	-9764
▁tragischen	-9765
▁allgemeiner	-9766
ox	-9767
kenn	-9768
▁telefon	-9769
▁ermutigt	-9770
▁wertvoll	-9771
▁begrenzen	-9772
▁verknüpft	-9773
▁streichung	-9774
▁95	-9775
ariat	-9776
hlung	-9777
besitz	-9778
▁protes	-9779
▁aufhalten	-9780
▁europarat	-9781
▁verweigert	-9782
▁futtermittel	-9783
cis	-9784
skomm	-9785
▁oecd	-9786
▁unfa	-9787
▁protest	-9788
▁sachver	-9789
▁anzeichen	-9790
▁blockiert	-9791
asi	-9792
umm	-9793
▁harte	-9794
arbeiter	-9795
würdigen	-9796
▁stoppen	-9797
▁besuchen	-9798
▁mitunter	-9799
▁bedeutend	-9800
▁verhütung	-9801
▁verbesserte	-9802
▁dest	-9803
statten	-9804
▁mandats	-9805
▁zerstören	-9806
▁verabschiedeten	-9807
adem	-9808
ssitz	-9809
▁sekret	-9810
kehrungen	-9811
▁bekannten	-9812
▁verschieben	-9813
▁diesbezügliche	-9814
▁drohen	-9815
äck	-9816
▁ruf	-9817
▁zeich	-9818
meister	-9819
ugtuung	-9820
▁genfer	-9821
lattform	-9822
▁üblichen	-9823
▁genugtuung	-9824
/2002	-9825
▁facto	-9826
▁interoper	-9827
▁kriminellen	-9828
▁lebt	-9829
▁york	-9830
▁beacht	-9831
▁gesunde	-9832
▁nachteile	-9833
ätzt	-9834
▁22.	-9835
schinen	-9836
▁kreativ	-9837
▁diensten	-9838
▁büro	-9839
▁kurden	-9840
▁geltend	-9841
▁hongkon	-9842
▁morator	-9843
▁unterhalten	-9844
flu	-9845
neu	-9846
▁48	-9847
kunden	-9848
silber	-9849
▁stärkt	-9850
▁oberste	-9851
▁unnötig	-9852
▁gentechn	-9853
ergebnisse	-9854
▁gesetzgebungs	-9855
▁ach	-9856
olmet	-9857
▁gemü	-9858
chseln	-9859
▁front	-9860
▁imperial	-9861
▁verfasserin	-9862
▁widerspiegelt	-9863
▁150	-9864
▁kenne	-9865
▁aufstellung	-9866
log	-9867
▁frat	-9868
▁kapazität	-9869
▁einbindung	-9870
▁grenzwerte	-9871
▁orientierung	-9872
▁beträchtlichen	-9873
▁obst	-9874
weitet	-9875
▁euroraum	-9876
▁hunderttaus	-9877
▁fortschritten	-9878
▁ökos	-9879
▁brachte	-9880
▁spitzen	-9881
▁eingehend	-9882
▁einzelner	-9883
▁grundsätzliche	-9884
akt	-9885
gton	-9886
▁hiv	-9887
stext	-9888
▁datum	-9889
▁pflege	-9890
▁spätestens	-9891
▁eingetreten	-9892
▁industriellen	-9893
▁unterscheidet	-9894
kul	-9895
reckt	-9896
▁sied	-9897
deuten	-9898
▁queck	-9899
▁stein	-9900
teilten	-9901
▁anlage	-9902
▁michel	-9903
vertreten	-9904
▁beurteilt	-9905
▁vorsitzes	-9906
eken	-9907
etzten	-9908
▁griff	-9909
▁gemeint	-9910
▁resultieren	-9911
▁ausschlaggeben	-9912
▁air	-9913
▁rig	-9914
▁wächst	-9915
▁dürften	-9916
▁ausgenommen	-9917
▁beschlüssen	-9918
▁strafverfol	-9919
▁griechenlands	-9920
itten	-9921
▁kolon	-9922
▁zeugen	-9923
▁eigener	-9924
▁ermitteln	-9925
▁vermarktung	-9926
▁irgendwelche	-9927
itar	-9928
▁stab	-9929
estein	-9930
▁betone	-9931
▁laeken	-9932
▁madrid	-9933
olkestein	-9934
▁begriffen	-9935
▁schnellen	-9936
▁erweiterungs	-9937
▁berichtigungs	-9938
▁kommerziellen	-9939
▁szen	-9940
▁inhalts	-9941
▁mangelt	-9942
katastrophe	-9943
▁zuversichtlich	-9944
▁mc	-9945
nete	-9946
städ	-9947
▁schande	-9948
▁zahlung	-9949
▁lande	-9950
▁unaus	-9951
▁wahre	-9952
▁üblich	-9953
▁aufgetreten	-9954
▁veränderten	-9955
bod	-9956
▁barn	-9957
gelder	-9958
▁gefällt	-9959
▁namentlich	-9960
▁völkermord	-9961
▁abzuw	-9962
▁alltag	-9963
▁versamm	-9964
▁quecksilber	-9965
▁herkunftsland	-9966
(9	-9967
▁atmo	-9968
oliber	-9969
▁beton	-9970
hington	-9971
▁unmittelbaren	-9972
▁stellvertreten	-9973
aria	-9974
behr	-9975
timor	-9976
▁kuban	-9977
▁berühm	-9978
▁zahlreicher	-9979
▁kos	-9980
▁pek	-9981
▁vorlegt	-9982
programmen	-9983
▁verdanken	-9984
▁begrenzten	-9985
▁einzustellen	-9986
inea	-9987
krank	-9988
▁zugeständ	-9989
händler	-9990
mischen	-9991
▁begehen	-9992
▁frattini	-9993
▁hoheitsgebiet	-9994
▁kambod	-9995
▁vergew	-9996
▁örtlichen	-9997
▁bolkestein	-9998
▁schwerwiegende	-9999
zö	-10000
▁skla	-10001
reiter	-10002
▁desto	-10003
verträge	-10004
ätigkeiten	-10005
▁eindeutigen	-10006
▁34	-10007
ipel	-10008
▁bat	-10009
zieht	-10010
gericht	-10011
▁flugzeug	-10012
▁prozesse	-10013
angehörige	-10014
▁geänderten	-10015
▁ungarische	-10016
▁entscheidet	-10017
▁wirtschaften	-10018
16	-10019
ef	-10020
▁38	-10021
elte	-10022
▁pla	-10023
osexu	-10024
▁adop	-10025
▁kost	-10026
▁dement	-10027
reiteten	-10028
▁geleitet	-10029
▁vergeben	-10030
▁zulässig	-10031
▁washington	-10032
▁handelsabkommen	-10033
teb	-10034
▁dav	-10035
▁gewiß	-10036
▁ansätze	-10037
▁konsequenz	-10038
▁überwunden	-10039
▁schätzungen	-10040
▁unzulänglich	-10041
▁herbeizuführen	-10042
▁fab	-10043
papier	-10044
▁domin	-10045
▁immen	-10046
▁stütz	-10047
skosten	-10048
▁leidet	-10049
▁menschenleben	-10050
lebt	-10051
elles	-10052
▁unent	-10053
▁zugeben	-10054
▁anderswo	-10055
▁handlung	-10056
▁dauerhaft	-10057
▁vieh	-10058
▁abhängt	-10059
▁wertsch	-10060
▁neoliber	-10061
5-03	-10062
▁gewachsen	-10063
erba	-10064
reen	-10065
ätten	-10066
▁gerü	-10067
▁mord	-10068
alition	-10069
▁versetzt	-10070
▁verstößt	-10071
▁komplexen	-10072
ungsfähigkeit	-10073
▁wah	-10074
▁tibe	-10075
▁recyc	-10076
▁import	-10077
▁reihen	-10078
▁senden	-10079
▁zuteil	-10080
dokument	-10081
▁beklagen	-10082
▁intensive	-10083
▁übermittlung	-10084
▁eingegangenen	-10085
vort	-10086
aller	-10087
aming	-10088
▁feuer	-10089
▁schad	-10090
gerlich	-10091
▁bewill	-10092
schafter	-10093
▁externe	-10094
▁drittstaats	-10095
kor	-10096
räumt	-10097
▁engere	-10098
▁bemerkt	-10099
▁bisschen	-10100
▁abzuschaffen	-10101
▁verursachten	-10102
▁zuverlässigkeit	-10103
pliz	-10104
▁bestätigung	-10105
▁zivilisation	-10106
▁bord	-10107
schungen	-10108
ständige	-10109
▁standen	-10110
▁getrennt	-10111
▁verhängt	-10112
▁umgekehrt	-10113
▁türen	-10114
▁getrenn	-10115
▁wünscht	-10116
▁repräsen	-10117
vorschlägen	-10118
▁ausländische	-10119
▁einwanderungs	-10120
▁—	-10121
▁bestanden	-10122
▁erfordernisse	-10123
acio	-10124
opou	-10125
▁tau	-10126
▁martin	-10127
▁legislatur	-10128
▁veröffentlichen	-10129
up	-10130
üd	-10131
5-02	-10132
hemen	-10133
▁guant	-10134
▁göteb	-10135
ichtung	-10136
▁erkläre	-10137
▁atlantik	-10138
▁einseitig	-10139
▁nördlichen	-10140
▁konsumenten	-10141
▁widerspricht	-10142
▁überwachungs	-10143
▁elektronische	-10144
dy	-10145
reden	-10146
endien	-10147
▁ungew	-10148
ichtungs	-10149
▁signale	-10150
▁erhebung	-10151
▁kategorien	-10152
▁kraftstoff	-10153
▁vorantreiben	-10154
grem	-10155
▁vene	-10156
▁präze	-10157
▁votum	-10158
aufsicht	-10159
gbarkeit	-10160
▁bevorzu	-10161
▁palacio	-10162
▁anpassen	-10163
▁gerechten	-10164
▁biologische	-10165
antrag	-10166
▁auszur	-10167
▁gemessen	-10168
▁imstande	-10169
▁anerkennt	-10170
▁ehrgeizig	-10171
▁anwesenden	-10172
bereitschaft	-10173
▁interessieren	-10174
bahnen	-10175
▁wirkt	-10176
stellern	-10177
▁faktisch	-10178
▁inhaltlich	-10179
ato	-10180
▁anf	-10181
entwurfs	-10182
▁präzedenz	-10183
kts	-10184
▁6,	-10185
körper	-10186
▁damal	-10187
schritt	-10188
politiken	-10189
▁analysen	-10190
▁erfolgte	-10191
▁täglichen	-10192
▁außenhandel	-10193
▁konsultiert	-10194
▁ed	-10195
steh	-10196
▁swo	-10197
▁baron	-10198
▁genügt	-10199
▁gezahlt	-10200
▁rückverfol	-10201
▁verschoben	-10202
▁betreffende	-10203
gekommen	-10204
▁ausgeht	-10205
▁barnier	-10206
▁herange	-10207
▁aufgeführt	-10208
▁eigenschaft	-10209
▁beschränkung	-10210
▁instabilität	-10211
▁medizinischen	-10212
habe	-10213
sströ	-10214
▁ausgesch	-10215
▁halbzeit	-10216
▁wesentliches	-10217
▁widersprechen	-10218
zugs	-10219
▁aqu	-10220
▁joh	-10221
linge	-10222
▁swobo	-10223
▁kostet	-10224
▁bewirkt	-10225
stes	-10226
teln	-10227
gehalt	-10228
▁ermor	-10229
▁darfur	-10230
▁vorgeb	-10231
sprinzips	-10232
▁festlegt	-10233
▁angegangen	-10234
▁kenntnisse	-10235
iew	-10236
üren	-10237
▁verg	-10238
aturen	-10239
einbar	-10240
▁geteilt	-10241
▁zuwider	-10242
▁geltende	-10243
▁angleichung	-10244
▁begrüßenswert	-10245
▁internationales	-10246
▁flag	-10247
▁rufe	-10248
zulegen	-10249
▁taiwan	-10250
▁unsinn	-10251
lationen	-10252
▁details	-10253
▁energisch	-10254
▁verordnungs	-10255
▁aufzufordern	-10256
▁iwf	-10257
schluss	-10258
▁ausgew	-10259
▁belegen	-10260
▁einheim	-10261
▁autorität	-10262
▁produziert	-10263
▁sicherheitsrat	-10264
▁verschlechtert	-10265
bles	-10266
niveaus	-10267
▁rentens	-10268
▁verlaufen	-10269
ächt	-10270
mmert	-10271
utzer	-10272
▁lehnt	-10273
▁nigeria	-10274
▁objektiv	-10275
▁europaweit	-10276
▁nachzukommen	-10277
▁benachteiligt	-10278
▁registrierung	-10279
▁untereinander	-10280
▁eldr	-10281
spezif	-10282
▁industr	-10283
▁bekunden	-10284
▁vorbehalten	-10285
▁beschlossenen	-10286
▁entschließungs	-10287
▁qualifizierter	-10288
ov	-10289
tun	-10290
amin	-10291
porte	-10292
▁mitber	-10293
führungs	-10294
▁digitalen	-10295
▁zentraler	-10296
▁indonesien	-10297
▁unverantwort	-10298
▁hol	-10299
▁nam	-10300
▁erho	-10301
stagung	-10302
▁nächst	-10303
aßnahmen	-10304
▁höchster	-10305
▁nuklearen	-10306
▁behinderte	-10307
▁24.	-10308
▁geöff	-10309
▁online	-10310
▁theore	-10311
▁erwerbst	-10312
▁rechtsakte	-10313
▁sämtlicher	-10314
▁ausreichenden	-10315
▁qualifikationen	-10316
ächte	-10317
▁aufw	-10318
kompeten	-10319
vorhaben	-10320
verpflicht	-10321
▁terroristischen	-10322
▁präm	-10323
▁wesen	-10324
▁rauchen	-10325
▁umstand	-10326
▁aufweist	-10327
▁fischfang	-10328
▁israelische	-10329
▁olympischen	-10330
▁spezi	-10331
▁berührt	-10332
hy	-10333
bow	-10334
▁sc	-10335
/1999	-10336
lasten	-10337
ürzung	-10338
ektoren	-10339
hältnis	-10340
menschen	-10341
▁verweist	-10342
▁kn	-10343
unken	-10344
anzler	-10345
bilanz	-10346
schiff	-10347
svertre	-10348
▁kontra	-10349
▁gesenkt	-10350
▁irgendw	-10351
▁jährliche	-10352
▁angefangen	-10353
▁zugewiesen	-10354
buchs	-10355
▁unterw	-10356
▁ausdehnung	-10357
▁gründliche	-10358
▁vorherigen	-10359
stellte	-10360
▁beauft	-10361
▁vierte	-10362
▁göteborg	-10363
▁errichtet	-10364
vereinbarung	-10365
hren	-10366
beteil	-10367
▁reach	-10368
▁tests	-10369
▁gleichgül	-10370
▁hervorgeht	-10371
1)	-10372
use	-10373
ulen	-10374
▁canc	-10375
▁stabile	-10376
▁swoboda	-10377
▁verhältnisse	-10378
'.	-10379
▁2015	-10380
▁besp	-10381
saktion	-10382
▁andauern	-10383
▁homosexu	-10384
▁zugesagt	-10385
serklärung	-10386
▁atmosphäre	-10387
▁auswirkung	-10388
▁befriedigen	-10389
▁herausgestellt	-10390
▁menschenhandels	-10391
▁32	-10392
▁golf	-10393
▁tiefe	-10394
▁zigar	-10395
drücken	-10396
▁geführten	-10397
▁anpassungen	-10398
▁ausführliche	-10399
▁unmittelbare	-10400
mitgliedschaft	-10401
▁mache	-10402
beschrän	-10403
▁merkmale	-10404
▁kolumbien	-10405
▁nahrungsmitteln	-10406
gro	-10407
ques	-10408
ratom	-10409
abgabe	-10410
rechtliche	-10411
▁wechselkur	-10412
akis	-10413
alem	-10414
▁149	-10415
bilden	-10416
sozial	-10417
▁herstellen	-10418
▁verwirrung	-10419
▁anstehenden	-10420
▁aufenthalts	-10421
▁vereinbaren	-10422
keten	-10423
binnen	-10424
▁vater	-10425
▁paradox	-10426
▁milliarde	-10427
▁vergleichen	-10428
▁radioa	-10429
▁liefert	-10430
verhältnisse	-10431
▁einheitliches	-10432
▁biotechnologie	-10433
mod	-10434
atie	-10435
▁unl	-10436
/2006	-10437
tsein	-10438
ikanen	-10439
▁denkt	-10440
▁elektro	-10441
belastung	-10442
betrieben	-10443
wäsche	-10444
zwingen	-10445
▁kampfes	-10446
▁spiegelt	-10447
▁universe	-10448
▁erschwert	-10449
▁fehlenden	-10450
▁niederländische	-10451
sprä	-10452
▁übel	-10453
wachung	-10454
▁steigt	-10455
▁anfangen	-10456
▁aufweisen	-10457
▁organismen	-10458
▁gescheitert	-10459
▁verlagerung	-10460
▁vorsorgeprinzip	-10461
käm	-10462
agenda	-10463
leichen	-10464
▁klonen	-10465
▁unmiss	-10466
ätzungen	-10467
▁exzellen	-10468
▁glücklich	-10469
zeichnungen	-10470
▁entgegenzu	-10471
19	-10472
the	-10473
▁mußte	-10474
▁künstler	-10475
▁gegenseitigkeit	-10476
▁marktz	-10477
▁benötig	-10478
▁gerufen	-10479
▁zualler	-10480
▁erziehung	-10481
▁angestrebt	-10482
▁territoriale	-10483
mater	-10484
opfer	-10485
nehmung	-10486
▁verspät	-10487
▁gewässer	-10488
▁späteren	-10489
▁mehrjährigen	-10490
nöten	-10491
würde	-10492
▁höre	-10493
▁weste	-10494
▁diktator	-10495
▁thematik	-10496
▁gleichgew	-10497
▁ungleichgew	-10498
',	-10499
omé	-10500
▁risk	-10501
▁musli	-10502
gesetze	-10503
▁beamte	-10504
▁zunichte	-10505
delegation	-10506
▁ernsthaften	-10507
▁zuallererst	-10508
▁einvernehmen	-10509
45	-10510
▁zeig	-10511
itiert	-10512
satzes	-10513
▁flotten	-10514
▁rezession	-10515
erzeugnissen	-10516
▁här	-10517
▁europe	-10518
allgemein	-10519
▁einfuhren	-10520
▁asylpolitik	-10521
▁instruments	-10522
▁verdeutlicht	-10523
ruf	-10524
▁aust	-10525
▁zusam	-10526
ranchen	-10527
▁oliven	-10528
▁besucht	-10529
▁potenziellen	-10530
artig	-10531
cosur	-10532
▁soft	-10533
zessen	-10534
▁abgedeckt	-10535
▁zusamment	-10536
regulierung	-10537
▁sowjetunion	-10538
▁einschränken	-10539
▁geflü	-10540
▁afrikas	-10541
▁stadium	-10542
▁erzeugen	-10543
▁beförderung	-10544
18	-10545
stens	-10546
▁meint	-10547
▁sucht	-10548
▁totalit	-10549
▁aufkommen	-10550
▁irgendwann	-10551
▁verlängern	-10552
▁nationalstaaten	-10553
▁wohin	-10554
handeln	-10555
▁komple	-10556
erzeuger	-10557
▁erschüt	-10558
▁darlegen	-10559
▁erholung	-10560
▁geöffnet	-10561
▁ausgedehnt	-10562
▁einsetzung	-10563
▁zugenommen	-10564
▁medikamente	-10565
▁geografischen	-10566
bio	-10567
wier	-10568
idsch	-10569
statut	-10570
▁fahrer	-10571
▁hongkong	-10572
▁konzepte	-10573
▁verdacht	-10574
▁begrenzte	-10575
▁gewaltigen	-10576
spartnerschaft	-10577
▁vereinbarkeit	-10578
fp	-10579
▁43	-10580
ufung	-10581
▁belei	-10582
▁decken	-10583
willigen	-10584
▁reprodu	-10585
▁definitiv	-10586
▁einstellen	-10587
▁übereinstimm	-10588
▁hie	-10589
▁liz	-10590
ünfte	-10591
▁verun	-10592
▁verdienst	-10593
▁voraussicht	-10594
greif	-10595
▁gesamm	-10596
▁massenvern	-10597
▁überschritten	-10598
.000	-10599
▁eigenmittel	-10600
▁dementsprechend	-10601
▁zy	-10602
▁eli	-10603
▁ostse	-10604
▁systemen	-10605
▁mitgefühl	-10606
▁friedensprozeß	-10607
reser	-10608
▁jean	-10609
▁tenden	-10610
▁therap	-10611
erbaidsch	-10612
▁ausgeben	-10613
▁johannes	-10614
▁liberale	-10615
▁angegeben	-10616
▁unterliegt	-10617
▁wissensbas	-10618
▁wahlperiode	-10619
▁völkerrechts	-10620
gels	-10621
ändern	-10622
▁waldb	-10623
▁flotte	-10624
▁anhebung	-10625
▁aussetzung	-10626
▁erfreulich	-10627
▁ausgeweitet	-10628
onou	-10629
▁phare	-10630
▁progno	-10631
▁unlängst	-10632
▁zuweilen	-10633
▁grundprinzipien	-10634
tzahl	-10635
streck	-10636
▁birgt	-10637
▁stoßen	-10638
▁beitrags	-10639
▁niedriger	-10640
▁nationales	-10641
▁gesetzliche	-10642
▁marktzugang	-10643
▁detaillierte	-10644
raf	-10645
▁stehe	-10646
▁annimmt	-10647
▁gründet	-10648
gerichtet	-10649
▁übergehen	-10650
staatlicher	-10651
▁vorgegeben	-10652
▁vorrangige	-10653
▁behinderung	-10654
▁überschreiten	-10655
▁7,	-10656
▁ark	-10657
▁elf	-10658
▁kurd	-10659
▁brand	-10660
▁buchsta	-10661
▁langwier	-10662
▁luftraum	-10663
▁überblick	-10664
▁anzubieten	-10665
▁ausdrücken	-10666
▁haftbefehl	-10667
ämm	-10668
▁vorne	-10669
▁dienstag	-10670
▁vonnöten	-10671
▁erbringen	-10672
▁petitionen	-10673
mau	-10674
▁corbe	-10675
▁gerät	-10676
kapazität	-10677
▁beruhigen	-10678
▁sofortige	-10679
▁geäußerten	-10680
▁industriel	-10681
▁mitberaten	-10682
▁einheitlich	-10683
wächt	-10684
▁kreis	-10685
▁popul	-10686
▁gremium	-10687
▁häufiger	-10688
▁abzubauen	-10689
▁stockholm	-10690
▁menschenwürde	-10691
▁sinken	-10692
▁bedenkt	-10693
▁verschle	-10694
▁zugegeben	-10695
▁kriminelle	-10696
les	-10697
▁fat	-10698
hersteller	-10699
▁ethnische	-10700
▁profession	-10701
▁aserbaidsch	-10702
▁za	-10703
dige	-10704
anbau	-10705
▁geschah	-10706
ministers	-10707
▁zugehört	-10708
▁nordkorea	-10709
▁übersehen	-10710
▁bedeutender	-10711
▁verwaltungen	-10712
▁emo	-10713
iehlt	-10714
gelassen	-10715
schieben	-10716
▁überwältigen	-10717
▁ausländischen	-10718
▁administrativen	-10719
lles	-10720
▁schot	-10721
▁cotonou	-10722
▁iranischen	-10723
▁umweltschutzes	-10724
bargo	-10725
ämpft	-10726
lebens	-10727
restige	-10728
▁diskre	-10729
▁riesige	-10730
▁verweis	-10731
▁kommende	-10732
▁geschlechts	-10733
▁übersetzung	-10734
▁schwerwiegenden	-10735
▁diam	-10736
▁tagt	-10737
▁mauer	-10738
dustrie	-10739
▁begriffe	-10740
▁atomwaffen	-10741
▁nachhaltiges	-10742
▁bürokratischen	-10743
▁erfordernissen	-10744
ümer	-10745
▁lkw	-10746
pakets	-10747
▁steckt	-10748
▁ethischen	-10749
überwachung	-10750
▁unverhältnis	-10751
▁plenarsitzung	-10752
agno	-10753
▁kno	-10754
pfeiler	-10755
▁provin	-10756
▁einhalt	-10757
▁überdies	-10758
▁religiöse	-10759
▁­	-10760
hema	-10761
▁sis	-10762
▁uen	-10763
▁mani	-10764
dieren	-10765
teilte	-10766
▁stecken	-10767
▁wählern	-10768
▁mehrmals	-10769
▁vertretenen	-10770
ßig	-10771
wald	-10772
▁erzielte	-10773
▁mercosur	-10774
mitgliedern	-10775
▁prinzipiell	-10776
▁dringlichkeits	-10777
▁sam	-10778
▁mosk	-10779
▁wind	-10780
▁dolmet	-10781
▁fahrplan	-10782
▁größeres	-10783
▁nächstes	-10784
▁gleichwer	-10785
▁rumäniens	-10786
▁irgendeine	-10787
▁streitkräfte	-10788
▁österreichische	-10789
▁genf	-10790
▁donau	-10791
▁berech	-10792
▁günstig	-10793
wettbewerb	-10794
▁verlängert	-10795
▁schwächsten	-10796
20-	-10797
ahe	-10798
alon	-10799
issar	-10800
▁löhne	-10801
▁maßstab	-10802
▁zyperns	-10803
▁ansatzes	-10804
▁zuwander	-10805
alisierungs	-10806
▁unterlagen	-10807
ablen	-10808
menge	-10809
▁bedanke	-10810
▁hervorragend	-10811
▁maximal	-10812
▁aufgeben	-10813
▁tragweite	-10814
▁zivilisten	-10815
▁zuzulassen	-10816
▁größtenteils	-10817
▁energieträger	-10818
▁zurückgezogen	-10819
ún	-10820
ürzen	-10821
▁nähr	-10822
▁volksab	-10823
▁stabilen	-10824
▁ausbildungs	-10825
▁belastungen	-10826
▁my	-10827
▁hass	-10828
▁unten	-10829
▁65	-10830
▁unru	-10831
▁peter	-10832
▁vorgehens	-10833
frie	-10834
▁eis	-10835
angeb	-10836
icken	-10837
zonen	-10838
▁phys	-10839
landes	-10840
▁entwurfs	-10841
▁morgigen	-10842
▁potentie	-10843
▁sinnvolle	-10844
▁dramatischen	-10845
-9	-10846
ilen	-10847
graph	-10848
rücken	-10849
▁fortzu	-10850
▁freier	-10851
▁gesetzen	-10852
▁aussichten	-10853
▁hervorgerufen	-10854
mung	-10855
▁aufges	-10856
übertrag	-10857
▁ersuche	-10858
▁gebildet	-10859
▁offensicht	-10860
▁verursacher	-10861
▁mutterschaft	-10862
▁strategischer	-10863
4-00	-10864
etze	-10865
lesen	-10866
sprozesse	-10867
▁korrekte	-10868
▁verschul	-10869
▁geldwäsche	-10870
▁irakischen	-10871
▁unverzichtbar	-10872
9,	-10873
greift	-10874
▁alleine	-10875
▁handelte	-10876
▁flexibler	-10877
▁betrügereien	-10878
▁baum	-10879
regime	-10880
bindung	-10881
▁planeten	-10882
▁geschäfte	-10883
▁reformieren	-10884
▁interventionen	-10885
▁informationskam	-10886
athie	-10887
▁euratom	-10888
▁jetzige	-10889
▁zweierlei	-10890
▁industrien	-10891
ev	-10892
bik	-10893
▁55	-10894
▁196	-10895
▁26.	-10896
▁syn	-10897
▁abst	-10898
▁aufruf	-10899
▁peking	-10900
▁interim	-10901
▁tschern	-10902
▁vertiefen	-10903
▁klargestellt	-10904
▁individuellen	-10905
haftig	-10906
▁stammt	-10907
zeichnete	-10908
▁baltischen	-10909
▁veranlasst	-10910
▁wertvollen	-10911
▁staatlicher	-10912
▁unzufrieden	-10913
▁deregulierung	-10914
▁harmonisieren	-10915
▁mitberatenden	-10916
ía	-10917
pal	-10918
spekt	-10919
spekte	-10920
undern	-10921
gesetzte	-10922
▁schützt	-10923
▁veterin	-10924
▁legitimen	-10925
▁juristische	-10926
stechnologien	-10927
▁nachhaltiger	-10928
▁verschiebung	-10929
zin	-10930
▁ät	-10931
▁seri	-10932
werter	-10933
▁berau	-10934
▁nutzt	-10935
▁leuten	-10936
▁perman	-10937
▁selben	-10938
▁dritter	-10939
▁europaab	-10940
▁ausreicht	-10941
▁anzusprechen	-10942
▁verkehrspolitik	-10943
▁währungspolitik	-10944
▁repress	-10945
▁neuesten	-10946
sprogramms	-10947
▁milosevic	-10948
▁thunfisch	-10949
▁deutlichen	-10950
▁hör	-10951
üchter	-10952
gipfels	-10953
▁massiv	-10954
lichkeiten	-10955
▁derartiger	-10956
▁wahrgenommen	-10957
dor	-10958
unft	-10959
ancen	-10960
innung	-10961
▁beigetreten	-10962
▁eingenommen	-10963
kö	-10964
ille	-10965
obyl	-10966
nügen	-10967
▁netto	-10968
▁weihn	-10969
▁bewohner	-10970
▁abschnitt	-10971
erklärungen	-10972
▁fragestell	-10973
analy	-10974
▁eins	-10975
▁meilen	-10976
▁radikalen	-10977
▁lissabonner	-10978
▁rückführung	-10979
▁verarbeitung	-10980
▁demonstrieren	-10981
▁traditionelle	-10982
tta	-10983
▁zwin	-10984
esende	-10985
ialien	-10986
▁abfällen	-10987
▁destabil	-10988
▁besetzung	-10989
▁nützliche	-10990
▁gültigkeit	-10991
▁sichtweise	-10992
▁hinreichend	-10993
▁durchschnitt	-10994
▁mobilisierung	-10995
▁verdeutlichen	-10996
▁sozialpartnern	-10997
effe	-10998
gerecht	-10999
▁erschwer	-11000
▁rüstungs	-11001
▁empfiehlt	-11002
▁kriegsverb	-11003
▁vorbeugung	-11004
▁herausstellen	-11005
iox	-11006
▁deu	-11007
andten	-11008
gender	-11009
▁gestalt	-11010
▁neutral	-11011
zerrungen	-11012
▁vorschrift	-11013
af	-11014
wass	-11015
reyer	-11016
endiox	-11017
▁angepa	-11018
▁bezweif	-11019
▁norwegen	-11020
▁stattfand	-11021
▁demonstration	-11022
bra	-11023
▁28.	-11024
▁eingesch	-11025
▁erstaunt	-11026
▁analysiert	-11027
▁tschernobyl	-11028
▁haushaltslinien	-11029
anter	-11030
geräte	-11031
▁verfe	-11032
▁bedien	-11033
▁spiele	-11034
maßnahme	-11035
▁register	-11036
▁fluggäste	-11037
▁qualifikation	-11038
asste	-11039
▁beklei	-11040
▁strafe	-11041
inderung	-11042
▁hinzuge	-11043
▁reichtum	-11044
▁erreichte	-11045
▁auszubauen	-11046
▁kohlendiox	-11047
▁kontinuität	-11048
▁forstwirtschaft	-11049
geld	-11050
fahrer	-11051
ickelt	-11052
▁küste	-11053
▁älter	-11054
rennung	-11055
▁paritä	-11056
▁geplante	-11057
▁klimaschutz	-11058
ichtungswaffen	-11059
▁unterschieden	-11060
▁unterscheidung	-11061
ye	-11062
sie	-11063
▁fließen	-11064
▁vierten	-11065
bezogener	-11066
▁vorgegangen	-11067
lab	-11068
liber	-11069
▁fung	-11070
▁inneh	-11071
ächtigen	-11072
▁aufwand	-11073
▁vielfäl	-11074
europäische	-11075
▁politikern	-11076
/00	-11077
▁gehei	-11078
▁planen	-11079
sichtige	-11080
▁bedacht	-11081
▁universal	-11082
▁eingeladen	-11083
▁intensivieren	-11084
▁audiovisuellen	-11085
▁frühere	-11086
▁vorgänger	-11087
▁einseitige	-11088
▁zufriedenheit	-11089
▁sri	-11090
europa	-11091
lassungs	-11092
▁progres	-11093
▁versagen	-11094
▁passagiere	-11095
▁wohlstands	-11096
▁kombination	-11097
▁rahmenprogramms	-11098
▁pap	-11099
zugehen	-11100
▁belange	-11101
▁erhielt	-11102
▁mittele	-11103
▁schiene	-11104
▁begriffs	-11105
▁letztere	-11106
▁ausgegangen	-11107
▁bewaffneten	-11108
▁vorrangigen	-11109
▁beträchtlich	-11110
▁unterrichtet	-11111
▁auszusprechen	-11112
▁flan	-11113
▁stim	-11114
terror	-11115
▁initi	-11116
▁trink	-11117
▁worin	-11118
▁gefaßt	-11119
rechungen	-11120
▁ermessen	-11121
▁wochenende	-11122
▁weib	-11123
▁gefäl	-11124
▁kabel	-11125
▁referenz	-11126
▁entschuldigung	-11127
▁film	-11128
▁botschaften	-11129
▁eindringlich	-11130
kommunikations	-11131
▁umfangreichen	-11132
▁schutzmaßnahmen	-11133
▁ce	-11134
/98)	-11135
otro	-11136
▁arm	-11137
▁anreg	-11138
gemacht	-11139
pflanzen	-11140
▁klausel	-11141
▁institut	-11142
▁europawahlen	-11143
▁verbindlichen	-11144
hard	-11145
außen	-11146
▁belegt	-11147
▁zusich	-11148
▁vergewal	-11149
▁bedrohungen	-11150
▁gewissermaßen	-11151
/02	-11152
inkel	-11153
▁wett	-11154
▁tacis	-11155
▁vertrieb	-11156
▁belgische	-11157
▁umfangreich	-11158
▁zielvorgaben	-11159
illa	-11160
▁ant	-11161
▁euros	-11162
▁reine	-11163
gegangen	-11164
▁beinahe	-11165
▁branchen	-11166
▁ambitionen	-11167
▁behauptung	-11168
▁einzubringen	-11169
▁ungleichheit	-11170
▁koordinierungs	-11171
mi	-11172
ager	-11173
undet	-11174
sparen	-11175
▁begann	-11176
▁antrags	-11177
bewegungen	-11178
▁referenden	-11179
▁städtischen	-11180
▁überflüssig	-11181
▁gesellschafts	-11182
pla	-11183
empf	-11184
▁feste	-11185
▁immig	-11186
svorsorge	-11187
▁unmensch	-11188
▁begleiten	-11189
▁überlegung	-11190
▁exportieren	-11191
▁wahrnehmung	-11192
hiop	-11193
äufe	-11194
▁insta	-11195
▁vorab	-11196
▁stoffen	-11197
▁ermordet	-11198
▁zollunion	-11199
▁grundrecht	-11200
▁regelmäßigen	-11201
arow	-11202
kurb	-11203
▁29.	-11204
▁gänz	-11205
faktor	-11206
würdige	-11207
▁beharr	-11208
▁bezahl	-11209
▁erfasst	-11210
▁posselt	-11211
▁bedauert	-11212
▁zut	-11213
▁angere	-11214
▁legalen	-11215
▁raschen	-11216
▁aufrufen	-11217
▁unterworfen	-11218
▁beschleunigt	-11219
▁ermittlungen	-11220
▁eingeschlagen	-11221
bewirtschaftung	-11222
akultur	-11223
▁mußten	-11224
▁zivile	-11225
▁kleinere	-11226
▁vernunft	-11227
▁erkennbar	-11228
▁verschärfung	-11229
▁beschleunigung	-11230
orn	-11231
sub	-11232
wen	-11233
just	-11234
seiten	-11235
▁ankünd	-11236
russland	-11237
▁freunden	-11238
fahrzeugen	-11239
▁zigaretten	-11240
▁bez	-11241
geist	-11242
▁ferrer	-11243
▁äthiop	-11244
▁gebäuden	-11245
▁zwingend	-11246
▁leistungs	-11247
kü	-11248
▁asia	-11249
▁dist	-11250
▁verlau	-11251
antwortet	-11252
▁forderte	-11253
▁vorkehrungen	-11254
▁ökonomischen	-11255
▁präzedenzfall	-11256
▁wiederbelebung	-11257
älte	-11258
schad	-11259
ündete	-11260
▁zinss	-11261
▁dasein	-11262
▁warnen	-11263
▁gefolgt	-11264
▁sammeln	-11265
▁vollzogen	-11266
▁aquakultur	-11267
▁freiwillig	-11268
ynn	-11269
▁üben	-11270
rahmens	-11271
▁kurzer	-11272
▁antibio	-11273
▁forscher	-11274
▁verfasst	-11275
▁kopenhagener	-11276
dez	-11277
hilf	-11278
ördern	-11279
wohnern	-11280
▁befugnis	-11281
▁ausgebaut	-11282
▁demokratisches	-11283
▁iii	-11284
zucht	-11285
örung	-11286
▁monats	-11287
▁passen	-11288
ichtigen	-11289
ransport	-11290
▁genauen	-11291
verhältnis	-11292
▁dramatisch	-11293
▁humanitärer	-11294
▁dr	-11295
▁sil	-11296
▁äng	-11297
oleranz	-11298
▁unfair	-11299
▁einwand	-11300
▁vertret	-11301
▁mißbrauch	-11302
▁anhörungen	-11303
▁aufzustellen	-11304
▁vertragsverletz	-11305
füg	-11306
bewuß	-11307
ordnen	-11308
▁konzip	-11309
▁soviel	-11310
leiteten	-11311
▁korrigiert	-11312
▁partnerschafts	-11313
ario	-11314
▁gmo	-11315
aliban	-11316
inland	-11317
▁einla	-11318
▁elend	-11319
▁ratin	-11320
▁moskau	-11321
indliche	-11322
▁gemeldet	-11323
▁mehrzahl	-11324
▁untermin	-11325
europäischen	-11326
▁erfolgs	-11327
▁vielerlei	-11328
▁anregungen	-11329
▁einhergehen	-11330
▁klarstellung	-11331
▁konkurrieren	-11332
▁web	-11333
stütz	-11334
▁haut	-11335
▁echter	-11336
▁wachsam	-11337
▁geradezu	-11338
▁wahlkampf	-11339
▁fortfahren	-11340
▁seeverkehrs	-11341
▁mobilisieren	-11342
real	-11343
▁jac	-11344
▁hekt	-11345
▁leon	-11346
▁sonn	-11347
risiken	-11348
▁belasten	-11349
▁zeitungen	-11350
▁aufzuheben	-11351
▁großartige	-11352
▁vorzusehen	-11353
delt	-11354
ischt	-11355
usste	-11356
ssteuer	-11357
▁natura	-11358
▁dorthin	-11359
lieferung	-11360
▁rechtfertigung	-11361
uens	-11362
▁kas	-11363
▁bühne	-11364
dlicher	-11365
flächen	-11366
▁fanden	-11367
▁massak	-11368
träglich	-11369
▁finanztran	-11370
▁interpretation	-11371
con	-11372
stik	-11373
▁greif	-11374
▁zögern	-11375
▁entsteh	-11376
▁erweist	-11377
▁abwarten	-11378
▁unzuläss	-11379
▁jahrelang	-11380
▁koordinierte	-11381
▁echt	-11382
betrieb	-11383
▁beides	-11384
austausch	-11385
▁wahlbeob	-11386
▁einsatzes	-11387
▁begünstigt	-11388
▁differenzen	-11389
▁europäischem	-11390
▁auszuschließen	-11391
imm	-11392
van	-11393
▁ia	-11394
digte	-11395
minen	-11396
▁selt	-11397
itären	-11398
▁karte	-11399
▁nennt	-11400
▁putin	-11401
▁statuts	-11402
kapazitäten	-11403
▁kooperations	-11404
▁beabsichtigen	-11405
▁diskriminiert	-11406
▁interessanten	-11407
rums	-11408
otrotz	-11409
▁kosme	-11410
▁massive	-11411
▁befreiung	-11412
▁umfassendes	-11413
▁nachbarländern	-11414
▁lü	-11415
▁foss	-11416
▁ließ	-11417
▁revid	-11418
▁zwingt	-11419
▁normale	-11420
▁abhalten	-11421
▁erworben	-11422
▁verwaltet	-11423
▁hochwertige	-11424
▁einzuschränken	-11425
▁blu	-11426
schenko	-11427
▁ausweg	-11428
▁cancún	-11429
ourismus	-11430
stellend	-11431
▁zweimal	-11432
▁straftat	-11433
▁versöhnung	-11434
▁auszuweiten	-11435
▁preisstabilität	-11436
▁füßen	-11437
▁korea	-11438
sströme	-11439
▁taliban	-11440
▁reibungs	-11441
▁sacharow	-11442
▁flugzeuge	-11443
▁unkontroll	-11444
▁befürworter	-11445
▁philosophie	-11446
ki	-11447
▁asylan	-11448
▁größen	-11449
▁summen	-11450
fürsorge	-11451
▁gegründet	-11452
▁strukturelle	-11453
▁steuerpolitik	-11454
▁entsprechender	-11455
▁büros	-11456
▁roten	-11457
▁legale	-11458
▁optimal	-11459
▁verhäng	-11460
▁ausmacht	-11461
▁besserer	-11462
information	-11463
▁kambodscha	-11464
▁frankreichs	-11465
▁demonstrationen	-11466
hara	-11467
▁195	-11468
▁bünde	-11469
▁maxim	-11470
saufwand	-11471
schließung	-11472
▁multilaterale	-11473
ette	-11474
gewässer	-11475
▁praktik	-11476
▁umweltz	-11477
▁verläss	-11478
▁unnötige	-11479
▁chemischen	-11480
▁erfordernis	-11481
▁voranbringen	-11482
gemeinschaften	-11483
▁freihandelszone	-11484
olv	-11485
▁quo	-11486
vorauss	-11487
▁abgebaut	-11488
▁demselben	-11489
▁ministerin	-11490
▁moratorium	-11491
▁glückwünsche	-11492
▁personenverkehr	-11493
kel	-11494
▁8,	-11495
▁wild	-11496
▁toten	-11497
beamten	-11498
▁nahost	-11499
▁pflanz	-11500
▁sozialistische	-11501
sh	-11502
▁machte	-11503
nehmlich	-11504
▁erbracht	-11505
▁gänzlich	-11506
▁deutliches	-11507
▁trinkwasser	-11508
▁nachgewiesen	-11509
▁unabhängiger	-11510
traum	-11511
tagung	-11512
▁erlit	-11513
▁einber	-11514
situation	-11515
▁verbesserten	-11516
▁infolgedessen	-11517
▁statistischen	-11518
izi	-11519
lug	-11520
▁umw	-11521
▁dutz	-11522
äglich	-11523
▁akteur	-11524
▁kredite	-11525
▁tausend	-11526
▁befreien	-11527
▁koalition	-11528
▁verweigern	-11529
▁herausragen	-11530
▁orientieren	-11531
▁verfügbarkeit	-11532
basis	-11533
etter	-11534
fuhren	-11535
ordnet	-11536
tisiert	-11537
▁sparen	-11538
gleichen	-11539
iraterie	-11540
▁guantán	-11541
▁begründen	-11542
▁jederzeit	-11543
▁sonstigen	-11544
geschritten	-11545
▁unterrichtung	-11546
lou	-11547
forum	-11548
▁greift	-11549
▁gedrängt	-11550
▁zitieren	-11551
▁zukunfts	-11552
▁empfangen	-11553
▁zusätzlicher	-11554
6,	-11555
lez	-11556
▁plant	-11557
spielen	-11558
tausend	-11559
versich	-11560
▁hierher	-11561
▁doppelte	-11562
▁verletzen	-11563
▁veränderte	-11564
▁gegenüberstehen	-11565
▁entlast	-11566
▁gebührt	-11567
▁massiven	-11568
▁guantánamo	-11569
▁kernkraftwerke	-11570
aku	-11571
risiko	-11572
▁solle	-11573
▁geiste	-11574
ergebnis	-11575
▁handwerk	-11576
▁software	-11577
▁geringfüg	-11578
▁rechtmäßig	-11579
▁chinesische	-11580
▁bruttoinland	-11581
dep	-11582
anta	-11583
▁klu	-11584
▁bloß	-11585
▁life	-11586
▁vorw	-11587
ftungen	-11588
▁geräte	-11589
gestellte	-11590
▁behandel	-11591
▁bestrebt	-11592
▁vorfälle	-11593
▁verwendeten	-11594
▁realisierung	-11595
▁obligatorische	-11596
brin	-11597
tage	-11598
▁hyp	-11599
▁lehre	-11600
▁vergü	-11601
steuers	-11602
ächtnis	-11603
▁zertifiz	-11604
▁schwarzen	-11605
▁funktionen	-11606
▁innovativen	-11607
▁obligatorischen	-11608
▁600	-11609
steil	-11610
▁bünd	-11611
▁enden	-11612
wichtig	-11613
▁vonseiten	-11614
▁steigenden	-11615
▁versichert	-11616
▁waffenstill	-11617
1-	-11618
▁kra	-11619
▁trä	-11620
▁rande	-11621
▁zeugt	-11622
▁ärzte	-11623
▁austra	-11624
▁kompromisses	-11625
▁geschlossenen	-11626
eckt	-11627
gelö	-11628
▁häft	-11629
▁müll	-11630
affung	-11631
jenige	-11632
▁erwerbs	-11633
▁trennen	-11634
▁auslaufen	-11635
▁welthandel	-11636
▁vorangetrieben	-11637
auff	-11638
▁erz	-11639
▁klug	-11640
kriegs	-11641
▁litau	-11642
ementen	-11643
scheinlich	-11644
▁stimmabgabe	-11645
dia	-11646
atson	-11647
zweck	-11648
▁befri	-11649
wachsen	-11650
▁angabe	-11651
▁barbar	-11652
▁geflügel	-11653
zugleichen	-11654
▁wallström	-11655
▁geforderten	-11656
▁standpunkts	-11657
▁ausschließen	-11658
berichterstatter	-11659
how	-11660
öser	-11661
▁int	-11662
iedel	-11663
split	-11664
fahrts	-11665
▁ärmer	-11666
swahlen	-11667
▁etappe	-11668
▁watson	-11669
▁zweites	-11670
▁auswirkt	-11671
▁verliert	-11672
geschichte	-11673
▁entstehung	-11674
▁komplexität	-11675
▁artenvielfalt	-11676
▁formulierungen	-11677
reut	-11678
▁gfp	-11679
flucht	-11680
▁beförder	-11681
grundlagen	-11682
spraktiken	-11683
▁gefährdung	-11684
▁rechtsverb	-11685
▁aktionspläne	-11686
▁komplizierte	-11687
agd	-11688
sfä	-11689
▁eck	-11690
deckung	-11691
währung	-11692
▁schönen	-11693
▁schicken	-11694
▁afrikanische	-11695
▁ausgewogenes	-11696
bour	-11697
oche	-11698
▁feld	-11699
▁kreuz	-11700
▁grundzüge	-11701
▁kohlenstoff	-11702
▁harmonisiert	-11703
▁versicherung	-11704
▁diplomatische	-11705
7,	-11706
▁halt	-11707
▁legal	-11708
▁geburt	-11709
ettering	-11710
▁irlands	-11711
▁eurojust	-11712
▁verhaftet	-11713
instruments	-11714
▁hinzugefügt	-11715
com	-11716
▁42	-11717
▁44	-11718
▁27.	-11719
▁egf	-11720
sahara	-11721
▁mugabe	-11722
▁anbieter	-11723
▁kommentare	-11724
▁poettering	-11725
ct	-11726
ause	-11727
vier	-11728
▁balance	-11729
▁präventiv	-11730
▁schwachen	-11731
▁osteuropas	-11732
▁universität	-11733
▁freundschaft	-11734
▁verschwunden	-11735
▁emissionshandel	-11736
▁ase	-11737
deutet	-11738
voller	-11739
▁jedwe	-11740
▁ergreift	-11741
▁mehrerer	-11742
▁ursprung	-11743
spotenzial	-11744
▁generelle	-11745
▁vorreiter	-11746
▁transparenten	-11747
▁voranzukommen	-11748
▁ah	-11749
▁bör	-11750
lernen	-11751
▁klasse	-11752
▁entschä	-11753
▁belastet	-11754
▁ungewöhn	-11755
▁inflations	-11756
▁profitiert	-11757
▁aserbaidschan	-11758
/2004	-11759
▁1989	-11760
ussten	-11761
▁eskal	-11762
▁beauftra	-11763
▁liikanen	-11764
▁objektive	-11765
möglichkeit	-11766
▁wortmeldung	-11767
▁85	-11768
▁ul	-11769
zure	-11770
▁skep	-11771
▁tode	-11772
spaket	-11773
▁ließen	-11774
einnahmen	-11775
▁verbündeten	-11776
▁verbrauchers	-11777
▁arbeitsmarktes	-11778
▁terroristische	-11779
▁dre	-11780
▁vel	-11781
arzem	-11782
▁zufall	-11783
▁logisch	-11784
▁verwäss	-11785
▁fähig	-11786
▁verwe	-11787
▁harten	-11788
▁sports	-11789
arzembow	-11790
ferenzen	-11791
ssektors	-11792
▁rettung	-11793
▁sonntag	-11794
▁blockade	-11795
▁vorwärts	-11796
▁menschenver	-11797
▁mittelständ	-11798
▁vergleichbar	-11799
▁gebietskörper	-11800
▁gd	-11801
wies	-11802
würfe	-11803
▁lücke	-11804
▁effekt	-11805
▁island	-11806
▁primär	-11807
▁corbett	-11808
▁schweine	-11809
▁jarzembow	-11810
▁diplomatie	-11811
▁rechtlicher	-11812
▁entlassungen	-11813
▁zugeständnisse	-11814
tellte	-11815
öpfung	-11816
▁beweg	-11817
ipeline	-11818
strafen	-11819
▁lauten	-11820
gemessen	-11821
agenturen	-11822
▁rohstoff	-11823
▁untermau	-11824
▁rechtsakt	-11825
▁eventuelle	-11826
▁versorgungs	-11827
▁verschließen	-11828
▁vorbehaltlos	-11829
▁strukturpolitik	-11830
iki	-11831
▁pazif	-11832
▁schade	-11833
sposition	-11834
▁einziger	-11835
▁modalitäten	-11836
▁führungsrolle	-11837
arbeitslosigkeit	-11838
band	-11839
gäng	-11840
militär	-11841
▁angeregt	-11842
▁erachtet	-11843
ologischer	-11844
▁irgendwie	-11845
▁potential	-11846
▁schädlich	-11847
▁verbundene	-11848
▁abwesenheit	-11849
▁pflanzenschutz	-11850
out	-11851
▁erlass	-11852
▁geboren	-11853
▁zeitung	-11854
▁betonung	-11855
▁gekämpft	-11856
▁niedrige	-11857
▁kohärente	-11858
▁menschlichkeit	-11859
▁stabilisierungs	-11860
2/	-11861
zustand	-11862
▁aggres	-11863
strecken	-11864
▁aktivität	-11865
▁erschreck	-11866
▁entsorgung	-11867
▁innovations	-11868
▁geschwindigkeit	-11869
ica	-11870
ktu	-11871
betre	-11872
▁1991	-11873
anteil	-11874
sprüfung	-11875
▁austral	-11876
▁völlige	-11877
▁berliner	-11878
▁israelis	-11879
protokolls	-11880
▁nachvollzieh	-11881
amerikanischen	-11882
dere	-11883
erus	-11884
▁ato	-11885
tamin	-11886
usionen	-11887
▁akadem	-11888
▁gehöre	-11889
eistungen	-11890
politisch	-11891
▁erlitten	-11892
▁unsicher	-11893
▁verleiht	-11894
▁geschätzt	-11895
▁systematische	-11896
verlu	-11897
▁luka	-11898
▁blickw	-11899
▁heiklen	-11900
▁verglichen	-11901
of	-11902
gieb	-11903
▁sprich	-11904
▁minimum	-11905
▁handelns	-11906
▁verbreiten	-11907
▁einwanderern	-11908
▁mehrheitlich	-11909
▁schlüsselrolle	-11910
kri	-11911
ehmer	-11912
lätze	-11913
▁sack	-11914
▁erika	-11915
▁hielt	-11916
gebiets	-11917
▁atomen	-11918
einigung	-11919
▁bisherige	-11920
▁englischen	-11921
▁male	-11922
▁naher	-11923
spunkten	-11924
▁abstand	-11925
▁ähnliches	-11926
▁beauftragt	-11927
▁blockieren	-11928
technologien	-11929
▁finanzhilfe	-11930
▁feder	-11931
▁nukleare	-11932
▁vorkommen	-11933
▁ausgehandelt	-11934
▁begeisterung	-11935
▁jarzembowski	-11936
▁rö	-11937
meter	-11938
▁fähr	-11939
▁ruft	-11940
▁regen	-11941
kanzler	-11942
▁reding	-11943
▁föderal	-11944
▁gewinnt	-11945
arbeitete	-11946
unterschie	-11947
▁gerichten	-11948
▁agrarsektor	-11949
▁potenzielle	-11950
▁wh	-11951
4-02	-11952
▁250	-11953
▁cas	-11954
/2005	-11955
nutzung	-11956
sklausel	-11957
▁hinzuzu	-11958
▁sonstige	-11959
▁anzusehen	-11960
▁maßgeblich	-11961
▁pluralismus	-11962
▁regelmäßige	-11963
▁führerschein	-11964
haushaltsplans	-11965
▁gleichgewichts	-11966
▁stattfindenden	-11967
uro	-11968
▁erp	-11969
▁pack	-11970
/2000)	-11971
▁gingen	-11972
▁ankommt	-11973
▁distanz	-11974
▁gestützt	-11975
▁irgendwo	-11976
▁relevanten	-11977
▁sicherheitsk	-11978
▁zusammenbruch	-11979
mt	-11980
tür	-11981
▁legte	-11982
▁riesigen	-11983
▁gemachten	-11984
▁mißtrauens	-11985
▁atomenergie	-11986
▁darstellung	-11987
▁sozialschutz	-11988
bal	-11989
▁gaz	-11990
▁fiel	-11991
dehnen	-11992
▁erwärm	-11993
▁gelang	-11994
▁version	-11995
▁konzerne	-11996
skommission	-11997
▁gravierende	-11998
▁bevorstehende	-11999
zt	-12000
▁einmü	-12001
▁lichte	-12002
lagerung	-12003
▁dreißig	-12004
▁urteile	-12005
geordnete	-12006
▁besprochen	-12007
▁ergriffenen	-12008
▁niem	-12009
bringt	-12010
▁oomen	-12011
preisen	-12012
▁geduld	-12013
▁beeinfl	-12014
garantien	-12015
▁komplexe	-12016
▁verzweif	-12017
▁ausgelegt	-12018
▁energieein	-12019
▁botschafter	-12020
▁operationen	-12021
▁bürgerlichen	-12022
▁stimmverhalten	-12023
hand	-12024
berku	-12025
▁orte	-12026
▁wagen	-12027
▁vertraue	-12028
▁herzegowina	-12029
eite	-12030
elei	-12031
▁prüft	-12032
▁instanz	-12033
▁angelegt	-12034
▁fischern	-12035
▁dokuments	-12036
▁dringlich	-12037
▁niemanden	-12038
igin	-12039
▁pfeil	-12040
inischen	-12041
▁kleinst	-12042
▁einheits	-12043
▁tausenden	-12044
▁durchbruch	-12045
▁zweckmäßig	-12046
kennzeichnung	-12047
▁befindlichen	-12048
▁begünstigten	-12049
▁leidenschaft	-12050
▁protestieren	-12051
▁grundlegendes	-12052
▁intensivierung	-12053
▁vernachlässigt	-12054
wehr	-12055
agten	-12056
dialog	-12057
▁besetzt	-12058
eicherung	-12059
krankheit	-12060
▁konkretes	-12061
▁hinausgeht	-12062
▁präsentieren	-12063
▁lomé	-12064
person	-12065
▁marken	-12066
▁netzes	-12067
dienstes	-12068
▁kleines	-12069
▁strikte	-12070
▁agraraus	-12071
▁dänische	-12072
▁versehen	-12073
▁zuwenden	-12074
▁kernwaffen	-12075
▁verbrecher	-12076
▁wirtschaftsraum	-12077
46	-12078
ane	-12079
orts	-12080
▁hört	-12081
effekt	-12082
▁ermord	-12083
▁doppelt	-12084
▁langzeit	-12085
▁terroran	-12086
sspielraum	-12087
▁niemandem	-12088
▁engagements	-12089
▁überarbeitet	-12090
▁kontinuierlich	-12091
▁grenzkontrollen	-12092
49	-12093
▁?	-12094
alia	-12095
▁län	-12096
oping	-12097
rische	-12098
▁gehalt	-12099
▁halben	-12100
▁räumen	-12101
▁längere	-12102
▁quantit	-12103
allgemeine	-12104
herrschaft	-12105
▁erweiterte	-12106
▁rechnungshofes	-12107
▁loy	-12108
▁bedenk	-12109
▁diagno	-12110
▁belaufen	-12111
▁ressourc	-12112
▁geschickt	-12113
▁erschweren	-12114
▁unbestreit	-12115
beauftragten	-12116
▁industrielle	-12117
▁währungsfonds	-12118
cha	-12119
swerter	-12120
▁gütern	-12121
▁auftrags	-12122
▁gleiches	-12123
▁besatzung	-12124
▁polnische	-12125
▁auszudehnen	-12126
▁beigemessen	-12127
▁johannesburg	-12128
▁steuerlichen	-12129
büne	-12130
▁wem	-12131
leger	-12132
▁belo	-12133
▁vari	-12134
▁asean	-12135
▁vitor	-12136
▁wovon	-12137
geldern	-12138
▁kabelj	-12139
▁rednerin	-12140
▁geliefert	-12141
▁präferenz	-12142
▁recycling	-12143
▁regulieren	-12144
▁ankündigung	-12145
▁fundamental	-12146
▁hinzuzufügen	-12147
▁individuelle	-12148
▁schwangerschaft	-12149
ani	-12150
ruij	-12151
▁name	-12152
bellen	-12153
▁kodex	-12154
▁rauch	-12155
▁unber	-12156
▁anschul	-12157
▁genießt	-12158
▁tuberku	-12159
▁zwecken	-12160
▁ausbruch	-12161
▁aussieht	-12162
▁erfassung	-12163
▁aufgegeben	-12164
▁kultureller	-12165
▁missbraucht	-12166
▁transaktionen	-12167
▁zurückgegangen	-12168
35	-12169
▁eef	-12170
quali	-12171
▁abseh	-12172
▁stoff	-12173
▁hektar	-12174
▁schätze	-12175
▁versäumt	-12176
▁mangelnden	-12177
▁dramatische	-12178
▁visumpflicht	-12179
fort	-12180
schäd	-12181
▁vogel	-12182
▁hängen	-12183
▁kürzen	-12184
▁flexible	-12185
▁umgebung	-12186
▁prozentsatz	-12187
▁rumänischen	-12188
▁bürokratische	-12189
▁lebensstandard	-12190
ückt	-12191
▁fon	-12192
sucht	-12193
▁stur	-12194
▁motto	-12195
▁bomben	-12196
erusalem	-12197
▁rückzug	-12198
saufgaben	-12199
stehenden	-12200
▁gezielte	-12201
▁anschläge	-12202
▁entsenden	-12203
▁verhängen	-12204
problematik	-12205
▁intensiven	-12206
▁verbleibenden	-12207
▁grundsätzlichen	-12208
oder	-12209
omet	-12210
▁rek	-12211
▁sev	-12212
burger	-12213
netzen	-12214
sorien	-12215
▁11.00	-12216
▁quasi	-12217
▁halbjahr	-12218
▁darzulegen	-12219
▁einrichten	-12220
▁moralischen	-12221
39	-12222
weiß	-12223
▁hygien	-12224
▁unreal	-12225
▁archite	-12226
▁perfekt	-12227
▁zeitlich	-12228
▁bestrafen	-12229
▁touristen	-12230
▁wirksames	-12231
▁missachtung	-12232
zon	-12233
ämmen	-12234
▁prim	-12235
öffnung	-12236
parteien	-12237
▁entsendung	-12238
▁lächerlich	-12239
▁kurzfristige	-12240
stö	-12241
lagt	-12242
pass	-12243
stiz	-12244
apital	-12245
▁repres	-12246
genturen	-12247
▁vervoll	-12248
▁jemanden	-12249
▁prinzips	-12250
▁aufschwung	-12251
▁vollziehen	-12252
▁qualifizierten	-12253
▁grön	-12254
▁angek	-12255
▁herab	-12256
▁pakets	-12257
▁supran	-12258
▁argumen	-12259
▁leichte	-12260
▁militar	-12261
▁ideologie	-12262
▁übergeben	-12263
▁einschließt	-12264
▁wahrzunehmen	-12265
▁energiebereich	-12266
irm	-12267
▁9,	-12268
▁iv	-12269
▁äußert	-12270
▁ablehnt	-12271
▁ernstes	-12272
▁führten	-12273
▁nichtein	-12274
▁gesetzlich	-12275
▁aktualisierung	-12276
fo	-12277
stär	-12278
▁che	-12279
▁hofft	-12280
▁verlang	-12281
kompetenz	-12282
▁baroness	-12283
▁jüngster	-12284
▁schwäche	-12285
▁ansteigen	-12286
▁jedermann	-12287
wirtschafts	-12288
▁westsahara	-12289
▁einzutreten	-12290
▁handelspartner	-12291
bit	-12292
hab	-12293
krebs	-12294
▁galic	-12295
mäßiger	-12296
▁abscheu	-12297
▁unbefrie	-12298
verbreitung	-12299
▁aufbringen	-12300
▁unterzeich	-12301
▁beeinflusst	-12302
wit	-12303
renten	-12304
▁chaos	-12305
fiziert	-12306
▁posten	-12307
▁demograph	-12308
▁drastisch	-12309
▁europäisch	-12310
▁vorhandene	-12311
▁realistische	-12312
▁streitigkeiten	-12313
fäll	-12314
▁dis	-12315
▁jos	-12316
▁sowje	-12317
▁offener	-12318
▁konzepts	-12319
▁monopole	-12320
▁tagungen	-12321
▁geringsten	-12322
▁jugoslawischen	-12323
äle	-12324
▁31	-12325
bemü	-12326
betrag	-12327
▁wurzeln	-12328
▁netzwerk	-12329
▁vitorino	-12330
▁vorgänge	-12331
▁folgender	-12332
▁verhelfen	-12333
geschnitten	-12334
▁verabschiedete	-12335
tinen	-12336
▁kari	-12337
terien	-12338
ruijten	-12339
▁design	-12340
▁pausch	-12341
▁ziffern	-12342
▁dringenden	-12343
▁unterzogen	-12344
▁gelegentlich	-12345
▁bundeskanzler	-12346
gos	-12347
▁maul	-12348
netzes	-12349
▁feier	-12350
▁bombar	-12351
▁zunimmt	-12352
liegenden	-12353
▁unpartei	-12354
verwendung	-12355
▁erteilung	-12356
▁erwähnung	-12357
▁getrennte	-12358
▁tendenzen	-12359
▁humanressourcen	-12360
▁iso	-12361
▁lohnt	-12362
machung	-12363
tierungen	-12364
▁spaniens	-12365
sentscheid	-12366
▁tuberkulose	-12367
▁zurückziehen	-12368
übereinkommens	-12369
▁schwierigkeit	-12370
▁unbefriedigen	-12371
▁administrative	-12372
dro	-12373
uel	-12374
näck	-12375
▁origin	-12376
verbände	-12377
zumachen	-12378
▁schadet	-12379
smaßnahmen	-12380
ham	-12381
▁ethik	-12382
▁mauret	-12383
▁zeigte	-12384
▁balkans	-12385
▁verbots	-12386
▁hartnäck	-12387
▁professor	-12388
▁vernommen	-12389
▁ökologisch	-12390
▁behauptungen	-12391
hoc	-12392
platz	-12393
ämmung	-12394
erleich	-12395
▁vorzug	-12396
faktoren	-12397
sitionen	-12398
▁sitzungs	-12399
▁ausfallen	-12400
▁debattiert	-12401
▁kontraprodu	-12402
▁unverständlich	-12403
▁vizepräsidenten	-12404
lus	-12405
▁hür	-12406
▁pie	-12407
▁mißb	-12408
künfte	-12409
▁zölle	-12410
reitete	-12411
▁bienen	-12412
▁unzähl	-12413
▁kollegium	-12414
▁schädlichen	-12415
▁zurückhalten	-12416
▁fe	-12417
▁gemüse	-12418
▁genuss	-12419
▁stufen	-12420
▁gescheh	-12421
▁spezial	-12422
sprojekte	-12423
▁digitale	-12424
▁englisch	-12425
▁übergangszeit	-12426
▁weltgesundheit	-12427
▁zurückzuziehen	-12428
▁epidem	-12429
▁mütter	-12430
▁starker	-12431
▁zuhören	-12432
▁gewünschten	-12433
▁optimistisch	-12434
▁implementierung	-12435
ori	-12436
▁gon	-12437
▁vet	-12438
▁john	-12439
erecht	-12440
▁bloße	-12441
▁abrüstung	-12442
▁rohstoffe	-12443
▁besprechen	-12444
▁bulgariens	-12445
▁gewöhnlich	-12446
▁unverändert	-12447
▁beunruhigend	-12448
▁christlichen	-12449
komp	-12450
kömm	-12451
▁sok	-12452
chung	-12453
flotte	-12454
▁vorgang	-12455
▁exekutiv	-12456
▁interven	-12457
▁erkenntnis	-12458
▁geleisteten	-12459
▁intelligente	-12460
▁palästinensern	-12461
▁weis	-12462
▁wieso	-12463
▁listen	-12464
▁äußerung	-12465
▁eingestuft	-12466
▁gemischten	-12467
▁größtmögliche	-12468
60	-12469
lade	-12470
diert	-12471
resst	-12472
▁ängste	-12473
tisieren	-12474
▁serbischen	-12475
▁auslieferung	-12476
▁widersprüche	-12477
▁täu	-12478
▁uran	-12479
▁lanka	-12480
schüssen	-12481
▁abgaben	-12482
▁vorfall	-12483
ungsmittel	-12484
▁besetzten	-12485
▁erwärmung	-12486
binnenmarkt	-12487
▁berechnung	-12488
▁unerläßlich	-12489
▁zusatzfrage	-12490
▁gefängnissen	-12491
zá	-12492
▁120	-12493
▁oze	-12494
erträ	-12495
▁symp	-12496
▁unbek	-12497
▁gebaut	-12498
▁sackga	-12499
▁unfällen	-12500
▁heuchelei	-12501
▁ermittlung	-12502
▁propaganda	-12503
4-	-12504
agn	-12505
▁tom	-12506
llegen	-12507
ränden	-12508
▁adresse	-12509
▁ferrero	-12510
▁sensible	-12511
haftigkeit	-12512
▁demonstranten	-12513
ies	-12514
zil	-12515
örp	-12516
▁lamy	-12517
▁leug	-12518
▁betragen	-12519
▁festigen	-12520
▁rundfunk	-12521
▁verteilen	-12522
▁steuerliche	-12523
▁stilllegung	-12524
▁geschehnisse	-12525
▁voraussichtlich	-12526
én	-12527
▁10,	-12528
waren	-12529
▁brem	-12530
konsum	-12531
preises	-12532
▁seeleu	-12533
▁beschuld	-12534
bemühungen	-12535
bewusstsein	-12536
▁präsentiert	-12537
▁befriedigung	-12538
▁angeschlossen	-12539
nütz	-12540
inten	-12541
▁bang	-12542
bauern	-12543
futter	-12544
herein	-12545
▁frequ	-12546
irektor	-12547
staates	-12548
ankungen	-12549
▁franzosen	-12550
▁definitionen	-12551
▁verschlossen	-12552
▁komplizierter	-12553
bul	-12554
▁schar	-12555
▁erneute	-12556
▁geldern	-12557
▁aufgesto	-12558
▁prüfungen	-12559
▁assoziation	-12560
▁blickwinkel	-12561
▁erwachsenen	-12562
▁festzuhalten	-12563
▁energiesektor	-12564
▁ts	-12565
nüpft	-12566
helfen	-12567
▁lehrer	-12568
▁schärf	-12569
▁genügen	-12570
▁vereint	-12571
▁ermordung	-12572
lieferungen	-12573
▁vornherein	-12574
▁existierenden	-12575
▁fortgeschritten	-12576
▁rechtsausschuss	-12577
mack	-12578
▁just	-12579
emokra	-12580
gefähr	-12581
▁versagt	-12582
▁abgestimm	-12583
▁zeitraums	-12584
faß	-12585
neben	-12586
▁aktien	-12587
▁jacques	-12588
▁versäum	-12589
▁teilzeit	-12590
▁einladung	-12591
▁beobachtet	-12592
▁fahrzeugen	-12593
▁jahrzehnte	-12594
▁finanzmitteln	-12595
ümm	-12596
phase	-12597
▁gold	-12598
iedelt	-12599
instre	-12600
kurbeln	-12601
istenten	-12602
▁beläuft	-12603
▁angemerkt	-12604
▁beimessen	-12605
▁kreativität	-12606
▁ausführlichen	-12607
▁unzureichende	-12608
▁vorhergehenden	-12609
▁pes	-12610
▁gelo	-12611
▁josé	-12612
▁sokrates	-12613
▁praktiziert	-12614
▁unglaublich	-12615
▁prostitution	-12616
phne	-12617
▁blie	-12618
/2002)	-12619
▁ideal	-12620
▁kirche	-12621
▁gentechnisch	-12622
ep	-12623
▁nomin	-12624
energie	-12625
▁guinea	-12626
ierendes	-12627
▁fischen	-12628
▁plenart	-12629
▁benennen	-12630
▁annehmbar	-12631
▁großzügig	-12632
▁weltkrieg	-12633
▁ernährungs	-12634
▁hauptstadt	-12635
▁europarates	-12636
▁vernichtung	-12637
▁kurzfristigen	-12638
▁globalisierten	-12639
isen	-12640
▁quer	-12641
▁teuf	-12642
hälter	-12643
▁erbes	-12644
material	-12645
▁verwehrt	-12646
▁beilegung	-12647
▁hinterher	-12648
▁steigende	-12649
▁verschlei	-12650
▁solidarisch	-12651
gh	-12652
tiens	-12653
▁erdenk	-12654
▁ergrei	-12655
▁unüber	-12656
▁harbour	-12657
gespräche	-12658
saufnahme	-12659
▁einnimmt	-12660
▁kommunal	-12661
▁absoluten	-12662
▁anschauen	-12663
▁damaligen	-12664
▁friedlich	-12665
▁gutachten	-12666
▁kostspiel	-12667
▁statistik	-12668
▁schlimmste	-12669
▁bestmögliche	-12670
▁käme	-12671
sionen	-12672
▁meere	-12673
iedlung	-12674
▁dauert	-12675
▁ganzem	-12676
▁unerträ	-12677
betreiber	-12678
▁anhänger	-12679
lagerungen	-12680
▁geopoliti	-12681
▁plattform	-12682
▁ressource	-12683
▁spielregeln	-12684
▁vorherrschen	-12685
lehr	-12686
rede	-12687
▁gep	-12688
schwei	-12689
▁klage	-12690
▁phili	-12691
▁werke	-12692
▁mancher	-12693
▁extremen	-12694
▁beiträgen	-12695
▁sackgasse	-12696
▁verlagern	-12697
▁unvereinbar	-12698
diff	-12699
loser	-12700
uliert	-12701
waldner	-12702
▁spielzeug	-12703
▁nachteilig	-12704
▁rückschritt	-12705
▁stammzellen	-12706
▁geographischen	-12707
ask	-12708
nie	-12709
sspe	-12710
euchen	-12711
▁fremd	-12712
▁straff	-12713
gelegten	-12714
▁armenien	-12715
▁beispiell	-12716
▁finnische	-12717
▁drogenhandel	-12718
▁medikamenten	-12719
▁militärischer	-12720
krimin	-12721
▁argen	-12722
▁heftig	-12723
▁klassi	-12724
▁belaruss	-12725
▁fraktions	-12726
▁ermutigend	-12727
▁anerkannten	-12728
▁wiederverein	-12729
▁mittelfristig	-12730
▁zurückgreifen	-12731
miß	-12732
ochen	-12733
▁rang	-12734
▁links	-12735
▁erwerb	-12736
▁fünfte	-12737
▁serben	-12738
▁beschämen	-12739
▁chemische	-12740
▁rücktritt	-12741
▁reformiert	-12742
▁antibiotika	-12743
▁hochrangigen	-12744
▁wertschätzung	-12745
▁klau	-12746
zielen	-12747
nograph	-12748
versuche	-12749
▁fünftens	-12750
▁gespannt	-12751
▁aufstellen	-12752
▁komponente	-12753
▁verheerenden	-12754
entscheidungen	-12755
.“	-12756
ín	-12757
ili	-12758
▁päd	-12759
iness	-12760
verhü	-12761
▁know	-12762
essalon	-12763
▁bangem	-12764
▁feiern	-12765
▁madeira	-12766
▁doppelten	-12767
▁erklärten	-12768
▁kommunismus	-12769
▁ausgeschöpft	-12770
▁kommerzielle	-12771
▁volksrepublik	-12772
▁nachvollziehen	-12773
▁ließe	-12774
▁provok	-12775
▁reflex	-12776
istisches	-12777
▁kongress	-12778
▁radikale	-12779
essaloniki	-12780
▁renational	-12781
▁befugnissen	-12782
▁festgelegte	-12783
▁hochschulen	-12784
▁schreckliche	-12785
imale	-12786
lings	-12787
▁cohn	-12788
▁kodi	-12789
ängern	-12790
▁zustimmt	-12791
▁sexueller	-12792
▁wohlhaben	-12793
▁abtreibung	-12794
▁gedächtnis	-12795
▁historisch	-12796
▁optimismus	-12797
▁geantwortet	-12798
▁zurückhaltung	-12799
▁vi	-12800
uert	-12801
▁stö	-12802
▁win	-12803
▁daphne	-12804
▁echtes	-12805
▁energi	-12806
▁fusion	-12807
klauseln	-12808
▁blicken	-12809
▁auskunft	-12810
kraftwagen	-12811
instrumenten	-12812
▁übermäßigen	-12813
gin	-12814
leid	-12815
▁char	-12816
archie	-12817
bendit	-12818
▁bedroh	-12819
▁auslösen	-12820
▁spektrum	-12821
▁bangemann	-12822
▁zentrales	-12823
▁jahresende	-12824
stechnologie	-12825
▁mitzuteilen	-12826
▁unterbrechung	-12827
nez	-12828
äqu	-12829
▁km	-12830
▁lig	-12831
▁ango	-12832
▁plus	-12833
▁mutig	-12834
▁orten	-12835
▁verkün	-12836
▁herkömm	-12837
▁soliden	-12838
prävention	-12839
▁empfinden	-12840
▁schritten	-12841
▁vergangene	-12842
frikanischen	-12843
▁beobachtung	-12844
▁konsequente	-12845
▁demografischen	-12846
ußen	-12847
▁böge	-12848
▁costa	-12849
▁gange	-12850
▁winter	-12851
ierender	-12852
berichten	-12853
▁interesses	-12854
▁übermäßige	-12855
▁kostengünst	-12856
▁sekretariat	-12857
▁diskutierten	-12858
▁historischer	-12859
▁kinderarbeit	-12860
vereinbarungen	-12861
▁volkswirtschaft	-12862
ony	-12863
esta	-12864
▁trau	-12865
größer	-12866
▁umhin	-12867
▁aussen	-12868
▁experi	-12869
▁klagen	-12870
▁unvoll	-12871
▁gesunken	-12872
genehmigung	-12873
subventionen	-12874
zo	-12875
aums	-12876
oßen	-12877
▁dün	-12878
▁tak	-12879
▁liter	-12880
produkt	-12881
▁undemokra	-12882
▁migrations	-12883
▁fortführung	-12884
▁längerfrist	-12885
▁niedrigeren	-12886
▁thessaloniki	-12887
ua	-12888
▁dog	-12889
▁kompa	-12890
▁vorur	-12891
▁früchte	-12892
▁ausgangs	-12893
▁erhielten	-12894
▁tragische	-12895
▁auffordert	-12896
▁eindämmung	-12897
▁hinterlassen	-12898
▁sensibilität	-12899
rahmenprogramm	-12900
▁menschenrechtsa	-12901
aben	-12902
kopf	-12903
stru	-12904
harmon	-12905
▁barón	-12906
uftfahrt	-12907
▁gesucht	-12908
▁ausmaßes	-12909
▁sprecher	-12910
▁dynamisch	-12911
▁übermäßig	-12912
ungsanlagen	-12913
▁verfechter	-12914
▁kollektiven	-12915
▁weiterverfol	-12916
▁funktionierende	-12917
3,	-12918
nest	-12919
ürfe	-12920
▁alex	-12921
▁deck	-12922
▁vord	-12923
▁lands	-12924
▁tschad	-12925
▁umfaßt	-12926
▁dumping	-12927
▁ernannt	-12928
▁spürbar	-12929
▁erstatten	-12930
beschränkungen	-12931
▁wör	-12932
diums	-12933
▁mithin	-12934
▁begeben	-12935
▁weichen	-12936
▁erleiden	-12937
▁italiens	-12938
▁kohärent	-12939
▁wirkungen	-12940
▁referendums	-12941
▁spekulation	-12942
▁verpflichtungs	-12943
gau	-12944
▁infe	-12945
▁auftritt	-12946
▁bekundet	-12947
▁regieren	-12948
▁gravierenden	-12949
▁nachbarländer	-12950
ami	-12951
zhei	-12952
▁who	-12953
eisen	-12954
▁bibl	-12955
werden	-12956
▁usbek	-12957
▁bedingt	-12958
▁transfer	-12959
▁unterhalb	-12960
▁vollstreck	-12961
▁grundwasser	-12962
és	-12963
ransp	-12964
▁geiß	-12965
streit	-12966
▁unges	-12967
otheken	-12968
▁befreit	-12969
▁beheben	-12970
änglichen	-12971
▁luftraums	-12972
unternehmer	-12973
▁gruppierungen	-12974
▁bundesrepublik	-12975
▁12,	-12976
▁nenne	-12977
ständen	-12978
▁belieb	-12979
▁verübt	-12980
▁fahrgast	-12981
▁zersplit	-12982
▁ausbreitung	-12983
▁begünstigen	-12984
▁dimensionen	-12985
▁einreichung	-12986
ahrscheinlich	-12987
▁zurückzukehren	-12988
tele	-12989
▁140	-12990
uggel	-12991
zügen	-12992
uchten	-12993
▁täter	-12994
legungs	-12995
stätten	-12996
▁ansäss	-12997
kampagne	-12998
▁modelle	-12999
▁undurch	-13000
▁berufung	-13001
▁gegenwart	-13002
▁erheblicher	-13003
▁hochwertigen	-13004
▁rentensysteme	-13005
▁zentralbanken	-13006
uc	-13007
rik	-13008
ürt	-13009
▁aps	-13010
sspezif	-13011
▁muster	-13012
▁namens	-13013
▁profite	-13014
hanischen	-13015
▁erzeugern	-13016
▁vorherige	-13017
instreaming	-13018
▁aussöhnung	-13019
▁realitäten	-13020
▁wirtschaftszwei	-13021
48	-13022
▁pau	-13023
iland	-13024
tinnen	-13025
spflich	-13026
▁denkbar	-13027
▁unerwün	-13028
▁einsicht	-13029
▁kabeljau	-13030
▁sorgfalt	-13031
▁enttäuschend	-13032
▁slowakischen	-13033
▁ausschlaggebend	-13034
ès	-13035
bus	-13036
ula	-13037
▁müh	-13038
▁aktions	-13039
gerechnet	-13040
ikationen	-13041
▁erfassen	-13042
▁herunter	-13043
▁erwartung	-13044
▁hemmnisse	-13045
▁erörterung	-13046
▁mehrjahres	-13047
▁objektiven	-13048
▁staatsführung	-13049
pä	-13050
▁46	-13051
stei	-13052
▁700	-13053
diten	-13054
▁prek	-13055
▁nummer	-13056
▁schmid	-13057
▁schöne	-13058
kopplung	-13059
altschaft	-13060
▁sanktion	-13061
▁ordentlich	-13062
▁anhaltenden	-13063
▁binnengrenzen	-13064
▁biokraftstoffe	-13065
1/	-13066
int	-13067
▁39	-13068
pest	-13069
▁warn	-13070
▁alpen	-13071
▁niels	-13072
▁werbe	-13073
schiffe	-13074
volumen	-13075
▁berlus	-13076
▁phasen	-13077
bestehen	-13078
strägern	-13079
▁schlepp	-13080
▁einräumt	-13081
▁entzogen	-13082
▁kolonial	-13083
▁realisieren	-13084
▁ausgewogener	-13085
geschwindigkeit	-13086
▁selbstverständ	-13087
3/	-13088
6/	-13089
▁cres	-13090
▁himm	-13091
analyse	-13092
enseuche	-13093
rechnung	-13094
▁erasmus	-13095
▁raketen	-13096
▁glaubens	-13097
▁jahrzehnt	-13098
▁abzuhalten	-13099
▁ergebenden	-13100
▁ausarbeiten	-13101
▁afghanischen	-13102
▁effizientere	-13103
▁güterverkehr	-13104
▁umfassenderen	-13105
▁untersuchungs	-13106
▁vorgebrachten	-13107
sim	-13108
▁byr	-13109
▁ken	-13110
▁mund	-13111
▁ethische	-13112
▁urteilen	-13113
▁beschließt	-13114
▁bestrafung	-13115
▁geschwächt	-13116
▁bestehender	-13117
▁lukaschenko	-13118
▁grundvorauss	-13119
▁resolutionen	-13120
ttet	-13121
sakte	-13122
alteten	-13123
▁erhebt	-13124
▁mitten	-13125
▁regelt	-13126
ssitzung	-13127
▁weitest	-13128
ssprachen	-13129
▁konföder	-13130
besteuerung	-13131
▁gerichteten	-13132
▁flexibilitäts	-13133
37	-13134
ela	-13135
zyp	-13136
▁ke	-13137
▁liqu	-13138
leuten	-13139
▁chile	-13140
zheimer	-13141
▁heimges	-13142
▁sinnvoller	-13143
▁vorgezogen	-13144
▁kinderbetre	-13145
folg	-13146
ison	-13147
taine	-13148
terten	-13149
gremien	-13150
gewinnen	-13151
▁teilung	-13152
projekten	-13153
▁bewahrung	-13154
▁währungen	-13155
▁einschlagen	-13156
▁nachbarstaaten	-13157
▁hunderttausende	-13158
kos	-13159
ites	-13160
general	-13161
▁bedarfs	-13162
▁handhab	-13163
▁pflegen	-13164
▁kontamin	-13165
▁embryonen	-13166
▁empfunden	-13167
▁charakters	-13168
▁gefährdeten	-13169
▁abänderungen	-13170
▁klauenseuche	-13171
▁umverteilung	-13172
▁weitermachen	-13173
▁einzelpersonen	-13174
▁[	-13175
iet	-13176
endt	-13177
fest	-13178
▁11,	-13179
▁saat	-13180
▁einhe	-13181
einheit	-13182
sparung	-13183
▁gewerb	-13184
▁linien	-13185
ausgaben	-13186
▁zeitalter	-13187
▁inhaftiert	-13188
▁bewertungen	-13189
▁hervorrufen	-13190
▁einzugreifen	-13191
▁umfassendere	-13192
▁eig	-13193
ssich	-13194
▁rehn	-13195
ochten	-13196
▁gewisses	-13197
▁kroatiens	-13198
▁abschaffen	-13199
▁besonderem	-13200
▁geldpolitik	-13201
▁nationalismus	-13202
▁zugehörigkeit	-13203
aids	-13204
▁flä	-13205
hardt	-13206
▁sand	-13207
▁sper	-13208
dollar	-13209
▁bürgers	-13210
▁verpack	-13211
ktivisten	-13212
▁obersten	-13213
▁maschinen	-13214
▁geringeren	-13215
▁einseitigen	-13216
angelegenheiten	-13217
▁kommunistische	-13218
▁mittelbetriebe	-13219
grä	-13220
▁49	-13221
betrug	-13222
▁kriege	-13223
▁erwerben	-13224
▁ausschluss	-13225
investitionen	-13226
▁verkehrsträger	-13227
lohn	-13228
▁irr	-13229
wachs	-13230
▁mart	-13231
dition	-13232
okolle	-13233
fristen	-13234
▁lieben	-13235
▁zollen	-13236
▁wohnungs	-13237
▁ausführen	-13238
▁bezahlung	-13239
▁bewußtsein	-13240
▁lobbyisten	-13241
abhängigkeit	-13242
▁anstrengung	-13243
▁besorgnisse	-13244
▁konferenzen	-13245
▁vernünftiger	-13246
▁industriezwei	-13247
▁sozialdumping	-13248
▁arbeitskräften	-13249
▁rad	-13250
tifik	-13251
▁koll	-13252
▁kong	-13253
ansatz	-13254
gewalt	-13255
häuser	-13256
omasse	-13257
sfähig	-13258
▁tschech	-13259
verbrauchs	-13260
▁abschreck	-13261
▁mitwirken	-13262
▁scheinbar	-13263
▁vergrößer	-13264
▁anhaltende	-13265
▁elektronik	-13266
▁aufgestockt	-13267
▁ausstattung	-13268
▁bilateraler	-13269
▁reibungslos	-13270
▁unternommenen	-13271
▁persönlichkeit	-13272
loss	-13273
▁bay	-13274
andem	-13275
karte	-13276
▁ozon	-13277
▁halbe	-13278
▁maßst	-13279
▁ideale	-13280
▁daraufhin	-13281
▁gesetzten	-13282
unterschiede	-13283
▁postdienste	-13284
svorsitzenden	-13285
▁eigenschaften	-13286
ifik	-13287
▁ras	-13288
▁rhe	-13289
fährt	-13290
▁aben	-13291
▁sing	-13292
▁tote	-13293
fläche	-13294
ierbar	-13295
nüpfen	-13296
schwer	-13297
▁fünfzig	-13298
▁intelle	-13299
▁zugriff	-13300
▁atomkraft	-13301
▁scheinheil	-13302
▁unterbricht	-13303
ya	-13304
▁š	-13305
med	-13306
aner	-13307
▁kund	-13308
öglich	-13309
▁jenes	-13310
▁drängt	-13311
▁häuser	-13312
▁anfangs	-13313
▁eingang	-13314
▁direkter	-13315
▁alzheimer	-13316
▁verbindet	-13317
▁aufzugeben	-13318
▁mitteilungen	-13319
▁detaillierten	-13320
gänge	-13321
▁wohle	-13322
kräftig	-13323
▁trilog	-13324
▁datenbank	-13325
▁kohärenten	-13326
▁wiederauff	-13327
▁unterbinden	-13328
▁verknüpfung	-13329
▁angestrebten	-13330
▁überarbeiten	-13331
▁umweltbereich	-13332
27	-13333
▁800	-13334
ierer	-13335
▁byrne	-13336
▁resultat	-13337
▁stiftung	-13338
usstattung	-13339
▁brüsseler	-13340
▁portugals	-13341
▁verbrauchs	-13342
sorganisation	-13343
redu	-13344
▁jens	-13345
▁solv	-13346
grenzt	-13347
▁rating	-13348
▁patente	-13349
tindustrie	-13350
▁vereinigung	-13351
ged	-13352
ssa	-13353
ardo	-13354
▁leb	-13355
▁nir	-13356
binden	-13357
fernen	-13358
▁bilder	-13359
▁crespo	-13360
▁dortigen	-13361
▁massaker	-13362
▁ansprüche	-13363
▁elementen	-13364
▁geringere	-13365
▁unterrichten	-13366
▁herauszufinden	-13367
▁unterschriften	-13368
coni	-13369
-2006	-13370
ziger	-13371
▁netzen	-13372
▁tiefen	-13373
▁unermü	-13374
elemente	-13375
▁brauche	-13376
ichtlinie	-13377
▁entfallen	-13378
▁betroffene	-13379
▁geeigneter	-13380
▁beizutreten	-13381
▁zusammenfassend	-13382
4/	-13383
gefühl	-13384
indlich	-13385
sperspe	-13386
zentrum	-13387
▁gewohn	-13388
▁teufel	-13389
▁erneuten	-13390
▁pfeilers	-13391
▁anläßlich	-13392
▁benötigten	-13393
▁religionen	-13394
▁bearbeitung	-13395
▁vertriebenen	-13396
▁unterstützungs	-13397
▁anschuldigungen	-13398
▁kontraproduktiv	-13399
ams	-13400
lli	-13401
zio	-13402
undi	-13403
▁mat	-13404
▁mör	-13405
▁schüler	-13406
▁dahinter	-13407
tzahlungen	-13408
▁gesammelt	-13409
▁internets	-13410
▁sanierung	-13411
▁unlauteren	-13412
cia	-13413
ole	-13414
▁veh	-13415
abend	-13416
noten	-13417
riere	-13418
▁ruin	-13419
/2003)	-13420
▁fühle	-13421
aufwand	-13422
mension	-13423
▁nötige	-13424
stellbar	-13425
▁siebten	-13426
pflichten	-13427
▁bekennen	-13428
▁zeichnet	-13429
▁kohäsions	-13430
▁störungen	-13431
▁verheeren	-13432
▁sicherstellt	-13433
38	-13434
antast	-13435
▁tragf	-13436
▁vermag	-13437
▁geltung	-13438
▁stimmte	-13439
ministern	-13440
▁relevant	-13441
▁grundrechten	-13442
▁inspektionen	-13443
bro	-13444
fil	-13445
läßt	-13446
tiker	-13447
▁dell	-13448
▁hebt	-13449
▁green	-13450
▁miner	-13451
▁pfund	-13452
geworfen	-13453
▁beraubt	-13454
▁vorigen	-13455
geschoben	-13456
▁vergehen	-13457
▁aufzeigen	-13458
▁alternativ	-13459
▁intellektu	-13460
▁angegriffen	-13461
▁deutlichkeit	-13462
verpflichtungen	-13463
▁identifizieren	-13464
beg	-13465
▁142)	-13466
schancen	-13467
▁station	-13468
▁belassen	-13469
▁laufende	-13470
▁gleichgültig	-13471
zung	-13472
▁brust	-13473
ologisch	-13474
▁anklage	-13475
▁schlich	-13476
▁schwung	-13477
verhütung	-13478
▁aufträge	-13479
▁biomasse	-13480
▁gelitten	-13481
▁signifik	-13482
▁verlaufe	-13483
▁kilometer	-13484
▁berlusconi	-13485
▁souveränen	-13486
▁vorangehen	-13487
▁absicherung	-13488
▁verschlimmert	-13489
▁vorangekommen	-13490
▁weitreichende	-13491
welle	-13492
▁löst	-13493
gütern	-13494
▁flüge	-13495
▁musik	-13496
▁anschau	-13497
▁traurig	-13498
▁verfolgten	-13499
▁anzustreben	-13500
▁unterbreiteten	-13501
irma	-13502
mehl	-13503
budge	-13504
ckten	-13505
rückt	-13506
▁dach	-13507
splänen	-13508
▁frühen	-13509
vigation	-13510
▁extreme	-13511
▁gezielt	-13512
▁vorzüge	-13513
alisierte	-13514
▁ereignet	-13515
▁fürchten	-13516
▁sozialem	-13517
▁wohnsitz	-13518
▁australien	-13519
▁komplement	-13520
▁sachverhalt	-13521
▁unterdrückt	-13522
harmonisierung	-13523
▁strafrechtliche	-13524
nr	-13525
2010	-13526
▁job	-13527
merika	-13528
ströme	-13529
▁wogau	-13530
▁fracht	-13531
▁leiter	-13532
▁venezu	-13533
▁krisens	-13534
▁argentin	-13535
▁billiger	-13536
▁isoliert	-13537
▁erzielung	-13538
▁kinderpor	-13539
▁vermittler	-13540
▁fortgeführt	-13541
4,	-13542
vp	-13543
ney	-13544
pid	-13545
hemm	-13546
läub	-13547
tweg	-13548
▁wol	-13549
estand	-13550
▁minen	-13551
▁quote	-13552
ahnsinn	-13553
▁berufe	-13554
▁annähern	-13555
▁meistern	-13556
svertreter	-13557
▁äthiopien	-13558
▁potenziell	-13559
▁realisiert	-13560
▁meeresumwelt	-13561
▁handlungsbedarf	-13562
47	-13563
▁pi	-13564
▁dul	-13565
meers	-13566
▁liga	-13567
▁bestes	-13568
▁schoko	-13569
▁säulen	-13570
▁england	-13571
▁hinfällig	-13572
▁inverkehr	-13573
▁intoleranz	-13574
▁orientiert	-13575
▁beherrschen	-13576
▁wiederholten	-13577
▁einheitlicher	-13578
▁muttersprache	-13579
▁verkehrssektor	-13580
rand	-13581
▁lock	-13582
▁fluss	-13583
beitrag	-13584
▁doping	-13585
▁erschw	-13586
▁beständ	-13587
▁getätig	-13588
enthalten	-13589
▁exekutive	-13590
▁umzugehen	-13591
▁erschüttert	-13592
▁ökonomische	-13593
▁berechtigten	-13594
cur	-13595
que	-13596
itäre	-13597
bergen	-13598
ützten	-13599
▁extra	-13600
▁valen	-13601
organen	-13602
veranst	-13603
ündigen	-13604
▁amnest	-13605
▁militä	-13606
▁wander	-13607
jähriger	-13608
▁strecken	-13609
▁zehntaus	-13610
▁regelungs	-13611
[...]
